{"version":"1.0","truncation":null,"padding":null,"added_tokens":[{"id":0,"special":true,"content":"[STOP]","single_word":false,"lstrip":false,"rstrip":false,"normalized":false},{"id":1,"special":true,"content":"[UNK]","single_word":false,"lstrip":false,"rstrip":false,"normalized":false}],"normalizer":null,"pre_tokenizer":{"type":"Whitespace"},"post_processor":null,"decoder":null,"model":{"type":"BPE","dropout":null,"unk_token":"[UNK]","continuing_subword_prefix":null,"end_of_word_suffix":null,"fuse_unk":false,"vocab":{"[STOP]":0,"[UNK]":1,"!":2,"\"":3,"#":4,"$":5,"%":6,"&":7,"'":8,"(":9,")":10,"*":11,"+":12,",":13,"-":14,".":15,"/":16,"0":17,"1":18,"2":19,"3":20,"4":21,"5":22,"6":23,"7":24,"8":25,"9":26,":":27,";":28,"=":29,"?":30,"@":31,"[":32,"\\":33,"]":34,"^":35,"_":36,"a":37,"b":38,"c":39,"d":40,"e":41,"f":42,"g":43,"h":44,"i":45,"j":46,"k":47,"l":48,"m":49,"n":50,"o":51,"p":52,"q":53,"r":54,"s":55,"t":56,"u":57,"v":58,"w":59,"x":60,"y":61,"z":62,"{":63,"}":64,"ʼ":65,"—":66,"he":67,"in":68,"the":69,"an":70,"re":71,"ou":72,"ed":73,"th":74,"to":75,"on":76,"at":77,"ing":78,"er":79,"as":80,"and":81,"is":82,"en":83,"ar":84,"al":85,"it":86,"or":87,"st":88,"of":89,"le":90,"me":91,"ad":92,"be":93,"se":94,"ow":95,"ac":96,"was":97,"ly":98,"es":99,"ro":100,"her":101,"id":102,"ld":103,"gh":104,"li":105,"his":106,"ve":107,"you":108,"ll":109,"she":110,"that":111,"we":112,"hi":113,"wi":114,"ay":115,"ti":116,"lo":117,"ch":118,"no":119,"ver":120,"ut":121,"for":122,"so":123,"ke":124,"ri":125,"my":126,"ght":127,"ould":128,"out":129,"un":130,"with":131,"ir":132,"had":133,"ne":134,"ent":135,"ha":136,"mo":137,"ce":138,"co":139,"wh":140,"all":141,"fe":142,"ge":143,"ab":144,"one":145,"ur":146,"but":147,"go":148,"do":149,"him":150,"sh":151,"de":152,"up":153,"red":154,"ther":155,"ck":156,"ter":157,"ok":158,"am":159,"ion":160,"ain":161,"te":162,"ack":163,"pe":164,"oun":165,"''":166,"ag":167,"us":168,"ca":169,"now":170,"sa":171,"whe":172,"thing":173,"rom":174,"they":175,"ant":176,"if":177,"od":178,"con":179,"not":180,"pp":181,"from":182,"ss":183,"way":184,"ust":185,"ard":186,"tr":187,"have":188,"this":189,"ound":190,"il":191,"ind":192,"po":193,"some":194,"are":195,"what":196,"own":197,"ic":198,"fo":199,"were":200,"su":201,"man":202,"could":203,"like":204,"ted":205,"would":206,"mp":207,"did":208,"back":209,"ide":210,"ra":211,"ex":212,"wor":213,"there":214,"ul":215,"look":216,"ough":217,"ho":218,"ers":219,"qu":220,"bo":221,"our":222,"pl":223,"into":224,"gr":225,"ight":226,"che":227,"ill":228,"wo":229,"el":230,"when":231,"ak":232,"ace":233,"just":234,"ally":235,"ever":236,"them":237,"ate":238,"by":239,"ven":240,"op":241,"ation":242,"la":243,"know":244,"about":245,"hand":246,"end":247,"time":248,"any":249,"over":250,"see":251,"then":252,"et":253,"ked":254,"ast":255,"ong":256,"sto":257,"been":258,"ment":259,"si":260,"other":261,"sp":262,"ey":263,"art":264,"get":265,"bl":266,"down":267,"tion":268,"ous":269,"who":270,"said":271,"ep":272,"ake":273,"ink":274,"br":275,"more":276,"want":277,"urn":278,"ting":279,"head":280,"sel":281,"ine":282,"again":283,"pro":284,"pre":285,"your":286,"can":287,"gu":288,"ap":289,"fore":290,"their":291,"off":292,"side":293,"ist":294,"how":295,"im":296,"whi":297,"ess":298,"af":299,"ry":300,"der":301,"sm":302,"nt":303,"eyes":304,"new":305,"thr":306,"use":307,"om":308,"self":309,"ru":310,"than":311,"turn":312,"ved":313,"sc":314,"even":315,"ought":316,"per":317,"fi":318,"hed":319,"pped":320,"ct":321,"pu":322,"able":323,"arm":324,"right":325,"vi":326,"every":327,"..":328,"com":329,"ear":330,"di":331,"gl":332,"before":333,"ty":334,"around":335,"ity":336,"ving":337,"ass":338,"ade":339,"think":340,"through":341,"day":342,"clo":343,"tle":344,"only":345,"ite":346,"ble":347,"ure":348,"will":349,"ick":350,"let":351,"king":352,"gi":353,"ath":354,"med":355,"ward":356,"cl":357,"where":358,"its":359,"ice":360,"air":361,"ps":362,"ful":363,"ach":364,"ga":365,"looked":366,"led":367,"ten":368,"dis":369,"vo":370,"um":371,"lit":372,"ree":373,"face":374,"come":375,"room":376,"after":377,"read":378,"going":379,"long":380,"act":381,"ated":382,"too":383,"here":384,"thought":385,"na":386,"away":387,"beca":388,"mu":389,"ang":390,"still":391,"two":392,"door":393,"lt":394,"fr":395,"should":396,"wat":397,"ort":398,"jo":399,"need":400,"ci":401,"pr":402,"ans":403,"sho":404,"light":405,"mar":406,"bed":407,"most":408,"something":409,"gre":410,"ance":411,"say":412,"never":413,"bre":414,"fir":415,"got":416,"car":417,"ste":418,"low":419,"made":420,"ont":421,"ched":422,"ened":423,"bet":424,"wa":425,"ig":426,"sed":427,"feel":428,"cle":429,"well":430,"ft":431,"because":432,"bod":433,"asked":434,"ber":435,"bu":436,"much":437,"ning":438,"good":439,"ves":440,"night":441,"tor":442,"turned":443,"under":444,"which":445,"tal":446,"shi":447,"ople":448,"little":449,"people":450,"tic":451,"tri":452,"comp":453,"men":454,"knew":455,"wal":456,"dd":457,"first":458,"mon":459,"spe":460,"ence":461,"fa":462,"went":463,"make":464,"lie":465,"ds":466,"pt":467,"des":468,"iz":469,"body":470,"fin":471,"has":472,"age":473,"ser":474,"try":475,"min":476,"ark":477,"call":478,"lled":479,"ts":480,"sit":481,"may":482,"aking":483,"ol":484,"ple":485,"ose":486,"lu":487,"felt":488,"est":489,"take":490,"very":491,"happ":492,"cont":493,"took":494,"hel":495,"stand":496,"cre":497,"ared":498,"sk":499,"ase":500,"sur":501,"cr":502,"ue":503,"tell":504,"ish":505,"ren":506,"rest":507,"sure":508,"life":509,"less":510,"wanted":511,"ies":512,"cor":513,"ie":514,"against":515,"real":516,"mor":517,"ced":518,"hands":519,"ile":520,"year":521,"used":522,"star":523,"why":524,"put":525,"though":526,"str":527,"ks":528,"dr":529,"...":530,"au":531,"came":532,"while":533,"hu":534,"mat":535,"ph":536,"mind":537,"ise":538,"another":539,"ned":540,"ross":541,"ner":542,"really":543,"being":544,"left":545,"dre":546,"hard":547,"chi":548,"ouse":549,"ction":550,"iss":551,"part":552,"ily":553,"set":554,"bro":555,"ged":556,"few":557,"app":558,"ton":559,"last":560,"cho":561,"sha":562,"moment":563,"ive":564,"ways":565,"til":566,"old":567,"owed":568,"int":569,"fri":570,"beg":571,"hind":572,"par":573,"ready":574,"ped":575,"cur":576,"cked":577,"lea":578,"might":579,"blo":580,"find":581,"those":582,"hun":583,"behind":584,"toward":585,"ze":586,"house":587,"ma":588,"xt":589,"saw":590,"things":591,"stu":592,"je":593,"keep":594,"work":595,"enough":596,"wait":597,"open":598,"fl":599,"voice":600,"ness":601,"ange":602,"dark":603,"cent":604,"fing":605,"place":606,"nothing":607,"friend":608,"tre":609,"sen":610,"until":611,"ating":612,"fu":613,"cer":614,"anything":615,"outh":616,"ary":617,"lau":618,"ju":619,"coun":620,"once":621,"wr":622,"found":623,"ince":624,"hair":625,"ff":626,"press":627,"told":628,"imp":629,"les":630,"ms":631,"both":632,"sil":633,"sound":634,"run":635,"care":636,"front":637,"bit":638,"flo":639,"ching":640,"looking":641,"tain":642,"mer":643,"sat":644,"wall":645,"ses":646,"hold":647,"sup":648,"bar":649,"sl":650,"hal":651,"next":652,"col":653,"iled":654,"does":655,"aw":656,"these":657,"ious":658,"nor":659,"ys":660,"du":661,"gir":662,"three":663,"same":664,"always":665,"stre":666,"home":667,"without":668,"ually":669,"ling":670,"table":671,"himself":672,"ween":673,"world":674,"cted":675,"between":676,"girl":677,"help":678,"wind":679,"mem":680,"bab":681,"land":682,"small":683,"inside":684,"dri":685,"years":686,"each":687,"leg":688,"don":689,"ger":690,"ah":691,"heart":692,"vis":693,"shed":694,"black":695,"mouth":696,"ire":697,"love":698,"gn":699,"arms":700,"ob":701,"seemed":702,"woman":703,"fam":704,"won":705,"maybe":706,"many":707,"cour":708,"father":709,"cal":710,"far":711,"ta":712,"ried":713,"ows":714,"ash":715,"secon":716,"mother":717,"across":718,"ef":719,"kind":720,"sid":721,"ings":722,"amp":723,"smile":724,"kill":725,"ached":726,"blood":727,"everything":728,"appe":729,"sing":730,"play":731,"pulled":732,"dif":733,"pers":734,"ars":735,"give":736,"deep":737,"ot":738,"also":739,"ye":740,"since":741,"dro":742,"ces":743,"ia":744,"heard":745,"lot":746,"belie":747,"form":748,"pain":749,"trying":750,"almost":751,"ev":752,"ised":753,"must":754,"ower":755,"quest":756,"tra":757,"ank":758,"foll":759,"pa":760,"war":761,"lat":762,"sent":763,"stood":764,"gave":765,"hear":766,"dec":767,"pass":768,"better":769,"big":770,"ason":771,"slow":772,"started":773,"close":774,"mean":775,"words":776,"pri":777,"already":778,"em":779,"inter":780,"myself":781,"quick":782,"times":783,"tru":784,"gether":785,"together":786,"water":787,"near":788,"done":789,"owing":790,"yet":791,"seen":792,"hor":793,"step":794,"feet":795,"ket":796,"ins":797,"mi":798,"tried":799,"swe":800,"ions":801,"lips":802,"held":803,"someone":804,"gen":805,"breath":806,"sle":807,"pping":808,"move":809,"coming":810,"walked":811,"rent":812,"eas":813,"mes":814,"remem":815,"start":816,"else":817,"great":818,"ized":819,"ond":820,"main":821,"nodd":822,"ane":823,"raw":824,"lic":825,"ni":826,"such":827,"tou":828,"floor":829,"ical":830,"son":831,"lar":832,"spo":833,"ssi":834,"moved":835,"half":836,"hur":837,"dont":838,"rug":839,"minut":840,"ek":841,"person":842,"vers":843,"ben":844,"doing":845,"comm":846,"ground":847,"top":848,"fall":849,"ished":850,"tak":851,"ghed":852,"ale":853,"scre":854,"high":855,"ask":856,"hour":857,"ris":858,"sy":859,"fully":860,"stay":861,"ual":862,"enti":863,"child":864,"nodded":865,"qui":866,"aced":867,"av":868,"along":869,"cess":870,"ered":871,"fre":872,"called":873,"cou":874,"herself":875,"fle":876,"four":877,"second":878,"began":879,"ran":880,"att":881,"possi":882,"cas":883,"ately":884,"white":885,"gone":886,"char":887,"chest":888,"que":889,"aring":890,"needed":891,"fire":892,"word":893,"pat":894,"didnt":895,"stop":896,"sof":897,"yes":898,"fingers":899,"cus":900,"ations":901,"dy":902,"teen":903,"ither":904,"val":905,"**":906,"power":907,"ian":908,"mr":909,"rep":910,"diffe":911,"ters":912,"human":913,"name":914,"cy":915,"bad":916,"plan":917,"dden":918,"getting":919,"past":920,"soon":921,"stead":922,"temp":923,"book":924,"cu":925,"sudden":926,"cli":927,"sun":928,"smiled":929,"dire":930,"ny":931,"probab":932,"least":933,"dead":934,"making":935,"ering":936,"best":937,"pick":938,"reached":939,"emp":940,"lean":941,"den":942,"phone":943,"tive":944,"bus":945,"probably":946,"inte":947,"miss":948,"eye":949,"dam":950,"ls":951,"fact":952,"gri":953,"contin":954,"youn":955,"pull":956,"pret":957,"later":958,"clear":959,"dan":960,"dress":961,"shook":962,"inst":963,"gy":964,"oh":965,"anger":966,"skin":967,"arent":968,"mag":969,"leave":970,"talk":971,"ently":972,"five":973,"grab":974,"ded":975,"cat":976,"days":977,"finally":978,"tered":979,"vered":980,"line":981,"comple":982,"opened":983,"cla":984,"god":985,"cut":986,"six":987,"bri":988,"nat":989,"fight":990,"fect":991,"standing":992,"reason":993,"family":994,"point":995,"mil":996,"expe":997,"tu":998,"course":999,"ided":1000,"ging":1001,"forward":1002,"feeling":1003,"lin":1004,"list":1005,"tight":1006,"tow":1007,"dist":1008,"stopped":1009,"bor":1010,"ding":1011,"thir":1012,"kept":1013,"hell":1014,"cau":1015,"boy":1016,"row":1017,"surpr":1018,"mis":1019,"cking":1020,"mas":1021,"vie":1022,"ches":1023,"idea":1024,"fill":1025,"ild":1026,"sor":1027,"als":1028,"having":1029,"sli":1030,"ship":1031,"full":1032,"neck":1033,"hes":1034,"taking":1035,"ening":1036,"happened":1037,"mid":1038,"fted":1039,"ended":1040,"ele":1041,"answ":1042,"tw":1043,"dered":1044,"har":1045,"fell":1046,"mus":1047,"ja":1048,"certain":1049,"meet":1050,"ously":1051,"shoulder":1052,"believe":1053,"morning":1054,"different":1055,"lay":1056,"conf":1057,"ster":1058,"sw":1059,"whole":1060,"ons":1061,"glan":1062,"eld":1063,"round":1064,"sign":1065,"reg":1066,"fun":1067,"hit":1068,"ates":1069,"build":1070,"iness":1071,"dou":1072,"pic":1073,"quickly":1074,"closed":1075,"stra":1076,"ring":1077,"vel":1078,"mine":1079,"fort":1080,"pur":1081,"remember":1082,"oud":1083,"brother":1084,"ained":1085,"met":1086,"cold":1087,"zed":1088,"prote":1089,"sleep":1090,"ens":1091,"wood":1092,"action":1093,"thro":1094,"free":1095,"actually":1096,"motion":1097,"ult":1098,"iling":1099,"resp":1100,"oney":1101,"dred":1102,"large":1103,"bled":1104,"chair":1105,"sub":1106,"question":1107,"slowly":1108,"walk":1109,"outside":1110,"ular":1111,"young":1112,"watched":1113,"tention":1114,"death":1115,"ones":1116,"cks":1117,"alone":1118,"ased":1119,"num":1120,"ents":1121,"didn":1122,"stared":1123,"everyone":1124,"guy":1125,"peri":1126,"ord":1127,"thre":1128,"ments":1129,"gun":1130,"sn":1131,"either":1132,"hundred":1133,"res":1134,"rid":1135,"mit":1136,"uring":1137,"thinking":1138,"tom":1139,"ley":1140,"soft":1141,"cra":1142,"taken":1143,"contro":1144,"lead":1145,"laugh":1146,"blue":1147,"whis":1148,"suddenly":1149,"kid":1150,"guard":1151,"scho":1152,"hall":1153,"onto":1154,"lost":1155,"short":1156,"minutes":1157,"twent":1158,"twenty":1159,"bot":1160,"imag":1161,"cri":1162,"figu":1163,"foot":1164,"gra":1165,"aged":1166,"gar":1167,"ures":1168,"school":1169,"simp":1170,"os":1171,"warm":1172,"others":1173,"complete":1174,"break":1175,"wonder":1176,"ined":1177,"fast":1178,"street":1179,"bur":1180,"anyone":1181,"exp":1182,"case":1183,"matter":1184,"hope":1185,"mal":1186,"instead":1187,"burn":1188,"clu":1189,"fic":1190,"sense":1191,"stro":1192,"ken":1193,"show":1194,"understand":1195,"caught":1196,"talking":1197,"sol":1198,"gaze":1199,"vic":1200,"kne":1201,"mach":1202,"ping":1203,"possible":1204,"amer":1205,"gest":1206,"van":1207,"chang":1208,"appro":1209,"smo":1210,"poin":1211,"ants":1212,"waiting":1213,"amed":1214,"cept":1215,"ming":1216,"friends":1217,"vent":1218,"ago":1219,"ition":1220,"stair":1221,"abo":1222,"kiss":1223,"continu":1224,"sever":1225,"shir":1226,"city":1227,"strong":1228,"ited":1229,"appeared":1230,"gan":1231,"brought":1232,"eng":1233,"wrong":1234,"offe":1235,"shad":1236,"legs":1237,"safe":1238,"known":1239,"window":1240,"says":1241,"ier":1242,"ister":1243,"quiet":1244,"ung":1245,"ending":1246,"shot":1247,"eight":1248,"lad":1249,"zz":1250,"pretty":1251,"dad":1252,"oc":1253,"law":1254,"bs":1255,"ror":1256,"draw":1257,"town":1258,"interest":1259,"remain":1260,"gue":1261,"fur":1262,"cing":1263,"seat":1264,"aces":1265,"da":1266,"jack":1267,"change":1268,"given":1269,"money":1270,"fer":1271,"cial":1272,"covered":1273,"band":1274,"several":1275,"exact":1276,"entire":1277,"laughed":1278,"bring":1279,"eks":1280,"lear":1281,"bare":1282,"ctor":1283,"kit":1284,"pal":1285,"straight":1286,"rel":1287,"fli":1288,"por":1289,"bat":1290,"posed":1291,"wel":1292,"akes":1293,"cir":1294,"quite":1295,"glanced":1296,"okay":1297,"nine":1298,"ility":1299,"realized":1300,"view":1301,"answer":1302,"cross":1303,"throat":1304,"chap":1305,"hot":1306,"tory":1307,"stepped":1308,"glass":1309,"vin":1310,"month":1311,"sus":1312,"sitting":1313,"hurt":1314,"fear":1315,"road":1316,"followed":1317,"pie":1318,"joy":1319,"bing":1320,"sear":1321,"express":1322,"women":1323,"ball":1324,"whatever":1325,"attention":1326,"holding":1327,"hours":1328,"grin":1329,"die":1330,"stri":1331,"bal":1332,"lli":1333,"gas":1334,"sex":1335,"bru":1336,"cru":1337,"lan":1338,"ial":1339,"finger":1340,"mur":1341,"wra":1342,"pap":1343,"lly":1344,"meant":1345,"posit":1346,"watching":1347,"cover":1348,"running":1349,"fif":1350,"cry":1351,"prom":1352,"living":1353,"looks":1354,"bag":1355,"watch":1356,"deal":1357,"dle":1358,"live":1359,"ists":1360,"ries":1361,"moving":1362,"thous":1363,"thousand":1364,"longer":1365,"shirt":1366,"upon":1367,"sort":1368,"squ":1369,"perfect":1370,"cup":1371,"using":1372,"ctive":1373,"mom":1374,"happy":1375,"week":1376,"chapter":1377,"become":1378,"ities":1379,"bas":1380,"igh":1381,"vol":1382,"ili":1383,"sme":1384,"leaned":1385,"beau":1386,"drink":1387,"shut":1388,"above":1389,"pushed":1390,"tee":1391,"died":1392,"sal":1393,"vor":1394,"brea":1395,"green":1396,"cap":1397,"gener":1398,"lying":1399,"loved":1400,"mir":1401,"haps":1402,"chen":1403,"pan":1404,"expl":1405,"touch":1406,"stru":1407,"proble":1408,"perhaps":1409,"control":1410,"din":1411,"ky":1412,"grabbed":1413,"speak":1414,"couple":1415,"beside":1416,"slid":1417,"late":1418,"sive":1419,"closer":1420,"vamp":1421,"within":1422,"exactly":1423,"guess":1424,"sam":1425,"isted":1426,"fine":1427,"true":1428,"stairs":1429,"shoulders":1430,"ssed":1431,"chance":1432,"ize":1433,"slight":1434,"ital":1435,"beauti":1436,"rose":1437,"mad":1438,"experi":1439,"apart":1440,"jump":1441,"passed":1442,"medi":1443,"office":1444,"sky":1445,"reach":1446,"opp":1447,"filled":1448,"lied":1449,"ene":1450,"grand":1451,"drag":1452,"ghter":1453,"pack":1454,"tin":1455,"dream":1456,"job":1457,"working":1458,"exc":1459,"ically":1460,"hen":1461,"kis":1462,"uni":1463,"continued":1464,"antly":1465,"business":1466,"rather":1467,"arr":1468,"ils":1469,"lling":1470,"win":1471,"ject":1472,"dropped":1473,"memor":1474,"grou":1475,"arri":1476,"notic":1477,"lls":1478,"zy":1479,"decided":1480,"state":1481,"return":1482,"parent":1483,"pay":1484,"port":1485,"stone":1486,"raised":1487,"sou":1488,"import":1489,"ison":1490,"beautiful":1491,"kitchen":1492,"box":1493,"hers":1494,"bi":1495,"trust":1496,"vampire":1497,"story":1498,"doub":1499,"phi":1500,"food":1501,"sight":1502,"ties":1503,"tears":1504,"gold":1505,"wide":1506,"joh":1507,"colle":1508,"please":1509,"attack":1510,"building":1511,"edge":1512,"selves":1513,"bey":1514,"saying":1515,"begin":1516,"secre":1517,"ied":1518,"youre":1519,"earth":1520,"shrug":1521,"present":1522,"pleas":1523,"truth":1524,"bly":1525,"bright":1526,"crow":1527,"terri":1528,"immedi":1529,"steps":1530,"fair":1531,"sides":1532,"during":1533,"order":1534,"completely":1535,"children":1536,"corner":1537,"leaving":1538,"hea":1539,"towards":1540,"sorry":1541,"rub":1542,"obvi":1543,"ashed":1544,"ann":1545,"john":1546,"thor":1547,"kno":1548,"gro":1549,"cha":1550,"thes":1551,"zing":1552,"hid":1553,"seeing":1554,"swi":1555,"ina":1556,"key":1557,"shar":1558,"pressed":1559,"spoke":1560,"nice":1561,"flow":1562,"bir":1563,"shit":1564,"lifted":1565,"shing":1566,"gotten":1567,"expression":1568,"unch":1569,"easy":1570,"ama":1571,"yeah":1572,"force":1573,"nearly":1574,"parents":1575,"board":1576,"sum":1577,"concer":1578,"silence":1579,"bene":1580,"thats":1581,"aked":1582,"wasnt":1583,"respon":1584,"acing":1585,"test":1586,"bow":1587,"rain":1588,"und":1589,"ages":1590,"giving":1591,"stomach":1592,"reco":1593,"cast":1594,"pose":1595,"gry":1596,"makes":1597,"gs":1598,"wed":1599,"ith":1600,"raid":1601,"changed":1602,"walking":1603,"placed":1604,"mist":1605,"prof":1606,"thank":1607,"hang":1608,"however":1609,"became":1610,"picked":1611,"writ":1612,"serious":1613,"xed":1614,"direction":1615,"space":1616,"convers":1617,"stuff":1618,"sister":1619,"number":1620,"worked":1621,"fla":1622,"fas":1623,"pict":1624,"waited":1625,"knowing":1626,"gled":1627,"staring":1628,"noticed":1629,"beneath":1630,"tice":1631,"sque":1632,"strange":1633,"offic":1634,"returned":1635,"rolled":1636,"ute":1637,"cket":1638,"clean":1639,"middle":1640,"beat":1641,"sometimes":1642,"ator":1643,"ident":1644,"mand":1645,"bling":1646,"ying":1647,"grow":1648,"ign":1649,"thick":1650,"alex":1651,"expected":1652,"shout":1653,"eat":1654,"killed":1655,"danger":1656,"seem":1657,"thoughts":1658,"figure":1659,"moun":1660,"cep":1661,"--":1662,"ler":1663,"avy":1664,"clim":1665,"clothes":1666,"spot":1667,"teeth":1668,"formation":1669,"wife":1670,"bul":1671,"emotion":1672,"important":1673,"frown":1674,"sco":1675,"although":1676,"rup":1677,"jer":1678,"empty":1679,"uck":1680,"bers":1681,"gent":1682,"sion":1683,"path":1684,"flu":1685,"poli":1686,"scream":1687,"seven":1688,"drive":1689,"pi":1690,"damn":1691,"immediately":1692,"happen":1693,"group":1694,"enjoy":1695,"cting":1696,"heavy":1697,"field":1698,"wild":1699,"sad":1700,"anna":1701,"sar":1702,"deli":1703,"kes":1704,"baby":1705,"cially":1706,"wol":1707,"claim":1708,"kick":1709,"wondered":1710,"ors":1711,"heal":1712,"sand":1713,"months":1714,"inc":1715,"supposed":1716,"eu":1717,"today":1718,"desk":1719,"sharp":1720,"wish":1721,"girls":1722,"rock":1723,"trou":1724,"tar":1725,"turning":1726,"famili":1727,"coffe":1728,"bered":1729,"conne":1730,"position":1731,"paper":1732,"cell":1733,"ety":1734,"sold":1735,"fit":1736,"anyway":1737,"tongue":1738,"loud":1739,"spir":1740,"pul":1741,"recogn":1742,"rad":1743,"rele":1744,"hy":1745,"barely":1746,"class":1747,"single":1748,"bla":1749,"mark":1750,"capt":1751,"aded":1752,"drew":1753,"rage":1754,"none":1755,"gray":1756,"tt":1757,"cles":1758,"pen":1759,"often":1760,"coffee":1761,"assu":1762,"sighed":1763,"ress":1764,"consid":1765,"nose":1766,"ient":1767,"pointed":1768,"simply":1769,"desp":1770,"comfor":1771,"conversation":1772,"vision":1773,"sweet":1774,"telling":1775,"kissed":1776,"ards":1777,"couldnt":1778,"problem":1779,"spent":1780,"police":1781,"beyond":1782,"lights":1783,"log":1784,"whether":1785,"espe":1786,"thirty":1787,"unk":1788,"lord":1789,"ney":1790,"early":1791,"ener":1792,"anim":1793,"comes":1794,"shall":1795,"cant":1796,"surprised":1797,"ud":1798,"coll":1799,"guys":1800,"sage":1801,"ative":1802,"dau":1803,"brown":1804,"wit":1805,"io":1806,"especially":1807,"except":1808,"cheek":1809,"pub":1810,"crack":1811,"luck":1812,"demon":1813,"minute":1814,"wearing":1815,"pet":1816,"bath":1817,"ilt":1818,"stret":1819,"liked":1820,"relie":1821,"worry":1822,"afraid":1823,"dar":1824,"pho":1825,"information":1826,"fro":1827,"remind":1828,"gle":1829,"shrugged":1830,"cool":1831,"fied":1832,"area":1833,"esca":1834,"knows":1835,"jac":1836,"fold":1837,"ably":1838,"ony":1839,"vice":1840,"pered":1841,"tern":1842,"explo":1843,"worth":1844,"prac":1845,"ba":1846,"vern":1847,"situ":1848,"appear":1849,"tall":1850,"gor":1851,"brain":1852,"lip":1853,"wasn":1854,"rence":1855,"spect":1856,"suc":1857,"train":1858,"huge":1859,"doors":1860,"headed":1861,"tim":1862,"rich":1863,"threat":1864,"knees":1865,"unt":1866,"vest":1867,"slightly":1868,"secret":1869,"themselves":1870,"bra":1871,"tas":1872,"defin":1873,"broken":1874,"lion":1875,"ric":1876,"tiny":1877,"trans":1878,"walls":1879,"touched":1880,"syste":1881,"yourself":1882,"iff":1883,"produ":1884,"event":1885,"stick":1886,"among":1887,"heat":1888,"ham":1889,"pes":1890,"add":1891,"suit":1892,"aint":1893,"trees":1894,"somehow":1895,"ural":1896,"weap":1897,"tree":1898,"piece":1899,"var":1900,"male":1901,"means":1902,"oper":1903,"spread":1904,"tonight":1905,"rat":1906,"boo":1907,"hus":1908,"stup":1909,"carry":1910,"sounded":1911,"doubt":1912,"thin":1913,"ances":1914,"follow":1915,"country":1916,"ram":1917,"weeks":1918,"ature":1919,"shes":1920,"finished":1921,"cared":1922,"sla":1923,"deser":1924,"sea":1925,"company":1926,"tone":1927,"hum":1928,"iv":1929,"lady":1930,"velo":1931,"inde":1932,"darkness":1933,"pulling":1934,"super":1935,"forced":1936,"trac":1937,"further":1938,"wrapped":1939,"distance":1940,"mess":1941,"vir":1942,"trouble":1943,"remembered":1944,"weak":1945,"command":1946,"bedroom":1947,"def":1948,"game":1949,"anti":1950,"party":1951,"kids":1952,"camp":1953,"ahead":1954,"worse":1955,"demand":1956,"mile":1957,"seconds":1958,"itself":1959,"ising":1960,"news":1961,"chris":1962,"seems":1963,"lier":1964,"alive":1965,"lets":1966,"thered":1967,"asses":1968,"bel":1969,"somewhere":1970,"dev":1971,"dir":1972,"spl":1973,"consc":1974,"ism":1975,"questions":1976,"ible":1977,"sug":1978,"mention":1979,"locked":1980,"surprise":1981,"gently":1982,"managed":1983,"aware":1984,"wound":1985,"inv":1986,"doctor":1987,"cab":1988,"track":1989,"reve":1990,"eve":1991,"wore":1992,"counter":1993,"dressed":1994,"strug":1995,"rope":1996,"sett":1997,"een":1998,"threw":1999,"dog":2000,"jor":2001,"magic":2002,"daughter":2003,"hat":2004,"stupid":2005,"replied":2006,"tro":2007,"silent":2008,"team":2009,"fut":2010,"exam":2011,"clearly":2012,"thed":2013,"attemp":2014,"flat":2015,"commun":2016,"eli":2017,"check":2018,"suggest":2019,"broke":2020,"ines":2021,"hood":2022,"stren":2023,"crowd":2024,"lived":2025,"calm":2026,"surround":2027,"ational":2028,"below":2029,"swall":2030,"sir":2031,"bell":2032,"pit":2033,"inclu":2034,"mrs":2035,"ron":2036,"sick":2037,"priv":2038,"crazy":2039,"ka":2040,"battle":2041,"lock":2042,"ery":2043,"streng":2044,"squee":2045,"metal":2046,"explain":2047,"partic":2048,"pocket":2049,"idence":2050,"direct":2051,"count":2052,"brief":2053,"firm":2054,"ific":2055,"cop":2056,"weight":2057,"situation":2058,"tian":2059,"itely":2060,"tired":2061,"sweat":2062,"takes":2063,"invol":2064,"pun":2065,"hesit":2066,"nineteen":2067,"dinner":2068,"survi":2069,"stare":2070,"particular":2071,"ug":2072,"els":2073,"tors":2074,"zen":2075,"za":2076,"ban":2077,"meeting":2078,"sts":2079,"angry":2080,"playing":2081,"prin":2082,"likely":2083,"future":2084,"beth":2085,"nick":2086,"pound":2087,"born":2088,"catch":2089,"public":2090,"ref":2091,"tel":2092,"music":2093,"oked":2094,"bottom":2095,"apparent":2096,"aled":2097,"admit":2098,"phys":2099,"husband":2100,"proper":2101,"familiar":2102,"jud":2103,"gets":2104,"showed":2105,"agree":2106,"certainly":2107,"desper":2108,"rist":2109,"lives":2110,"slam":2111,"kni":2112,"igno":2113,"wered":2114,"jaw":2115,"hung":2116,"arrived":2117,"ics":2118,"bil":2119,"energy":2120,"hide":2121,"jes":2122,"keeping":2123,"issu":2124,"added":2125,"sigh":2126,"grew":2127,"tail":2128,"waist":2129,"nes":2130,"avo":2131,"wet":2132,"earlier":2133,"despite":2134,"sna":2135,"usually":2136,"paused":2137,"ledge":2138,"max":2139,"wants":2140,"tically":2141,"sty":2142,"llow":2143,"search":2144,"pair":2145,"sword":2146,"comfortable":2147,"whispered":2148,"lies":2149,"fortun":2150,"soul":2151,"moon":2152,"relation":2153,"diffic":2154,"usual":2155,"termin":2156,"worried":2157,"chin":2158,"base":2159,"snow":2160,"ager":2161,"evening":2162,"level":2163,"normal":2164,"sounds":2165,"ali":2166,"master":2167,"umbled":2168,"crossed":2169,"tori":2170,"expect":2171,"sie":2172,"formed":2173,"easily":2174,"conscious":2175,"flash":2176,"third":2177,"boys":2178,"save":2179,"strength":2180,"unders":2181,"silver":2182,"remained":2183,"noon":2184,"handed":2185,"respond":2186,"pleasure":2187,"smell":2188,"tering":2189,"acy":2190,"slipped":2191,"mel":2192,"decis":2193,"personal":2194,"brow":2195,"sess":2196,"couldn":2197,"jen":2198,"bottle":2199,"ination":2200,"shaking":2201,"ges":2202,"ience":2203,"imagine":2204,"fresh":2205,"thy":2206,"mary":2207,"nerv":2208,"brid":2209,"answered":2210,"wolf":2211,"gged":2212,"scar":2213,"kets":2214,"atures":2215,"stor":2216,"reed":2217,"system":2218,"glad":2219,"wise":2220,"pin":2221,"picture":2222,"doll":2223,"emer":2224,"horse":2225,"morrow":2226,"juli":2227,"allowed":2228,"resu":2229,"entered":2230,"spr":2231,"beginning":2232,"prov":2233,"send":2234,"wid":2235,"const":2236,"secur":2237,"note":2238,"usion":2239,"tun":2240,"special":2241,"grace":2242,"mountain":2243,"color":2244,"cei":2245,"chuck":2246,"cher":2247,"rela":2248,"acc":2249,"poor":2250,"soci":2251,"willing":2252,"oned":2253,"carefully":2254,"river":2255,"net":2256,"obviously":2257,"americ":2258,"itu":2259,"simple":2260,"twi":2261,"tions":2262,"isa":2263,"focus":2264,"sence":2265,"court":2266,"ability":2267,"serv":2268,"ears":2269,"played":2270,"curi":2271,"card":2272,"yed":2273,"hoped":2274,"notice":2275,"ining":2276,"following":2277,"anymore":2278,"cul":2279,"tend":2280,"jumped":2281,"apo":2282,"gling":2283,"memory":2284,"centr":2285,"tech":2286,"apartment":2287,"forget":2288,"drop":2289,"glance":2290,"smiling":2291,"asing":2292,"ana":2293,"invest":2294,"talked":2295,"cand":2296,"photo":2297,"lap":2298,"gentle":2299,"goes":2300,"dry":2301,"polit":2302,"favor":2303,"cause":2304,"lose":2305,"ured":2306,"wear":2307,"helped":2308,"umb":2309,"arrow":2310,"cheeks":2311,"scent":2312,"govern":2313,"experience":2314,"non":2315,"glo":2316,"rac":2317,"ury":2318,"fifty":2319,"smoo":2320,"realize":2321,"dra":2322,"fighting":2323,"breathing":2324,"mut":2325,"choice":2326,"center":2327,"hosp":2328,"viol":2329,"anne":2330,"tiv":2331,"learned":2332,"study":2333,"profess":2334,"uty":2335,"post":2336,"books":2337,"necess":2338,"fan":2339,"pill":2340,"hone":2341,"speed":2342,"coat":2343,"ctions":2344,"letting":2345,"ustr":2346,"tan":2347,"captain":2348,"carried":2349,"desire":2350,"visit":2351,"aside":2352,"west":2353,"pos":2354,"dim":2355,"bathroom":2356,"recor":2357,"destro":2358,"peace":2359,"bill":2360,"screen":2361,"fil":2362,"ns":2363,"store":2364,"neither":2365,"appo":2366,"fuck":2367,"bear":2368,"mic":2369,"christ":2370,"pale":2371,"jam":2372,"repe":2373,"cro":2374,"knife":2375,"boat":2376,"mped":2377,"dav":2378,"trem":2379,"prep":2380,"grinned":2381,"missed":2382,"ford":2383,"offered":2384,"general":2385,"inten":2386,"security":2387,"listen":2388,"rum":2389,"asking":2390,"flesh":2391,"stayed":2392,"laughing":2393,"thanks":2394,"fra":2395,"contact":2396,"history":2397,"older":2398,"frowned":2399,"ises":2400,"engl":2401,"hon":2402,"discus":2403,"shadow":2404,"hol":2405,"james":2406,"hole":2407,"enter":2408,"pol":2409,"north":2410,"fac":2411,"definitely":2412,"park":2413,"falling":2414,"lower":2415,"push":2416,"dep":2417,"lou":2418,"apparently":2419,"powerful":2420,"tood":2421,"dust":2422,"natural":2423,"settled":2424,"bodies":2425,"burst":2426,"hoping":2427,"process":2428,"lor":2429,"forehead":2430,"shop":2431,"understood":2432,"comput":2433,"tele":2434,"loc":2435,"station":2436,"tray":2437,"stal":2438,"moments":2439,"consider":2440,"bility":2441,"mere":2442,"reading":2443,"ica":2444,"cried":2445,"david":2446,"lim":2447,"lines":2448,"mission":2449,"quar":2450,"gard":2451,"chur":2452,"handle":2453,"forty":2454,"windows":2455,"hospital":2456,"shock":2457,"hate":2458,"tran":2459,"protect":2460,"places":2461,"drove":2462,"learn":2463,"gate":2464,"mirror":2465,"opening":2466,"afternoon":2467,"truck":2468,"solute":2469,"brows":2470,"sevent":2471,"satis":2472,"success":2473,"shel":2474,"turns":2475,"len":2476,"gress":2477,"gree":2478,"noise":2479,"laid":2480,"common":2481,"south":2482,"rap":2483,"needs":2484,"camer":2485,"queen":2486,"ior":2487,"difficult":2488,"quietly":2489,"shouted":2490,"descri":2491,"putting":2492,"conside":2493,"vill":2494,"eventually":2495,"considered":2496,"relief":2497,"wash":2498,"bound":2499,"refle":2500,"growing":2501,"iel":2502,"bon":2503,"hanging":2504,"agreed":2505,"izing":2506,"va":2507,"tie":2508,"pow":2509,"odd":2510,"author":2511,"avoid":2512,"promise":2513,"ices":2514,"organ":2515,"tomorrow":2516,"gust":2517,"whose":2518,"psy":2519,"miles":2520,"escape":2521,"wing":2522,"stud":2523,"summer":2524,"stuck":2525,"roll":2526,"message":2527,"guards":2528,"logy":2529,"ners":2530,"gram":2531,"snapped":2532,"relationship":2533,"develo":2534,"hig":2535,"lab":2536,"hated":2537,"treat":2538,"aching":2539,"fting":2540,"forth":2541,"foc":2542,"mort":2543,"qual":2544,"frank":2545,"prison":2546,"jake":2547,"besides":2548,"tent":2549,"bent":2550,"starting":2551,"inted":2552,"groan":2553,"lon":2554,"appre":2555,"rit":2556,"married":2557,"fifteen":2558,"compan":2559,"astic":2560,"fool":2561,"leng":2562,"micha":2563,"aling":2564,"europe":2565,"dangerous":2566,"allow":2567,"jour":2568,"date":2569,"lla":2570,"rob":2571,"final":2572,"aid":2573,"thigh":2574,"geor":2575,"hips":2576,"government":2577,"shake":2578,"calling":2579,"wouldnt":2580,"pas":2581,"stat":2582,"absolute":2583,"ends":2584,"asks":2585,"aming":2586,"private":2587,"comfort":2588,"disappeared":2589,"adam":2590,"couch":2591,"presid":2592,"lyn":2593,"softly":2594,"argu":2595,"suspe":2596,"rance":2597,"island":2598,"served":2599,"shifted":2600,"button":2601,"forest":2602,"report":2603,"determin":2604,"smoke":2605,"rick":2606,"response":2607,"jeans":2608,"fish":2609,"pray":2610,"attered":2611,"aur":2612,"presence":2613,"surface":2614,"missing":2615,"share":2616,"honest":2617,"believed":2618,"fat":2619,"pants":2620,"accept":2621,"pink":2622,"blind":2623,"suff":2624,"built":2625,"brand":2626,"scared":2627,"incre":2628,"aff":2629,"echo":2630,"faces":2631,"grip":2632,"thus":2633,"offer":2634,"belong":2635,"forever":2636,"blan":2637,"pis":2638,"paul":2639,"recei":2640,"army":2641,"amber":2642,"leather":2643,"contr":2644,"wanting":2645,"current":2646,"song":2647,"support":2648,"extra":2649,"wine":2650,"finding":2651,"blin":2652,"directly":2653,"happening":2654,"xi":2655,"verse":2656,"narr":2657,"church":2658,"wondering":2659,"major":2660,"weir":2661,"fran":2662,"instru":2663,"frey":2664,"iers":2665,"mental":2666,"effect":2667,"size":2668,"truly":2669,"occas":2670,"horri":2671,"ease":2672,"tip":2673,"busy":2674,"burned":2675,"heads":2676,"screamed":2677,"humans":2678,"peter":2679,"burning":2680,"drug":2681,"throw":2682,"hill":2683,"exist":2684,"ride":2685,"gging":2686,"dear":2687,"jon":2688,"stage":2689,"twisted":2690,"regard":2691,"dor":2692,"spend":2693,"ading":2694,"taste":2695,"compl":2696,"san":2697,"yal":2698,"speaking":2699,"dance":2700,"bby":2701,"fallen":2702,"barr":2703,"cook":2704,"hip":2705,"cts":2706,"unless":2707,"ired":2708,"social":2709,"stretched":2710,"oured":2711,"mac":2712,"birth":2713,"iron":2714,"hidden":2715,"cock":2716,"michael":2717,"ades":2718,"impossible":2719,"nervous":2720,"pool":2721,"ians":2722,"struck":2723,"kat":2724,"rough":2725,"harder":2726,"dest":2727,"grass":2728,"leap":2729,"gal":2730,"orig":2731,"wheel":2732,"figured":2733,"neigh":2734,"yellow":2735,"local":2736,"yer":2737,"sink":2738,"cip":2739,"adv":2740,"ws":2741,"laughter":2742,"clen":2743,"shower":2744,"paid":2745,"wand":2746,"rubbed":2747,"gif":2748,"feelings":2749,"movement":2750,"hallway":2751,"separ":2752,"riage":2753,"american":2754,"craw":2755,"ather":2756,"cabin":2757,"via":2758,"possibly":2759,"respect":2760,"clock":2761,"grim":2762,"wave":2763,"plain":2764,"roof":2765,"obvious":2766,"states":2767,"hotel":2768,"shadows":2769,"doesn":2770,"smooth":2771,"rus":2772,"pushing":2773,"club":2774,"knowledge":2775,"spirit":2776,"computer":2777,"tur":2778,"length":2779,"chase":2780,"ory":2781,"del":2782,"subject":2783,"nature":2784,"sig":2785,"soldiers":2786,"decision":2787,"broad":2788,"involved":2789,"trip":2790,"scene":2791,"claimed":2792,"wards":2793,"waved":2794,"recent":2795,"faced":2796,"ara":2797,"harm":2798,"trave":2799,"pier":2800,"az":2801,"bank":2802,"join":2803,"ker":2804,"responsi":2805,"loose":2806,"listening":2807,"focused":2808,"nobody":2809,"inno":2810,"finish":2811,"continue":2812,"entrance":2813,"ets":2814,"rand":2815,"evil":2816,"effort":2817,"ki":2818,"nel":2819,"jim":2820,"commit":2821,"wouldn":2822,"explained":2823,"ague":2824,"ray":2825,"image":2826,"ortun":2827,"opportun":2828,"palm":2829,"million":2830,"weird":2831,"lack":2832,"leep":2833,"mike":2834,"amoun":2835,"00":2836,"wake":2837,"fly":2838,"type":2839,"asleep":2840,"climbed":2841,"national":2842,"bran":2843,"indeed":2844,"shoes":2845,"jacket":2846,"ceed":2847,"frustr":2848,"fought":2849,"hunter":2850,"agged":2851,"swallowed":2852,"cil":2853,"fren":2854,"sleeping":2855,"circle":2856,"wished":2857,"joined":2858,"gage":2859,"itch":2860,"whisper":2861,"purpose":2862,"bones":2863,"sour":2864,"erial":2865,"tea":2866,"approached":2867,"cond":2868,"engine":2869,"jason":2870,"freyja":2871,"pop":2872,"milit":2873,"lution":2874,"oli":2875,"risk":2876,"anted":2877,"yor":2878,"las":2879,"reaction":2880,"text":2881,"interested":2882,"thrust":2883,"bert":2884,"shield":2885,"confused":2886,"tot":2887,"anci":2888,"ceiling":2889,"ense":2890,"pper":2891,"origin":2892,"cious":2893,"mostly":2894,"rise":2895,"inch":2896,"mass":2897,"result":2898,"clut":2899,"pieces":2900,"chall":2901,"doorway":2902,"fed":2903,"inn":2904,"tical":2905,"feed":2906,"ko":2907,"nod":2908,"hearing":2909,"harry":2910,"concerned":2911,"dete":2912,"vampires":2913,"driving":2914,"ences":2915,"careful":2916,"ethan":2917,"rising":2918,"storm":2919,"narrow":2920,"reli":2921,"blu":2922,"feels":2923,"anywhere":2924,"nur":2925,"uncle":2926,"brit":2927,"muscles":2928,"hardly":2929,"unable":2930,"doesnt":2931,"appreci":2932,"blinked":2933,"blade":2934,"perfectly":2935,"chief":2936,"incred":2937,"grown":2938,"trail":2939,"fal":2940,"gg":2941,"breast":2942,"twel":2943,"faster":2944,"animal":2945,"eighteen":2946,"necessary":2947,"blow":2948,"weapon":2949,"letter":2950,"glasses":2951,"chain":2952,"farm":2953,"tied":2954,"nie":2955,"memories":2956,"terrible":2957,"embarr":2958,"mail":2959,"shape":2960,"oken":2961,"gras":2962,"beast":2963,"bridge":2964,"buy":2965,"limp":2966,"leaning":2967,"yard":2968,"sses":2969,"langu":2970,"faint":2971,"visible":2972,"lared":2973,"nal":2974,"yan":2975,"simil":2976,"embarrass":2977,"written":2978,"aging":2979,"kin":2980,"theres":2981,"consu":2982,"cam":2983,"gie":2984,"rested":2985,"stories":2986,"emplo":2987,"sarah":2988,"hadnt":2989,"rang":2990,"oppos":2991,"thom":2992,"gho":2993,"flying":2994,"members":2995,"lucky":2996,"opposite":2997,"shoved":2998,"whom":2999,"reality":3000,"dom":3001,"sne":3002,"flew":3003,"leaves":3004,"fist":3005,"spec":3006,"warri":3007,"lift":3008,"square":3009,"twice":3010,"acher":3011,"including":3012,"occasion":3013,"charac":3014,"nin":3015,"rooms":3016,"prepared":3017,"president":3018,"wooden":3019,"golden":3020,"interesting":3021,"lowered":3022,"ava":3023,"gon":3024,"slammed":3025,"tossed":3026,"spark":3027,"ounced":3028,"rush":3029,"bone":3030,"driver":3031,"plate":3032,"brothers":3033,"checked":3034,"caused":3035,"woke":3036,"scan":3037,"naked":3038,"wis":3039,"yelled":3040,"warning":3041,"reminded":3042,"panic":3043,"lunch":3044,"phe":3045,"swung":3046,"fright":3047,"rupt":3048,"elect":3049,"ump":3050,"cole":3051,"shift":3052,"rect":3053,"bea":3054,"indic":3055,"domin":3056,"solid":3057,"surely":3058,"utter":3059,"suspic":3060,"york":3061,"similar":3062,"lake":3063,"reaching":3064,"gare":3065,"skill":3066,"lessly":3067,"grey":3068,"works":3069,"forgotten":3070,"murder":3071,"kicked":3072,"beer":3073,"instantly":3074,"crying":3075,"ships":3076,"totally":3077,"bother":3078,"evidence":3079,"funny":3080,"ax":3081,"ena":3082,"twelve":3083,"amazing":3084,"zo":3085,"folded":3086,"wrist":3087,"impress":3088,"ache":3089,"breaking":3090,"deta":3091,"stiff":3092,"rushed":3093,"bite":3094,"mate":3095,"instin":3096,"woods":3097,"worst":3098,"eating":3099,"killing":3100,"boots":3101,"audi":3102,"recognized":3103,"pred":3104,"demanded":3105,"ids":3106,"cleared":3107,"ception":3108,"female":3109,"race":3110,"drawn":3111,"concentr":3112,"breathe":3113,"ston":3114,"creature":3115,"leading":3116,"uses":3117,"gret":3118,"elev":3119,"ancient":3120,"arch":3121,"eyed":3122,"studied":3123,"whats":3124,"gods":3125,"giant":3126,"sac":3127,"service":3128,"east":3129,"daw":3130,"zer":3131,"mood":3132,"meaning":3133,"roman":3134,"double":3135,"cum":3136,"listened":3137,"deb":3138,"disappo":3139,"mart":3140,"brushed":3141,"released":3142,"vious":3143,"exha":3144,"carrying":3145,"entirely":3146,"steady":3147,"henry":3148,"hadn":3149,"exhaust":3150,"willi":3151,"moan":3152,"lands":3153,"anno":3154,"terror":3155,"rare":3156,"mc":3157,"squeezed":3158,"ignored":3159,"occur":3160,"charge":3161,"wont":3162,"ashing":3163,"ester":3164,"skir":3165,"sem":3166,"weapons":3167,"hiding":3168,"physical":3169,"ordin":3170,"beach":3171,"arti":3172,"college":3173,"accor":3174,"intro":3175,"bble":3176,"zane":3177,"aunt":3178,"gather":3179,"prince":3180,"steel":3181,"excited":3182,"serve":3183,"quired":3184,"inging":3185,"proud":3186,"higher":3187,"heading":3188,"joe":3189,"grad":3190,"horror":3191,"writing":3192,"thomas":3193,"anda":3194,"amount":3195,"deeper":3196,"ari":3197,"iding":3198,"rachel":3199,"vil":3200,"tho":3201,"tracted":3202,"tat":3203,"han":3204,"jan":3205,"trick":3206,"staff":3207,"stream":3208,"smart":3209,"emotions":3210,"shoo":3211,"aches":3212,"activ":3213,"sequ":3214,"removed":3215,"supp":3216,"english":3217,"dreams":3218,"meas":3219,"daniel":3220,"slo":3221,"itor":3222,"cars":3223,"shared":3224,"military":3225,"isting":3226,"fant":3227,"convin":3228,"extre":3229,"enemy":3230,"gives":3231,"refused":3232,"sin":3233,"gathered":3234,"bringing":3235,"enced":3236,"neighbor":3237,"cow":3238,"stern":3239,"uc":3240,"gut":3241,"easier":3242,"worn":3243,"problems":3244,"opportunity":3245,"parking":3246,"discovered":3247,"instant":3248,"dollars":3249,"rolling":3250,"aim":3251,"named":3252,"econ":3253,"nights":3254,"iday":3255,"vering":3256,"clou":3257,"absolutely":3258,"guest":3259,"curled":3260,"cture":3261,"heaven":3262,"belt":3263,"tightly":3264,"tour":3265,"shu":3266,"challen":3267,"cele":3268,"knee":3269,"iting":3270,"losing":3271,"william":3272,"ulous":3273,"bes":3274,"suppose":3275,"sport":3276,"everywhere":3277,"seriously":3278,"screaming":3279,"flashed":3280,"dozen":3281,"itude":3282,"ency":3283,"parts":3284,"libr":3285,"breakfast":3286,"comb":3287,"attempt":3288,"landed":3289,"block":3290,"plans":3291,"aining":3292,"training":3293,"hurried":3294,"ified":3295,"stun":3296,"concern":3297,"haw":3298,"pressure":3299,"ensive":3300,"agger":3301,"tex":3302,"program":3303,"showing":3304,"frame":3305,"french":3306,"ordered":3307,"spin":3308,"liter":3309,"issue":3310,"heavi":3311,"dirt":3312,"flight":3313,"myster":3314,"pad":3315,"searching":3316,"christian":3317,"cies":3318,"spring":3319,"deeply":3320,"chan":3321,"hey":3322,"sens":3323,"andre":3324,"phy":3325,"dying":3326,"affe":3327,"introdu":3328,"fortunately":3329,"tit":3330,"scri":3331,"mill":3332,"stars":3333,"accep":3334,"deck":3335,"pure":3336,"movie":3337,"happens":3338,"streets":3339,"wings":3340,"faith":3341,"setting":3342,"emma":3343,"otherwise":3344,"stir":3345,"depart":3346,"determined":3347,"repor":3348,"george":3349,"bought":3350,"jerked":3351,"loss":3352,"lia":3353,"simon":3354,"rout":3355,"passing":3356,"drawing":3357,"belly":3358,"due":3359,"bree":3360,"restaur":3361,"thumb":3362,"vul":3363,"aband":3364,"freed":3365,"machine":3366,"planned":3367,"angle":3368,"names":3369,"write":3370,"fol":3371,"armed":3372,"zi":3373,"ference":3374,"spun":3375,"massive":3376,"yours":3377,"slept":3378,"accident":3379,"scrat":3380,"fucking":3381,"travel":3382,"auto":3383,"grate":3384,"cred":3385,"gig":3386,"glow":3387,"desperate":3388,"repeated":3389,"created":3390,"winter":3391,"wedding":3392,"gasped":3393,"dun":3394,"bloody":3395,"intense":3396,"promised":3397,"surrounded":3398,"liz":3399,"waves":3400,"pleased":3401,"dragon":3402,"extreme":3403,"crew":3404,"ya":3405,"planet":3406,"gab":3407,"spoken":3408,"beauty":3409,"keys":3410,"investig":3411,"vy":3412,"eager":3413,"ization":3414,"imagined":3415,"knocked":3416,"rot":3417,"dragged":3418,"sending":3419,"member":3420,"yester":3421,"istic":3422,"understanding":3423,"decide":3424,"blur":3425,"awk":3426,"atic":3427,"collap":3428,"ender":3429,"sophi":3430,"buried":3431,"iously":3432,"pile":3433,"belief":3434,"calls":3435,"tear":3436,"shud":3437,"dirty":3438,"closing":3439,"narrowed":3440,"officer":3441,"cker":3442,"pressing":3443,"cost":3444,"touching":3445,"smiles":3446,"welcome":3447,"thinks":3448,"sher":3449,"intelli":3450,"pictures":3451,"younger":3452,"failed":3453,"page":3454,"favorite":3455,"match":3456,"warmth":3457,"cure":3458,"period":3459,"access":3460,"seth":3461,"voices":3462,"nu":3463,"py":3464,"sis":3465,"bob":3466,"acting":3467,"nearby":3468,"covering":3469,"ius":3470,"kate":3471,"tightened":3472,"chat":3473,"mare":3474,"pot":3475,"ski":3476,"mistake":3477,"cise":3478,"manage":3479,"becoming":3480,"shocked":3481,"kn":3482,"horses":3483,"blink":3484,"fix":3485,"shri":3486,"claire":3487,"regret":3488,"mul":3489,"hero":3490,"pment":3491,"ame":3492,"acted":3493,"regular":3494,"various":3495,"eyebrows":3496,"village":3497,"gin":3498,"vehi":3499,"toes":3500,"eliza":3501,"temper":3502,"occup":3503,"animals":3504,"interrup":3505,"elevator":3506,"object":3507,"excite":3508,"yesterday":3509,"awkward":3510,"sixty":3511,"language":3512,"protest":3513,"political":3514,"elle":3515,"features":3516,"clenched":3517,"difference":3518,"tv":3519,"silently":3520,"eric":3521,"tension":3522,"logical":3523,"safety":3524,"vide":3525,"oce":3526,"host":3527,"courage":3528,"signed":3529,"garden":3530,"tries":3531,"faded":3532,"fixed":3533,"mentioned":3534,"material":3535,"leader":3536,"ively":3537,"prefer":3538,"aren":3539,"actions":3540,"gap":3541,"details":3542,"ignor":3543,"jane":3544,"wro":3545,"tes":3546,"relax":3547,"corrid":3548,"spill":3549,"bay":3550,"swept":3551,"passion":3552,"hug":3553,"example":3554,"fab":3555,"somebody":3556,"character":3557,"bom":3558,"shoot":3559,"kissing":3560,"issa":3561,"helping":3562,"luci":3563,"council":3564,"parti":3565,"bast":3566,"wonderful":3567,"suggested":3568,"aught":3569,"rust":3570,"ald":3571,"ado":3572,"split":3573,"brush":3574,"agon":3575,"enty":3576,"map":3577,"aly":3578,"excitement":3579,"knock":3580,"arily":3581,"liam":3582,"drunk":3583,"ffe":3584,"ander":3585,"century":3586,"isnt":3587,"resist":3588,"ues":3589,"assist":3590,"radio":3591,"comment":3592,"percent":3593,"facing":3594,"cloud":3595,"nan":3596,"vit":3597,"moder":3598,"gift":3599,"society":3600,"cult":3601,"equi":3602,"pulls":3603,"hesitated":3604,"slip":3605,"reasons":3606,"pace":3607,"chuckled":3608,"drinking":3609,"wiped":3610,"mous":3611,"tips":3612,"mortal":3613,"advant":3614,"buck":3615,"events":3616,"saved":3617,"market":3618,"iny":3619,"spell":3620,"rules":3621,"sey":3622,"orders":3623,"beha":3624,"united":3625,"indiv":3626,"particularly":3627,"acked":3628,"received":3629,"raise":3630,"individ":3631,"flowers":3632,"emily":3633,"tended":3634,"lam":3635,"former":3636,"plenty":3637,"innocent":3638,"ghost":3639,"lots":3640,"amy":3641,"cave":3642,"appearance":3643,"scow":3644,"curious":3645,"luke":3646,"fault":3647,"flood":3648,"logan":3649,"desc":3650,"upper":3651,"hungry":3652,"charlie":3653,"according":3654,"sucked":3655,"whenever":3656,"merely":3657,"sole":3658,"meat":3659,"brace":3660,"intention":3661,"students":3662,"itched":3663,"aster":3664,"style":3665,"everybody":3666,"upset":3667,"practice":3668,"sell":3669,"project":3670,"houses":3671,"bird":3672,"castle":3673,"heels":3674,"jeff":3675,"liqu":3676,"wrote":3677,"fashi":3678,"marriage":3679,"oking":3680,"univers":3681,"considering":3682,"bigger":3683,"init":3684,"connection":3685,"answers":3686,"poured":3687,"haven":3688,"bid":3689,"lung":3690,"rule":3691,"theyre":3692,"communic":3693,"throwing":3694,"lined":3695,"relaxed":3696,"bun":3697,"dat":3698,"possess":3699,"stronger":3700,"connected":3701,"matt":3702,"llen":3703,"points":3704,"identi":3705,"health":3706,"choose":3707,"till":3708,"ishing":3709,"norm":3710,"slu":3711,"alle":3712,"flames":3713,"limit":3714,"garet":3715,"pause":3716,"release":3717,"dare":3718,"symp":3719,"capable":3720,"hurry":3721,"ech":3722,"crit":3723,"rapid":3724,"achi":3725,"ckets":3726,"honor":3727,"nic":3728,"ission":3729,"habit":3730,"bitter":3731,"lun":3732,"badly":3733,"london":3734,"thrown":3735,"settle":3736,"nest":3737,"cit":3738,"plastic":3739,"pleasant":3740,"staying":3741,"angel":3742,"fail":3743,"powers":3744,"furi":3745,"expecting":3746,"represent":3747,"plane":3748,"richard":3749,"account":3750,"brad":3751,"correct":3752,"enjoyed":3753,"apolo":3754,"bie":3755,"cash":3756,"starts":3757,"ome":3758,"sliding":3759,"thri":3760,"buildings":3761,"awake":3762,"height":3763,"russi":3764,"unted":3765,"custo":3766,"legal":3767,"struggled":3768,"ai":3769,"lace":3770,"individual":3771,"dig":3772,"adjust":3773,"ryan":3774,"trad":3775,"prove":3776,"tucked":3777,"based":3778,"papers":3779,"library":3780,"cris":3781,"restaurant":3782,"nut":3783,"quire":3784,"owned":3785,"thighs":3786,"anged":3787,"bond":3788,"vac":3789,"smir":3790,"whel":3791,"ert":3792,"section":3793,"disgust":3794,"ninety":3795,"dere":3796,"obli":3797,"tless":3798,"groaned":3799,"minis":3800,"nowhere":3801,"nate":3802,"glared":3803,"backed":3804,"decl":3805,"throughout":3806,"approach":3807,"distant":3808,"rian":3809,"ocean":3810,"marry":3811,"ashes":3812,"christmas":3813,"chamber":3814,"condition":3815,"rear":3816,"tenti":3817,"tore":3818,"boss":3819,"camera":3820,"heavily":3821,"mans":3822,"priest":3823,"satisf":3824,"fier":3825,"weather":3826,"marked":3827,"inches":3828,"balance":3829,"mani":3830,"convinced":3831,"sexy":3832,"blame":3833,"lightly":3834,"eleven":3835,"manner":3836,"ishment":3837,"equ":3838,"thern":3839,"lee":3840,"neath":3841,"eral":3842,"19":3843,"reply":3844,"benef":3845,"numbers":3846,"isn":3847,"sixteen":3848,"taught":3849,"blank":3850,"forms":3851,"mber":3852,"betray":3853,"eping":3854,"anticip":3855,"overwhel":3856,"ides":3857,"pointing":3858,"slide":3859,"gripped":3860,"craft":3861,"porch":3862,"godd":3863,"cous":3864,"spar":3865,"stab":3866,"assumed":3867,"ctively":3868,"grave":3869,"meal":3870,"youve":3871,"address":3872,"lone":3873,"monster":3874,"smelled":3875,"briefly":3876,"wy":3877,"acks":3878,"treated":3879,"ours":3880,"stands":3881,"temple":3882,"ounce":3883,"ridic":3884,"seventeen":3885,"blanket":3886,"circum":3887,"smaller":3888,"bull":3889,"blond":3890,"alarm":3891,"pregn":3892,"delic":3893,"chick":3894,"ional":3895,"request":3896,"bits":3897,"ths":3898,"swim":3899,"distur":3900,"swift":3901,"furn":3902,"larger":3903,"america":3904,"confusion":3905,"lored":3906,"price":3907,"wil":3908,"clouds":3909,"sank":3910,"kisses":3911,"witness":3912,"accepted":3913,"gabri":3914,"changing":3915,"contemp":3916,"underneath":3917,"parked":3918,"series":3919,"total":3920,"creatures":3921,"reck":3922,"ops":3923,"urge":3924,"fired":3925,"guilt":3926,"professor":3927,"asy":3928,"survive":3929,"dies":3930,"create":3931,"jamie":3932,"bye":3933,"plus":3934,"thousands":3935,"tha":3936,"research":3937,"damage":3938,"abrupt":3939,"uncomfortable":3940,"chairs":3941,"bitch":3942,"ripped":3943,"elizabeth":3944,"ora":3945,"delight":3946,"judge":3947,"gain":3948,"snor":3949,"practically":3950,"orange":3951,"ignore":3952,"defe":3953,"advantage":3954,"waste":3955,"behavi":3956,"irrit":3957,"handsome":3958,"fred":3959,"intended":3960,"iently":3961,"progress":3962,"dread":3963,"blew":3964,"normally":3965,"opin":3966,"task":3967,"painting":3968,"european":3969,"witch":3970,"terms":3971,"seventy":3972,"demo":3973,"rode":3974,"magn":3975,"weal":3976,"record":3977,"chol":3978,"scra":3979,"washing":3980,"guns":3981,"surprising":3982,"charm":3983,"science":3984,"excuse":3985,"alous":3986,"plant":3987,"resting":3988,"load":3989,"tony":3990,"plat":3991,"washed":3992,"dogs":3993,"journey":3994,"tunnel":3995,"impro":3996,"startled":3997,"acle":3998,"bol":3999,"swir":4000,"lily":4001,"tower":4002,"tender":4003,"constru":4004,"recognize":4005,"eyebrow":4006,"union":4007,"ideas":4008,"modern":4009,"guil":4010,"bunch":4011,"crimin":4012,"stock":4013,"holy":4014,"itation":4015,"hanna":4016,"fellow":4017,"ral":4018,"stones":4019,"resc":4020,"torn":4021,"potenti":4022,"celebr":4023,"curtain":4024,"fate":4025,"pattern":4026,"fru":4027,"widened":4028,"dancing":4029,"inner":4030,"enor":4031,"relieved":4032,"une":4033,"pend":4034,"therefore":4035,"balls":4036,"crime":4037,"trade":4038,"aver":4039,"conven":4040,"hundreds":4041,"itions":4042,"freedom":4043,"exe":4044,"ffled":4045,"grateful":4046,"planning":4047,"nails":4048,"hawk":4049,"silk":4050,"uled":4051,"pup":4052,"eighty":4053,"corridor":4054,"bread":4055,"content":4056,"begun":4057,"assa":4058,"vince":4059,"universe":4060,"signs":4061,"destroy":4062,"agent":4063,"design":4064,"avail":4065,"notes":4066,"speech":4067,"version":4068,"yo":4069,"relat":4070,"rocks":4071,"horrible":4072,"stumbled":4073,"frag":4074,"walks":4075,"robe":4076,"ias":4077,"purse":4078,"dug":4079,"target":4080,"duty":4081,"tol":4082,"inju":4083,"source":4084,"ira":4085,"pride":4086,"intment":4087,"sensation":4088,"shame":4089,"stopping":4090,"fierce":4091,"youll":4092,"swear":4093,"ders":4094,"complex":4095,"influ":4096,"relu":4097,"contain":4098,"nightmare":4099,"resid":4100,"bags":4101,"sku":4102,"photogra":4103,"educ":4104,"anx":4105,"experienced":4106,"gul":4107,"abl":4108,"tery":4109,"igned":4110,"beating":4111,"***":4112,"reluct":4113,"sexual":4114,"marks":4115,"property":4116,"pounding":4117,"damp":4118,"clothing":4119,"asha":4120,"lungs":4121,"cloth":4122,"unlike":4123,"rights":4124,"unfortunately":4125,"spotted":4126,"ordinary":4127,"pour":4128,"crou":4129,"enger":4130,"filling":4131,"flipped":4132,"cot":4133,"fists":4134,"spine":4135,"fury":4136,"remo":4137,"shy":4138,"backward":4139,"hint":4140,"tells":4141,"tax":4142,"frozen":4143,"suspected":4144,"signific":4145,"chosen":4146,"snap":4147,"sip":4148,"mum":4149,"ourselves":4150,"royal":4151,"mountains":4152,"vibr":4153,"maintain":4154,"traf":4155,"whit":4156,"searched":4157,"victori":4158,"smith":4159,"commission":4160,"indust":4161,"picking":4162,"statement":4163,"recently":4164,"angs":4165,"dropping":4166,"chose":4167,"original":4168,"vio":4169,"strate":4170,"mob":4171,"aks":4172,"upstairs":4173,"ador":4174,"honey":4175,"previous":4176,"sheet":4177,"popul":4178,"establ":4179,"froze":4180,"landing":4181,"clas":4182,"gence":4183,"holds":4184,"thur":4185,"letters":4186,"ressed":4187,"econom":4188,"ium":4189,"bleed":4190,"circl":4191,"puzz":4192,"link":4193,"predic":4194,"centu":4195,"possibility":4196,"clam":4197,"existence":4198,"rubbing":4199,"mered":4200,"parted":4201,"shooting":4202,"whir":4203,"firmly":4204,"agreement":4205,"causing":4206,"explan":4207,"20":4208,"breeze":4209,"acknow":4210,"prevent":4211,"community":4212,"carol":4213,"protection":4214,"cases":4215,"brilli":4216,"noah":4217,"stranger":4218,"trembling":4219,"ats":4220,"breathed":4221,"damned":4222,"neare":4223,"scram":4224,"actual":4225,"falls":4226,"mn":4227,"riding":4228,"gency":4229,"muscle":4230,"pless":4231,"ino":4232,"sessed":4233,"bastard":4234,"dick":4235,"glare":4236,"dawn":4237,"circumst":4238,"peered":4239,"cracked":4240,"strike":4241,"video":4242,"ret":4243,"killer":4244,"climb":4245,"volution":4246,"escaped":4247,"eb":4248,"soldier":4249,"laure":4250,"vast":4251,"rog":4252,"lovely":4253,"capital":4254,"tap":4255,"insu":4256,"farther":4257,"constant":4258,"knot":4259,"swo":4260,"cad":4261,"jesus":4262,"remaining":4263,"purple":4264,"alley":4265,"ugly":4266,"ssing":4267,"elbow":4268,"jose":4269,"div":4270,"fasc":4271,"blon":4272,"ras":4273,"glimp":4274,"gesture":4275,"rhy":4276,"tables":4277,"responded":4278,"jealous":4279,"medic":4280,"returning":4281,"lucas":4282,"compe":4283,"medical":4284,"distr":4285,"rig":4286,"guilty":4287,"snat":4288,"cheer":4289,"partner":4290,"images":4291,"demons":4292,"bio":4293,"mm":4294,"term":4295,"soo":4296,"painful":4297,"desperately":4298,"awful":4299,"frustration":4300,"dge":4301,"bour":4302,"olivia":4303,"clay":4304,"dee":4305,"scott":4306,"required":4307,"shakes":4308,"istan":4309,"painted":4310,"dic":4311,"cannot":4312,"responsible":4313,"shore":4314,"gazed":4315,"role":4316,"ox":4317,"gorge":4318,"insisted":4319,"zes":4320,"lur":4321,"muttered":4322,"bench":4323,"span":4324,"palace":4325,"nods":4326,"jet":4327,"loving":4328,"prepar":4329,"bastian":4330,"bowl":4331,"forces":4332,"somewhat":4333,"bust":4334,"tugged":4335,"packed":4336,"interrupted":4337,"cular":4338,"copy":4339,"shown":4340,"joke":4341,"destroyed":4342,"closet":4343,"trap":4344,"friendly":4345,"rab":4346,"uttered":4347,"wolves":4348,"tilted":4349,"occurred":4350,"julian":4351,"pissed":4352,"gene":4353,"blast":4354,"tress":4355,"hugged":4356,"sym":4357,"shell":4358,"pillow":4359,"lions":4360,"__":4361,"roo":4362,"bac":4363,"colored":4364,"sob":4365,"trained":4366,"associ":4367,"towel":4368,"harsh":4369,"challenge":4370,"kered":4371,"popped":4372,"corpor":4373,"mask":4374,"grandmother":4375,"palms":4376,"icy":4377,"grant":4378,"alco":4379,"matters":4380,"cliff":4381,"ibly":4382,"ives":4383,"asty":4384,"ware":4385,"whoever":4386,"gown":4387,"loudly":4388,"techno":4389,"drifted":4390,"tort":4391,"interview":4392,"changes":4393,"famous":4394,"exhausted":4395,"apologi":4396,"bump":4397,"jared":4398,"terrified":4399,"bullet":4400,"decor":4401,"josh":4402,"sake":4403,"conce":4404,"leve":4405,"pulse":4406,"oped":4407,"venge":4408,"shows":4409,"stunned":4410,"forgot":4411,"satisfied":4412,"tense":4413,"warrior":4414,"devil":4415,"cooper":4416,"billy":4417,"oil":4418,"cream":4419,"kar":4420,"surrounding":4421,"boyfriend":4422,"rebe":4423,"issues":4424,"robert":4425,"idi":4426,"closely":4427,"alice":4428,"university":4429,"oo":4430,"lifting":4431,"data":4432,"addition":4433,"envelo":4434,"enormous":4435,"raced":4436,"glowing":4437,"aper":4438,"replaced":4439,"paying":4440,"ske":4441,"hook":4442,"career":4443,"yards":4444,"suppor":4445,"confidence":4446,"los":4447,"footsteps":4448,"cutting":4449,"skirt":4450,"blake":4451,"available":4452,"lust":4453,"fabric":4454,"growled":4455,"trapped":4456,"neat":4457,"enjoying":4458,"vanished":4459,"collar":4460,"vices":4461,"display":4462,"credit":4463,"cass":4464,"attacked":4465,"haled":4466,"learning":4467,"swell":4468,"television":4469,"sway":4470,"grabbing":4471,"charles":4472,"nap":4473,"traffic":4474,"butter":4475,"moves":4476,"cali":4477,"radi":4478,"arrange":4479,"gall":4480,"eled":4481,"genu":4482,"attend":4483,"pretend":4484,"ette":4485,"ere":4486,"sacri":4487,"nathan":4488,"discuss":4489,"aries":4490,"birds":4491,"jay":4492,"effor":4493,"sisters":4494,"sebastian":4495,"extremely":4496,"ider":4497,"pir":4498,"central":4499,"beck":4500,"leaders":4501,"require":4502,"eling":4503,"finan":4504,"vehicle":4505,"cere":4506,"citiz":4507,"code":4508,"hay":4509,"forming":4510,"crap":4511,"dot":4512,"bis":4513,"games":4514,"nurse":4515,"admitted":4516,"seeming":4517,"liquid":4518,"secrets":4519,"surve":4520,"jected":4521,"location":4522,"coast":4523,"alo":4524,"snar":4525,"osity":4526,"shade":4527,"range":4528,"happiness":4529,"thetic":4530,"ignoring":4531,"tire":4532,"greater":4533,"attached":4534,"ridiculous":4535,"gil":4536,"grandfather":4537,"cart":4538,"leans":4539,"bowed":4540,"fourteen":4541,"lect":4542,"senses":4543,"anybody":4544,"poison":4545,"fest":4546,"justice":4547,"hunt":4548,"exer":4549,"british":4550,"exper":4551,"spi":4552,"rier":4553,"uce":4554,"satur":4555,"tattoo":4556,"liber":4557,"families":4558,"hunting":4559,"meth":4560,"beard":4561,"theory":4562,"tapped":4563,"bows":4564,".\"":4565,"proof":4566,"downstairs":4567,"quarters":4568,"kylie":4569,"chill":4570,"weekend":4571,"glancing":4572,"ddy":4573,"skull":4574,"bolt":4575,"yanked":4576,"sphere":4577,"trace":4578,"struggling":4579,"assured":4580,"sim":4581,"crete":4582,"consequ":4583,"echoed":4584,"secure":4585,"sunlight":4586,"cage":4587,"rate":4588,"raising":4589,"quis":4590,"doubted":4591,"function":4592,"forcing":4593,"rome":4594,"thunder":4595,"genuine":4596,"exposed":4597,"timate":4598,"literally":4599,"sons":4600,"garage":4601,"exit":4602,"proceed":4603,"sofa":4604,"valley":4605,"department":4606,"unexpected":4607,"dining":4608,"ura":4609,"civi":4610,"laws":4611,"abandoned":4612,"princi":4613,"fourth":4614,"complic":4615,"vague":4616,"blonde":4617,"file":4618,"abruptly":4619,"extended":4620,"checking":4621,"foreign":4622,"sensed":4623,"ables":4624,"provided":4625,"core":4626,"officers":4627,"stepping":4628,"season":4629,"frightened":4630,"paris":4631,"cute":4632,"centuries":4633,"pon":4634,"eased":4635,"etern":4636,"arched":4637,"cassie":4638,"clearing":4639,"impat":4640,"cruel":4641,"appears":4642,"wen":4643,"jacob":4644,"background":4645,"nam":4646,"quality":4647,"umin":4648,"abby":4649,"pant":4650,"retri":4651,"remains":4652,"sooner":4653,"gabriel":4654,"catching":4655,"connor":4656,"flame":4657,"docu":4658,"omed":4659,"straightened":4660,"umbling":4661,"julia":4662,"psycho":4663,"fog":4664,"sets":4665,"suck":4666,"maid":4667,"cape":4668,"thirteen":4669,"lightning":4670,"teach":4671,"afford":4672,"grat":4673,"tradition":4674,"crystal":4675,"curse":4676,"drank":4677,"tank":4678,"opinion":4679,"champ":4680,"appreciate":4681,"runs":4682,"mechan":4683,"buzz":4684,"licked":4685,"emerged":4686,"impact":4687,"helpless":4688,"expensive":4689,"guide":4690,"teacher":4691,"dean":4692,"effe":4693,"pple":4694,"intens":4695,"explanation":4696,"subst":4697,"provide":4698,"ilities":4699,"beam":4700,"zzy":4701,"halfway":4702,"leon":4703,"sched":4704,"umble":4705,"loyal":4706,"ivy":4707,"kim":4708,"vere":4709,"convince":4710,"vari":4711,"afri":4712,"pher":4713,"frequ":4714,"alp":4715,"brick":4716,"horiz":4717,"fence":4718,"jar":4719,"gorgeous":4720,"hitting":4721,"potential":4722,"tough":4723,"gger":4724,"confess":4725,"guessed":4726,"punch":4727,"princess":4728,"solve":4729,"circumstances":4730,"sean":4731,"ladies":4732,"keeps":4733,"steal":4734,"value":4735,"gran":4736,"revealed":4737,"web":4738,"unconscious":4739,"vas":4740,"lind":4741,"passage":4742,"pump":4743,"charged":4744,"steve":4745,"march":4746,"vet":4747,"confident":4748,"chee":4749,"electri":4750,"plu":4751,"tam":4752,"covers":4753,"shr":4754,"cigaret":4755,"vulner":4756,"slapped":4757,"cigarette":4758,"paint":4759,"magaz":4760,"cursed":4761,"cate":4762,"fy":4763,"argue":4764,"stured":4765,"honestly":4766,"ential":4767,"bars":4768,"seated":4769,"pockets":4770,"desert":4771,"kal":4772,"spending":4773,"affair":4774,"detective":4775,"sail":4776,"cti":4777,"gestured":4778,"holly":4779,"concrete":4780,"wink":4781,"violence":4782,"threatened":4783,"wan":4784,"sters":4785,"eved":4786,"allowing":4787,"mix":4788,"sheets":4789,"snorted":4790,"slowed":4791,"rin":4792,"grasp":4793,"loaded":4794,"casual":4795,"rifle":4796,"strand":4797,"distin":4798,"student":4799,"sensit":4800,"advan":4801,"drops":4802,"rail":4803,"studying":4804,"warned":4805,"arian":4806,"pregnant":4807,"mia":4808,"plun":4809,"biggest":4810,"tape":4811,"feared":4812,"wrap":4813,"chocol":4814,"popular":4815,"method":4816,"noted":4817,"sees":4818,"argument":4819,"newsp":4820,"minds":4821,"detail":4822,"ppy":4823,"invisible":4824,"embarrassed":4825,"fairly":4826,"kay":4827,"driven":4828,"eddie":4829,"patted":4830,"admir":4831,"clue":4832,"trusted":4833,"pel":4834,"danny":4835,"fashion":4836,"eg":4837,"tick":4838,"deliber":4839,"democr":4840,"offering":4841,"sized":4842,"throb":4843,"natur":4844,"corp":4845,"racing":4846,"england":4847,"quit":4848,"zard":4849,"aine":4850,"clar":4851,"nia":4852,"cousin":4853,"cons":4854,"shaped":4855,"mud":4856,"youth":4857,"mode":4858,"philo":4859,"dull":4860,"girlfriend":4861,"bbled":4862,"stroked":4863,"erson":4864,"scen":4865,"drugs":4866,"rs":4867,"struggle":4868,"veins":4869,"remembering":4870,"summon":4871,"inkled":4872,"centre":4873,"kend":4874,"remark":4875,"swing":4876,"brilliant":4877,"eth":4878,"tured":4879,"neg":4880,"approaching":4881,"appropri":4882,"matic":4883,"emotional":4884,"advent":4885,"ffed":4886,"shine":4887,"refer":4888,"itors":4889,"rings":4890,"basically":4891,"invited":4892,"bothered":4893,"belle":4894,"german":4895,"shining":4896,"shim":4897,"grief":4898,"placing":4899,"creep":4900,"belonged":4901,"stan":4902,"greet":4903,"driveway":4904,"quarter":4905,"prior":4906,"precise":4907,"vert":4908,"nation":4909,"audience":4910,"violet":4911,"distri":4912,"solution":4913,"elder":4914,"thread":4915,"uniform":4916,"option":4917,"fruit":4918,"aker":4919,"tron":4920,"pages":4921,"mixed":4922,"groups":4923,"insane":4924,"spit":4925,"roland":4926,"roar":4927,"cards":4928,"behavior":4929,"gus":4930,"fake":4931,"cis":4932,"entertain":4933,"riley":4934,"delicate":4935,"rhyth":4936,"active":4937,"raven":4938,"nerves":4939,"andrew":4940,"cauti":4941,"intelligence":4942,"assume":4943,"birthday":4944,"publ":4945,"multi":4946,"sab":4947,"western":4948,"exclaimed":4949,"professional":4950,"forgive":4951,"announced":4952,"curiosity":4953,"idiot":4954,"rapidly":4955,"plo":4956,"laun":4957,"silly":4958,"strode":4959,"bud":4960,"vies":4961,"syn":4962,"whim":4963,"pee":4964,"empire":4965,"squir":4966,"rag":4967,"eyel":4968,"ik":4969,"shots":4970,"channe":4971,"separate":4972,"boun":4973,"claws":4974,"hammer":4975,"rod":4976,"basket":4977,"inspe":4978,"stops":4979,"defend":4980,"louder":4981,"bella":4982,"branches":4983,"guests":4984,"drinks":4985,"boxes":4986,"annie":4987,"overhead":4988,"collapsed":4989,"kinds":4990,"havent":4991,"10":4992,"ore":4993,"maggie":4994,"deserve":4995,"spinning":4996,"haired":4997,"therine":4998,"patient":4999,"spray":5000,"official":5001,"ais":5002,"lucy":5003,"sav":5004,"marcus":5005,"crash":5006,"yell":5007,"native":5008,"compet":5009,"fying":5010,"likes":5011,"ators":5012,"movements":5013,"precious":5014,"lux":5015,"skills":5016,"virgin":5017,"serge":5018,"theat":5019,"zero":5020,"specific":5021,"vement":5022,"gment":5023,"exchange":5024,"dumb":5025,"jas":5026,"initi":5027,"martin":5028,"string":5029,"gious":5030,"rushing":5031,"suspect":5032,"rie":5033,"hello":5034,"media":5035,"gover":5036,"successful":5037,"athy":5038,"random":5039,"increasing":5040,"tracks":5041,"passenger":5042,"scient":5043,"discover":5044,"envir":5045,"fields":5046,"bold":5047,"sharply":5048,"alter":5049,"diam":5050,"corners":5051,"described":5052,"sniff":5053,"advice":5054,"brian":5055,"bang":5056,"gathering":5057,"holiday":5058,"jace":5059,"gered":5060,"positive":5061,"pursu":5062,"enthus":5063,"exploded":5064,"hunger":5065,"tened":5066,"dealing":5067,"iture":5068,"fare":5069,"trunk":5070,"brut":5071,"deserved":5072,"realizing":5073,"distracted":5074,"comed":5075,"gasp":5076,"eaten":5077,"morgan":5078,"assass":5079,"sara":5080,"ingly":5081,"humor":5082,"victoria":5083,"naturally":5084,"cake":5085,"amused":5086,"intri":5087,"reveal":5088,"chocolate":5089,"appearing":5090,"flowing":5091,"warriors":5092,"counted":5093,"motor":5094,"pod":5095,"scattered":5096,"enem":5097,"produced":5098,"wicked":5099,"wren":5100,"workers":5101,"defense":5102,"cia":5103,"structure":5104,"squeeze":5105,"bris":5106,"colors":5107,"violent":5108,"susan":5109,"remote":5110,"abor":5111,"swallow":5112,"impression":5113,"backs":5114,"confir":5115,"proved":5116,"milk":5117,"saving":5118,"china":5119,"journal":5120,"slipping":5121,"flag":5122,"edges":5123,"incident":5124,"ify":5125,"enemies":5126,"environ":5127,"barn":5128,"countries":5129,"jackson":5130,"ued":5131,"attrac":5132,"patch":5133,"oused":5134,"crawled":5135,"grinning":5136,"loe":5137,"flick":5138,"absor":5139,"otic":5140,"unknown":5141,"glit":5142,"bore":5143,"sunday":5144,"amuse":5145,"daily":5146,"shuddered":5147,"bomb":5148,"gear":5149,"incl":5150,"serving":5151,"embrace":5152,"atest":5153,"ez":5154,"singing":5155,"bleeding":5156,"equipment":5157,"alien":5158,"pistol":5159,"shorts":5160,"stuffed":5161,"holes":5162,"jap":5163,"weve":5164,"reaches":5165,"healthy":5166,"fled":5167,"owner":5168,"hop":5169,"posing":5170,"dal":5171,"theyd":5172,"highly":5173,"handful":5174,"seats":5175,"acts":5176,"sits":5177,"spare":5178,"midnight":5179,"screams":5180,"hopefully":5181,"umn":5182,"begins":5183,"wrists":5184,"figures":5185,"chant":5186,"constantly":5187,"johnny":5188,"asted":5189,"revealing":5190,"shouting":5191,"anxious":5192,"uary":5193,"arrive":5194,"disappear":5195,"satisfaction":5196,"consciousness":5197,"greatest":5198,"film":5199,"aston":5200,"chine":5201,"accent":5202,"disappointed":5203,"infe":5204,"obey":5205,"gates":5206,"scanned":5207,"impressed":5208,"commander":5209,"occupied":5210,"puts":5211,"throne":5212,"solved":5213,"knuck":5214,"wounds":5215,"stall":5216,"rey":5217,"rib":5218,"ption":5219,"circles":5220,"shattered":5221,"unusual":5222,"incredible":5223,",\"":5224,"wealth":5225,"jere":5226,"secu":5227,"flicked":5228,"jobs":5229,"director":5230,"derek":5231,"destru":5232,"oak":5233,"saturday":5234,"dram":5235,"knocking":5236,"mont":5237,"laughs":5238,"treas":5239,"chor":5240,"stretch":5241,"pig":5242,"digging":5243,"werent":5244,"succeed":5245,"arranged":5246,"ville":5247,"devo":5248,"arts":5249,"butt":5250,"custom":5251,"hollow":5252,"erie":5253,"fingertips":5254,"eds":5255,"daddy":5256,"tale":5257,"moral":5258,"loves":5259,"inched":5260,"ell":5261,"omy":5262,"gers":5263,"ceive":5264,"nearest":5265,"useful":5266,"uri":5267,"dish":5268,"braced":5269,"talent":5270,"opens":5271,"stub":5272,"excell":5273,"gradu":5274,"model":5275,"lamp":5276,"noble":5277,"suffering":5278,"friday":5279,"switch":5280,"rarely":5281,"chinese":5282,"ada":5283,"tile":5284,"shivered":5285,"perman":5286,"calcul":5287,"furniture":5288,"thorough":5289,"fangs":5290,"accompl":5291,"fet":5292,"assem":5293,"condu":5294,"brave":5295,"knelt":5296,"goal":5297,"wire":5298,"nis":5299,"flushed":5300,"tribut":5301,"airport":5302,"caleb":5303,"seek":5304,"false":5305,"floating":5306,"aran":5307,"tics":5308,"victim":5309,"joseph":5310,"tempor":5311,"snake":5312,"financial":5313,"sentence":5314,"crowded":5315,"kelly":5316,"crept":5317,"marble":5318,"matthe":5319,"ji":5320,"ceremon":5321,"remove":5322,"shor":5323,"estate":5324,"helen":5325,"bike":5326,"upward":5327,"duke":5328,"offici":5329,"efforts":5330,"existed":5331,"pounds":5332,"degree":5333,"arrival":5334,"ec":5335,"sought":5336,"chloe":5337,"pity":5338,"ruth":5339,"tily":5340,"survived":5341,"facts":5342,"mured":5343,"sensitive":5344,"nervously":5345,"jail":5346,"protected":5347,"pac":5348,"stress":5349,"bry":5350,"teasing":5351,"dried":5352,"isy":5353,"measure":5354,"responsibility":5355,"arc":5356,"murmured":5357,"cloak":5358,"results":5359,"answering":5360,"compli":5361,"drum":5362,"sele":5363,"trent":5364,"glances":5365,"species":5366,"furious":5367,"designed":5368,"dragging":5369,"scor":5370,"punched":5371,"chicken":5372,"magical":5373,"compared":5374,"kings":5375,"jordan":5376,"included":5377,"hills":5378,"threatening":5379,"sleeve":5380,"cops":5381,"directions":5382,"lian":5383,"lotte":5384,"expert":5385,"volu":5386,"photograph":5387,"llo":5388,"developed":5389,"authority":5390,"emergency":5391,"tasted":5392,"deny":5393,"lobby":5394,"tons":5395,"jean":5396,"freak":5397,"uh":5398,"nud":5399,"related":5400,"rant":5401,"resem":5402,"quo":5403,"breaths":5404,"stolen":5405,"technology":5406,"louis":5407,"males":5408,"collection":5409,"sheriff":5410,"climbing":5411,"sounding":5412,"population":5413,"lover":5414,"carpet":5415,"wounded":5416,"athan":5417,"gang":5418,"entry":5419,"chaos":5420,"glimpse":5421,"vid":5422,"moist":5423,"dating":5424,"sneak":5425,"sandwi":5426,"nasty":5427,"concl":5428,"strip":5429,"delicious":5430,"dagger":5431,"waters":5432,"lawyer":5433,"boot":5434,"contained":5435,"lid":5436,"glor":5437,"tristan":5438,"clutched":5439,"uncertain":5440,"economic":5441,"dome":5442,"independ":5443,"pene":5444,"signal":5445,"crum":5446,"zom":5447,"rol":5448,"react":5449,"clan":5450,"saint":5451,"hissed":5452,"ribs":5453,"crown":5454,"ases":5455,"hannah":5456,"shifting":5457,"jury":5458,"gur":5459,"evan":5460,"micro":5461,"areas":5462,"horizon":5463,"liar":5464,"kevin":5465,"border":5466,"icient":5467,"coach":5468,"stained":5469,"closest":5470,"curve":5471,"activity":5472,"polic":5473,"execu":5474,"limbs":5475,"acade":5476,"bron":5477,"feather":5478,"patience":5479,"flower":5480,"compass":5481,"shopping":5482,"miser":5483,"chased":5484,"danced":5485,"bored":5486,"quir":5487,"jax":5488,"movies":5489,"influence":5490,"upright":5491,"indian":5492,"breasts":5493,"annoyed":5494,"angers":5495,"surge":5496,"possessed":5497,"carriage":5498,"sidewalk":5499,"imagination":5500,"injured":5501,"moaned":5502,"attempted":5503,"mystery":5504,"alert":5505,"jonathan":5506,"classes":5507,"jewel":5508,"waving":5509,"motioned":5510,"bin":5511,"bren":5512,"located":5513,"reput":5514,"limited":5515,"foolish":5516,"sheer":5517,"paw":5518,"crashed":5519,"theless":5520,"cities":5521,"vulnerable":5522,"orgas":5523,"attr":5524,"creating":5525,"oppo":5526,"sheep":5527,"stroke":5528,"ano":5529,"candle":5530,"bark":5531,"sugar":5532,"rescue":5533,"deadly":5534,"salt":5535,"wishing":5536,"oul":5537,"cheese":5538,"aria":5539,"suffe":5540,"trailed":5541,"fling":5542,"cough":5543,"luc":5544,"amusement":5545,"panties":5546,"mam":5547,"football":5548,"nodding":5549,"suffer":5550,"fancy":5551,"deter":5552,"ule":5553,"recall":5554,"mothers":5555,"tipped":5556,"resour":5557,"wig":5558,"endless":5559,"unit":5560,"companion":5561,"captured":5562,"alcohol":5563,"worthy":5564,"employe":5565,"instinct":5566,"eleg":5567,"stag":5568,"xic":5569,"shiver":5570,"formal":5571,"dock":5572,"whipped":5573,"revolution":5574,"increased":5575,"mun":5576,"apple":5577,"disbelief":5578,"becomes":5579,"straw":5580,"sci":5581,"pical":5582,"route":5583,"encour":5584,"crossing":5585,"rett":5586,"immediate":5587,"****":5588,"kicking":5589,"illa":5590,"relig":5591,"toe":5592,"iest":5593,"colin":5594,"rowed":5595,"plants":5596,"valent":5597,"investigation":5598,"russian":5599,"jenny":5600,"affection":5601,"dia":5602,"appropriate":5603,"idge":5604,"stool":5605,"rip":5606,"practic":5607,"onel":5608,"carved":5609,"biting":5610,"wn":5611,"ads":5612,"victor":5613,"occasionally":5614,"tighter":5615,"wandered":5616,"significant":5617,"trial":5618,"incredibly":5619,"roared":5620,"shudder":5621,"complicated":5622,"abilities":5623,"education":5624,"happily":5625,"eff":5626,"timid":5627,"fascin":5628,"coal":5629,"religious":5630,"sharing":5631,"fice":5632,"anxi":5633,"jerk":5634,"vity":5635,"folk":5636,"ites":5637,"erup":5638,"torture":5639,"wea":5640,"platform":5641,"assure":5642,"heli":5643,"anxiety":5644,"france":5645,"rows":5646,"blocks":5647,"shortly":5648,"mild":5649,"dollar":5650,"stack":5651,"fathers":5652,"bush":5653,"itted":5654,"twin":5655,"anticipation":5656,"emper":5657,"suffered":5658,"mos":5659,"attractive":5660,"cca":5661,"math":5662,"cel":5663,"mates":5664,"fortune":5665,"gregor":5666,"drawer":5667,"properly":5668,"thu":5669,"ruin":5670,"agony":5671,"culture":5672,"mack":5673,"kingdom":5674,"transp":5675,"wrapping":5676,"lauren":5677,"neighborhood":5678,"branch":5679,"spite":5680,"charlotte":5681,"shove":5682,"crad":5683,"folks":5684,"delivered":5685,"heartbeat":5686,"southern":5687,"reflection":5688,"gam":5689,"jumping":5690,"ducked":5691,"compre":5692,"sten":5693,"contents":5694,"ril":5695,"dave":5696,"introduced":5697,"rolls":5698,"dwar":5699,"rice":5700,"servants":5701,"winked":5702,"ffs":5703,"tac":5704,"greg":5705,"items":5706,"ila":5707,"armor":5708,"rhythm":5709,"mounted":5710,"trump":5711,"engage":5712,"fifth":5713,"respe":5714,"nah":5715,"policy":5716,"crouched":5717,"campa":5718,"souls":5719,"childhood":5720,"rever":5721,"minor":5722,"califor":5723,"darted":5724,"pla":5725,"cocked":5726,"swiftly":5727,"mason":5728,"aken":5729,"approval":5730,"comprehen":5731,"justin":5732,"reported":5733,"disease":5734,"blowing":5735,"aron":5736,"choked":5737,"disappointment":5738,"trigger":5739,"scare":5740,"heated":5741,"andra":5742,"chem":5743,"corn":5744,"brushing":5745,"foo":5746,"shaft":5747,"circled":5748,"ruined":5749,"bubble":5750,"lately":5751,"attitude":5752,"avi":5753,"ratt":5754,"international":5755,"homes":5756,"psychi":5757,"11":5758,"august":5759,"gwen":5760,"ridge":5761,"supplies":5762,"standard":5763,"knight":5764,"suspicious":5765,"informed":5766,"decisions":5767,"virt":5768,"sadness":5769,"cupped":5770,"roy":5771,"controlled":5772,"shone":5773,"generally":5774,"eggs":5775,"flies":5776,"uced":5777,"sore":5778,"flung":5779,"growl":5780,"alright":5781,"frustrated":5782,"physically":5783,"basic":5784,"rial":5785,"ples":5786,"equally":5787,"washington":5788,"bride":5789,"citizens":5790,"flir":5791,"mattered":5792,"rational":5793,"decent":5794,"equal":5795,"amanda":5796,"hurting":5797,"render":5798,"pouring":5799,"wherever":5800,"lted":5801,"fleet":5802,"kel":5803,"lawn":5804,"alexander":5805,"winced":5806,"tren":5807,"matthew":5808,"inting":5809,"victory":5810,"ita":5811,"parties":5812,"drake":5813,"prepare":5814,"portion":5815,"visited":5816,"pilot":5817,"lonely":5818,"stable":5819,"ellie":5820,"brook":5821,"scrambled":5822,"twisting":5823,"discussion":5824,"cott":5825,"backpack":5826,"nego":5827,"lump":5828,"directed":5829,"seeking":5830,"sideways":5831,"sophie":5832,"slave":5833,"accur":5834,"expand":5835,"stam":5836,"doc":5837,"device":5838,"currently":5839,"adminis":5840,"julie":5841,"cleaning":5842,"swinging":5843,"growth":5844,"cheap":5845,"internet":5846,"lane":5847,"sche":5848,"settling":5849,"cycle":5850,"mond":5851,"sergeant":5852,"preferred":5853,"reception":5854,"flashing":5855,"explosion":5856,"pretending":5857,"chances":5858,"mercy":5859,"california":5860,"servant":5861,"intent":5862,"egy":5863,"jesse":5864,"tier":5865,"sting":5866,"curved":5867,"development":5868,"cler":5869,"bind":5870,"tyler":5871,"monitor":5872,"jessi":5873,"highway":5874,"engaged":5875,"mattress":5876,"basement":5877,"ains":5878,"makeup":5879,"pounded":5880,"sucking":5881,"americans":5882,"elbows":5883,"intensity":5884,"pear":5885,"ien":5886,"friendship":5887,"troops":5888,"photos":5889,"rein":5890,"healing":5891,"ragged":5892,"wow":5893,"clicked":5894,"excellent":5895,"andy":5896,"tay":5897,"planted":5898,"transfer":5899,"absent":5900,"shelf":5901,"reass":5902,"labor":5903,"chal":5904,"prophe":5905,"scale":5906,"steam":5907,"alec":5908,"hunters":5909,"overwhelming":5910,"review":5911,"halt":5912,"volun":5913,"negoti":5914,"inevit":5915,"drown":5916,"shiny":5917,"supply":5918,"finn":5919,"dylan":5920,"thal":5921,"mented":5922,"realm":5923,"counts":5924,"snatched":5925,"thump":5926,"bart":5927,"nerve":5928,"separated":5929,"fond":5930,"dante":5931,"melted":5932,"spat":5933,"twist":5934,"conference":5935,"useless":5936,"fairy":5937,"companies":5938,"tack":5939,"ii":5940,"interior":5941,"greeted":5942,"scout":5943,"spreading":5944,"levels":5945,"personally":5946,"gavin":5947,"systems":5948,"minister":5949,"chica":5950,"darkened":5951,"devon":5952,"sible":5953,"utterly":5954,"ppers":5955,"ilet":5956,"ifer":5957,"balcon":5958,"fron":5959,"uk":5960,"ida":5961,"philoso":5962,"stirred":5963,"fox":5964,"brings":5965,"committed":5966,"swords":5967,"operation":5968,"clin":5969,"combat":5970,"click":5971,"roger":5972,"benefit":5973,"nove":5974,"colour":5975,"dump":5976,"bilities":5977,"envelope":5978,"jeremy":5979,"ensure":5980,"techn":5981,"stubborn":5982,"triump":5983,"uel":5984,"crushed":5985,"decades":5986,"confirmed":5987,"tub":5988,"wes":5989,"reports":5990,"youd":5991,"thum":5992,"cotton":5993,"spirits":5994,"senior":5995,"permission":5996,"flowed":5997,"moonlight":5998,"trash":5999,"records":6000,"obje":6001,"laura":6002,"clutching":6003,"persu":6004,"delay":6005,"aimed":6006,"loun":6007,"accus":6008,"trembled":6009,"deliver":6010,"counting":6011,"jimmy":6012,"mini":6013,"blown":6014,"hopes":6015,"jest":6016,"outer":6017,"doctors":6018,"surprisingly":6019,"illumin":6020,"elec":6021,"emon":6022,"lesson":6023,"mobile":6024,"advis":6025,"stares":6026,"magazine":6027,"gies":6028,"mall":6029,"waking":6030,"bury":6031,"safely":6032,"affected":6033,"leads":6034,"roads":6035,"muse":6036,"campaign":6037,"visions":6038,"messages":6039,"cane":6040,"meter":6041,"mentally":6042,"chicago":6043,"oming":6044,"leapt":6045,"gues":6046,"sorts":6047,"studi":6048,"mers":6049,"mug":6050,"agents":6051,"iter":6052,"murdered":6053,"latest":6054,"kins":6055,"blocked":6056,"angled":6057,"cries":6058,"reflected":6059,"tops":6060,"clung":6061,"shoe":6062,"swee":6063,"preparing":6064,"traced":6065,"stole":6066,"kell":6067,"swore":6068,"protective":6069,"yelling":6070,"polite":6071,"assistant":6072,"session":6073,"beings":6074,"territory":6075,"stated":6076,"12":6077,"aph":6078,"lex":6079,"services":6080,"spilled":6081,"veget":6082,"uten":6083,"bend":6084,"emperor":6085,"oning":6086,"entering":6087,"colonel":6088,"civil":6089,"monday":6090,"edward":6091,"perfor":6092,"patrick":6093,"ddled":6094,"exchanged":6095,"colon":6096,"hired":6097,"sarcas":6098,"agging":6099,"prick":6100,"acles":6101,"rul":6102,"zach":6103,"electric":6104,"newspaper":6105,"prime":6106,"shif":6107,"bass":6108,"rences":6109,"huh":6110,"ults":6111,"tims":6112,"backwards":6113,"berry":6114,"laptop":6115,"flee":6116,"pinned":6117,"aspe":6118,"attering":6119,"knuckles":6120,"giggled":6121,"grounds":6122,"wildly":6123,"romantic":6124,"dece":6125,"mysterious":6126,"soaked":6127,"locks":6128,"effects":6129,"valu":6130,"itution":6131,"status":6132,"plates":6133,"scary":6134,"raz":6135,"matched":6136,"scot":6137,"curls":6138,"average":6139,"venue":6140,"describe":6141,"rude":6142,"gentleman":6143,"routine":6144,"jessica":6145,"replace":6146,"maria":6147,"apping":6148,"keen":6149,"manager":6150,"atmo":6151,"alled":6152,"zel":6153,"confli":6154,"concept":6155,"ulty":6156,"grunted":6157,"reward":6158,"dripping":6159,"cafe":6160,"pipe":6161,"goddess":6162,"staircase":6163,"stephen":6164,"sust":6165,"screw":6166,"tab":6167,"achers":6168,"numb":6169,"acknowled":6170,"phones":6171,"hooked":6172,"hest":6173,"flic":6174,"exception":6175,"todd":6176,"fork":6177,"rounded":6178,"heel":6179,"indicated":6180,"dged":6181,"yaw":6182,"regis":6183,"ringing":6184,"adop":6185,"site":6186,"title":6187,"keeper":6188,"gru":6189,"courty":6190,"syl":6191,"descended":6192,"grind":6193,"sophia":6194,"pitch":6195,"subtle":6196,"fires":6197,"casually":6198,"rena":6199,"fears":6200,"intel":6201,"marie":6202,"unting":6203,"sticking":6204,"triumph":6205,"defeat":6206,"sparhawk":6207,"hut":6208,"boards":6209,"traveled":6210,"nik":6211,"dared":6212,"print":6213,"severe":6214,"era":6215,"servation":6216,"schol":6217,"questioned":6218,"slumped":6219,"tearing":6220,"insist":6221,"contract":6222,"itching":6223,"flor":6224,"molly":6225,"achieve":6226,"millions":6227,"criminal":6228,"unique":6229,"stake":6230,"dipped":6231,"bottles":6232,"shelter":6233,"pete":6234,"victims":6235,"performan":6236,"clau":6237,"identity":6238,"rh":6239,"aris":6240,"lighting":6241,"blinking":6242,"underground":6243,"anton":6244,"joining":6245,"strained":6246,"article":6247,"wipe":6248,"scree":6249,"pest":6250,"hatred":6251,"rim":6252,"colt":6253,"kane":6254,"manipul":6255,"itive":6256,"hesitation":6257,"swollen":6258,"melissa":6259,"striking":6260,"reluctantly":6261,"sweep":6262,"toler":6263,"worlds":6264,"funeral":6265,"idently":6266,"regul":6267,"compound":6268,"grade":6269,"marsh":6270,"ffin":6271,"clever":6272,"aggress":6273,"client":6274,"drained":6275,"recalled":6276,"quinn":6277,"ripp":6278,"spraw":6279,"advanced":6280,"begging":6281,"instructions":6282,"dressing":6283,"player":6284,"booth":6285,"seized":6286,"guaran":6287,"orgasm":6288,"reputation":6289,"produce":6290,"rene":6291,"sports":6292,"acqu":6293,"switched":6294,"stark":6295,"aloud":6296,"nar":6297,"gloves":6298,"destruction":6299,"sack":6300,"imper":6301,"hale":6302,"finds":6303,"cleaned":6304,"ona":6305,"isol":6306,"strangely":6307,"panick":6308,"nail":6309,"garion":6310,"spider":6311,"tools":6312,"assault":6313,"duncan":6314,"ankle":6315,"swimming":6316,"stretching":6317,"declared":6318,"immortal":6319,"religion":6320,"pony":6321,"hearts":6322,"kyle":6323,"lang":6324,"savan":6325,"floated":6326,"arse":6327,"pole":6328,"iga":6329,"loo":6330,"bee":6331,"holl":6332,"encer":6333,"owen":6334,"begged":6335,"mari":6336,"commer":6337,"trevor":6338,"trous":6339,"screwed":6340,"balcony":6341,"scarlet":6342,"smug":6343,"conver":6344,"adult":6345,"goodbye":6346,"examined":6347,"jenn":6348,"juni":6349,"rocked":6350,"protecting":6351,"histori":6352,"secretary":6353,"alongside":6354,"enthusias":6355,"shane":6356,"conditions":6357,"suits":6358,"crawl":6359,"gripping":6360,"dreamed":6361,"addic":6362,"consequences":6363,"jess":6364,"tag":6365,"restrain":6366,"jones":6367,"failure":6368,"hank":6369,"dart":6370,"boring":6371,"regarded":6372,"thie":6373,"unsure":6374,"tooth":6375,"believing":6376,"usive":6377,"drift":6378,"distinct":6379,"employ":6380,"courtyard":6381,"smoking":6382,"hits":6383,"billion":6384,"guided":6385,"brutal":6386,"tensed":6387,"online":6388,"traveling":6389,"chim":6390,"india":6391,"mpled":6392,"cavern":6393,"barrel":6394,"grabs":6395,"agers":6396,"penetr":6397,"guit":6398,"freaking":6399,"archi":6400,"receive":6401,"lifetime":6402,"stiffened":6403,"aline":6404,"twins":6405,"scowled":6406,"fever":6407,"granted":6408,"leo":6409,"element":6410,"rison":6411,"wizard":6412,"patri":6413,"cooking":6414,"continues":6415,"prey":6416,"needing":6417,"northern":6418,"laying":6419,"divor":6420,"fis":6421,"teased":6422,"cord":6423,"gau":6424,"matically":6425,"selfish":6426,"ulously":6427,"bearing":6428,"breed":6429,"buttons":6430,"aust":6431,"bounced":6432,"mighty":6433,"crashing":6434,"rut":6435,"nipple":6436,"brandon":6437,"sacrifice":6438,"pine":6439,"miranda":6440,"revenge":6441,"novel":6442,"nichol":6443,"june":6444,"daemon":6445,"stic":6446,"monsters":6447,"fid":6448,"doz":6449,"observed":6450,"okes":6451,"darling":6452,"refuse":6453,"sweater":6454,"countered":6455,"prisoner":6456,"fav":6457,"aut":6458,"squad":6459,"cara":6460,"disci":6461,"horn":6462,"options":6463,"adrian":6464,"suic":6465,"cans":6466,"volunte":6467,"arthur":6468,"tingu":6469,"theo":6470,"prayer":6471,"dwell":6472,"grasped":6473,"babies":6474,"bullets":6475,"intimate":6476,"cups":6477,"impressive":6478,"nina":6479,"ques":6480,"frowning":6481,"tube":6482,"repeat":6483,"wagon":6484,"mount":6485,"vessel":6486,"concentrate":6487,"som":6488,"atmosphere":6489,"roughly":6490,"flickered":6491,"greek":6492,"wels":6493,"helicop":6494,"toms":6495,"cells":6496,"piz":6497,"bage":6498,"scars":6499,"bum":6500,"anta":6501,"bub":6502,"treatment":6503,"confirm":6504,"cuts":6505,"production":6506,"whispers":6507,"agne":6508,"soap":6509,"18":6510,"timately":6511,"impul":6512,"viet":6513,"seemingly":6514,"hem":6515,"privacy":6516,"ffy":6517,"heather":6518,"plot":6519,"questioning":6520,"encounter":6521,"alan":6522,"gained":6523,"punishment":6524,"avoiding":6525,"transport":6526,"cort":6527,"humanity":6528,"tangled":6529,"fiction":6530,"melo":6531,"adding":6532,"nostri":6533,"miserable":6534,"blades":6535,"stroking":6536,"pretended":6537,"shallow":6538,"jung":6539,"ladder":6540,"slender":6541,"suspicion":6542,"puzzled":6543,"collected":6544,"francis":6545,"ental":6546,"politics":6547,"marched":6548,"idy":6549,"presented":6550,"combination":6551,"internal":6552,"helmet":6553,"numer":6554,"gay":6555,"caring":6556,"steep":6557,"ros":6558,"sorrow":6559,"alt":6560,"whispering":6561,"ix":6562,"typical":6563,"flip":6564,"egg":6565,"environment":6566,"minim":6567,"chasing":6568,"cluded":6569,"shirts":6570,"inge":6571,"erin":6572,"alpha":6573,"scienti":6574,"cran":6575,"occasional":6576,"orient":6577,"clasped":6578,"absence":6579,"sang":6580,"lisa":6581,"reasonable":6582,"launched":6583,"clip":6584,"taller":6585,"feeding":6586,"fortunate":6587,"cabinet":6588,"panting":6589,"dozens":6590,"vile":6591,"arrog":6592,"jun":6593,"resources":6594,"bald":6595,"despair":6596,"calmly":6597,"corpse":6598,"esome":6599,"leaf":6600,"zone":6601,"assign":6602,"deliberately":6603,"weren":6604,"insur":6605,"iona":6606,"vant":6607,"spear":6608,"regardless":6609,"partners":6610,"scientific":6611,"slamming":6612,"collect":6613,"floors":6614,"glowed":6615,"continuing":6616,"scratched":6617,"asting":6618,"ggy":6619,"acity":6620,"poe":6621,"acking":6622,"avoided":6623,"mant":6624,"thee":6625,"darker":6626,"loop":6627,"construction":6628,"cushi":6629,"dragons":6630,"velvet":6631,"selling":6632,"amongst":6633,"kir":6634,"temperature":6635,"twenti":6636,"spots":6637,"statue":6638,"cram":6639,"determination":6640,"angels":6641,"invitation":6642,"eves":6643,"superior":6644,"alys":6645,"eness":6646,"adventure":6647,"confront":6648,"basis":6649,"weakness":6650,"grimaced":6651,"accompan":6652,"stripped":6653,"goddam":6654,"curtains":6655,"develop":6656,"resent":6657,"advance":6658,"gym":6659,"heap":6660,"earned":6661,"navy":6662,"carl":6663,"prayed":6664,"toilet":6665,"flared":6666,"burden":6667,"tled":6668,"infin":6669,"taylor":6670,"soil":6671,"adjusted":6672,"realization":6673,"leaped":6674,"convic":6675,"rily":6676,"judgment":6677,"channel":6678,"slap":6679,"chains":6680,"iso":6681,"lum":6682,"bobby":6683,"cameras":6684,"shapes":6685,"feli":6686,"natal":6687,"ients":6688,"shelves":6689,"spencer":6690,"songs":6691,"dash":6692,"shrie":6693,"county":6694,"chuckle":6695,"humili":6696,"schedule":6697,"organization":6698,"slick":6699,"miracle":6700,"oliver":6701,"crisis":6702,"afterward":6703,"studies":6704,"tool":6705,"ankles":6706,"hire":6707,"15":6708,"30":6709,"owe":6710,"elli":6711,"fantasy":6712,"relent":6713,"folding":6714,"snug":6715,"peaceful":6716,"diamond":6717,"muffled":6718,"breaks":6719,"rumor":6720,"types":6721,"agues":6722,"charming":6723,"awareness":6724,"performance":6725,"resistance":6726,"analy":6727,"ield":6728,"repair":6729,"ella":6730,"museum":6731,"thou":6732,"bushes":6733,"flooded":6734,"stored":6735,"sinking":6736,"global":6737,"atter":6738,"adren":6739,"demanding":6740,"ritual":6741,"generation":6742,"explore":6743,"outfit":6744,"lts":6745,"carm":6746,"daisy":6747,"eigh":6748,"package":6749,"winning":6750,"frost":6751,"zzle":6752,"layer":6753,"smashed":6754,"nad":6755,"ria":6756,"kers":6757,"italian":6758,"gradually":6759,"thankfully":6760,"pent":6761,"nesses":6762,"volume":6763,"precisely":6764,"vote":6765,"ginger":6766,"fuel":6767,"comfortably":6768,"seal":6769,"beaten":6770,"dusty":6771,"ashe":6772,"scal":6773,"imagin":6774,"matching":6775,"carter":6776,"exercise":6777,"melan":6778,"cade":6779,"crush":6780,"guise":6781,"?\"":6782,"buying":6783,"sally":6784,"roots":6785,"intently":6786,"dale":6787,"negative":6788,"assess":6789,"maxim":6790,"ught":6791,"kidna":6792,"comforting":6793,"attacks":6794,"nostrils":6795,"devast":6796,"draped":6797,"teaching":6798,"cs":6799,"recomm":6800,"exhaled":6801,"katie":6802,"candy":6803,"affect":6804,"completed":6805,"valuable":6806,"tara":6807,"elena":6808,"elegant":6809,"atop":6810,"dreaming":6811,"ension":6812,"flashlight":6813,"unks":6814,"vation":6815,"tiger":6816,"economy":6817,"asper":6818,"survival":6819,"jab":6820,"warn":6821,"wiping":6822,"bles":6823,"rocky":6824,"lieuten":6825,"depend":6826,"script":6827,"gide":6828,"cottage":6829,"dated":6830,"electricity":6831,"zzled":6832,"established":6833,"disco":6834,"bies":6835,"mering":6836,"smirk":6837,"stif":6838,"knob":6839,"banks":6840,"lighter":6841,"alli":6842,"email":6843,"apologize":6844,"choices":6845,"eastern":6846,"intimid":6847,"pted":6848,"increase":6849,"ami":6850,"eternity":6851,"guitar":6852,"squeezing":6853,"veled":6854,"fishing":6855,"industry":6856,"fbi":6857,"wrinkled":6858,"conversations":6859,"exhi":6860,"imate":6861,"pus":6862,"femin":6863,"greed":6864,"positions":6865,"medicine":6866,"reek":6867,"aire":6868,"kendra":6869,"instinctively":6870,"exciting":6871,"glory":6872,"majority":6873,"nuts":6874,"scratch":6875,"ceremony":6876,"firing":6877,"oft":6878,"schools":6879,"consumed":6880,"hou":6881,"isaac":6882,"effective":6883,"dem":6884,"unlocked":6885,"ulate":6886,"root":6887,"cautiously":6888,"aaron":6889,"sprang":6890,"accompanied":6891,"bou":6892,"dishes":6893,"revel":6894,"atory":6895,"itute":6896,"robin":6897,"ancy":6898,"tories":6899,"fitting":6900,"wheels":6901,"experiment":6902,"shouldnt":6903,"dol":6904,"wrest":6905,"sno":6906,"gravel":6907,"ashamed":6908,"depths":6909,"balan":6910,"sadly":6911,"soothing":6912,"prospect":6913,"twitched":6914,"needle":6915,"necklace":6916,"awesome":6917,"staggered":6918,"meanwhile":6919,"forbid":6920,"integr":6921,"sedu":6922,"smirked":6923,"governor":6924,"legend":6925,"polished":6926,"landscape":6927,"eri":6928,"sticks":6929,"lation":6930,"therap":6931,"steadily":6932,"initial":6933,"squinted":6934,"enna":6935,"suite":6936,"fireplace":6937,"rubber":6938,"swam":6939,"telephone":6940,"barrier":6941,"helps":6942,"transm":6943,"flush":6944,"tug":6945,"edged":6946,"scientists":6947,"mour":6948,"mock":6949,"tessa":6950,"fus":6951,"published":6952,"syd":6953,"favour":6954,"pizza":6955,"strict":6956,"neil":6957,"glaring":6958,"worrying":6959,"coin":6960,"owners":6961,"awe":6962,"attempting":6963,"amazed":6964,"clary":6965,"wisdom":6966,"gideon":6967,"hound":6968,"det":6969,"towns":6970,"oddly":6971,"highest":6972,"sealed":6973,"rigid":6974,"railing":6975,"newly":6976,"strangers":6977,"lingering":6978,"commo":6979,"emphas":6980,"customers":6981,"neatly":6982,"attor":6983,"attracted":6984,"mole":6985,"slightest":6986,"sket":6987,"files":6988,"mayor":6989,"wider":6990,"posal":6991,"perform":6992,"dall":6993,"latter":6994,"casting":6995,"chemical":6996,"smells":6997,"arrest":6998,"nicholas":6999,"boats":7000,"surroundings":7001,"anese":7002,"embarrassment":7003,"lizz":7004,"multiple":7005,"betrayed":7006,"gazing":7007,"possession":7008,"tate":7009,"advert":7010,"mire":7011,"majest":7012,"personality":7013,"ffing":7014,"celer":7015,"juice":7016,"visiting":7017,"sandy":7018,"aidan":7019,"mou":7020,"dwarf":7021,"gossi":7022,"meters":7023,"gabe":7024,"arguing":7025,"caution":7026,"propped":7027,"intelligent":7028,"inher":7029,"electron":7030,"lated":7031,"saddle":7032,"dove":7033,"framed":7034,"tested":7035,"fade":7036,"sch":7037,"inged":7038,"recovered":7039,"powder":7040,"communication":7041,"cen":7042,"testing":7043,"curl":7044,"cancer":7045,"wri":7046,"dex":7047,"lting":7048,"candles":7049,"mono":7050,"overwhelmed":7051,"seed":7052,"barked":7053,"importance":7054,"eline":7055,"discussed":7056,"noticing":7057,"conclusion":7058,"capture":7059,"stray":7060,"cham":7061,"acknowledge":7062,"cats":7063,"anth":7064,"peering":7065,"rael":7066,"seam":7067,"brightly":7068,"vigor":7069,"whirled":7070,"region":7071,"karen":7072,"phan":7073,"sympathy":7074,"compar":7075,"gid":7076,"prisoners":7077,"spy":7078,"fading":7079,"tossing":7080,"somed":7081,"ave":7082,"nak":7083,"blankets":7084,"campus":7085,"assassin":7086,"largest":7087,"neighbors":7088,"inhaled":7089,"mson":7090,"painfully":7091,"barbar":7092,"retreat":7093,"lick":7094,"slaves":7095,"strategy":7096,"xture":7097,"clust":7098,"studio":7099,"document":7100,"sensu":7101,"swirling":7102,"daylight":7103,"eh":7104,"weary":7105,"critical":7106,"underwear":7107,"sweeping":7108,"jill":7109,"savage":7110,"piss":7111,"rank":7112,"boston":7113,"oppon":7114,"panel":7115,"fee":7116,"phil":7117,"blocking":7118,"intellect":7119,"vaguely":7120,"encourage":7121,"annoy":7122,"duck":7123,"itated":7124,"register":7125,"nas":7126,"machines":7127,"14":7128,"siren":7129,"zoe":7130,"mansion":7131,"factory":7132,"aisle":7133,"agan":7134,"complain":7135,"pitched":7136,"rely":7137,"tests":7138,"wandering":7139,"steering":7140,"walker":7141,"shouts":7142,"weed":7143,"vincent":7144,"boom":7145,"wool":7146,"apers":7147,"elabor":7148,"quer":7149,"jungle":7150,"thouse":7151,"haunted":7152,"permanent":7153,"rocking":7154,"gravity":7155,"daught":7156,"sniffed":7157,"wreck":7158,"webs":7159,"surrender":7160,"garrett":7161,"gia":7162,"holden":7163,"perspe":7164,"arrested":7165,"disaster":7166,"hoo":7167,"regarding":7168,"mumbled":7169,"vable":7170,"traditional":7171,"torted":7172,"frantic":7173,"____":7174,"frantically":7175,"notion":7176,"organized":7177,"shaky":7178,"paced":7179,"specul":7180,"poked":7181,"gasping":7182,"mistress":7183,"practical":7184,"odds":7185,"spanish":7186,"luckily":7187,"vital":7188,"junior":7189,"assuming":7190,"bills":7191,"grandma":7192,"mim":7193,"mage":7194,"neut":7195,"sions":7196,"tration":7197,"gol":7198,"profile":7199,"sandwich":7200,"iden":7201,"creation":7202,"sunshine":7203,"ceived":7204,"hatch":7205,"skirts":7206,"cers":7207,"tos":7208,"objects":7209,"vehicles":7210,"ranch":7211,"connect":7212,"throbbing":7213,"texas":7214,"locker":7215,"scul":7216,"goo":7217,"dag":7218,"ramp":7219,"purchase":7220,"waitress":7221,"winds":7222,"shaw":7223,"lucien":7224,"mouse":7225,"poses":7226,"divine":7227,"erection":7228,"momentarily":7229,"longing":7230,"dresses":7231,"snapping":7232,"automatically":7233,"shoving":7234,"prints":7235,"obsc":7236,"atively":7237,"intend":7238,"lynn":7239,"butto":7240,"nause":7241,"wasted":7242,"treasure":7243,"goods":7244,"treating":7245,"shred":7246,"slim":7247,"fuge":7248,"brains":7249,"federal":7250,"eyelids":7251,"concentrated":7252,"crimson":7253,"africa":7254,"hopped":7255,"announce":7256,"dru":7257,"zie":7258,"lieutenant":7259,"cameron":7260,"wishes":7261,"whistle":7262,"oxy":7263,"grees":7264,"strands":7265,"baseball":7266,"guarded":7267,"pushes":7268,"aden":7269,"network":7270,"grocer":7271,"writer":7272,"mption":7273,"minded":7274,"awak":7275,"disturbed":7276,"magnific":7277,"apt":7278,"pand":7279,"lashes":7280,"argued":7281,"amid":7282,"jessie":7283,"ole":7284,"attempts":7285,"fen":7286,"irritated":7287,"blush":7288,"daughters":7289,"combined":7290,"troubled":7291,"spiritual":7292,"activities":7293,"skim":7294,"handing":7295,"uneasy":7296,"jerry":7297,"madame":7298,"symbol":7299,"muscular":7300,"posure":7301,"annoying":7302,"deserted":7303,"include":7304,"raged":7305,"dding":7306,"product":7307,"strain":7308,"variety":7309,"tumbled":7310,"glist":7311,"stealing":7312,"horrified":7313,"chers":7314,"shouldn":7315,"acceler":7316,"deaf":7317,"claims":7318,"helicopter":7319,"degrees":7320,"iced":7321,"buddy":7322,"mouths":7323,"concerns":7324,"violently":7325,"sively":7326,"artist":7327,"logic":7328,"goose":7329,"philip":7330,"altogether":7331,"noises":7332,"bliss":7333,"destination":7334,"torch":7335,"drifting":7336,"inclined":7337,"spoon":7338,"additional":7339,"burns":7340,"adrenaline":7341,"recover":7342,"pierce":7343,"sep":7344,"softened":7345,"dani":7346,"gifts":7347,"miller":7348,"bucket":7349,"income":7350,"gleaming":7351,"jennifer":7352,"techni":7353,"ament":7354,"hurts":7355,"immen":7356,"charges":7357,"terrifying":7358,"jeep":7359,"rained":7360,"sipped":7361,"defi":7362,"catherine":7363,"deaths":7364,"aneously":7365,"sanct":7366,"axe":7367,"scoo":7368,"flinched":7369,"withdrew":7370,"overcome":7371,"rav":7372,"dallas":7373,"counsel":7374,"description":7375,"thorn":7376,"acid":7377,"teachers":7378,"trot":7379,"uttering":7380,"pota":7381,"foun":7382,"authorities":7383,"thoroughly":7384,"graham":7385,"ticket":7386,"applied":7387,"revol":7388,"hovering":7389,"phr":7390,"13":7391,"lingered":7392,"vivi":7393,"ghosts":7394,"iley":7395,"desperation":7396,"yield":7397,"piercing":7398,"demonstr":7399,"jah":7400,"ww":7401,"gary":7402,"kidding":7403,"crawling":7404,"voy":7405,"parliam":7406,"wre":7407,"distraction":7408,"debt":7409,"ggles":7410,"caroline":7411,"ely":7412,"chel":7413,"curt":7414,"prize":7415,"stalked":7416,"clapped":7417,"lac":7418,"concentration":7419,"identify":7420,"defensive":7421,"necessarily":7422,"amelia":7423,"coinc":7424,"maneu":7425,"tommy":7426,"curiously":7427,"conspir":7428,"pron":7429,"perfe":7430,"tues":7431,"exasper":7432,"snarled":7433,"ambit":7434,"dumped":7435,"ousing":7436,"slope":7437,"debate":7438,"witnessed":7439,"adic":7440,"eag":7441,"eva":7442,"reminding":7443,"specif":7444,"dign":7445,"tugging":7446,"germany":7447,"plunged":7448,"monk":7449,"mama":7450,"werewolf":7451,"lunged":7452,"inhabit":7453,"lessons":7454,"thanked":7455,"arrows":7456,"entially":7457,"profit":7458,"beds":7459,"escort":7460,"ula":7461,"geo":7462,"hesitate":7463,"senti":7464,"interests":7465,"sales":7466,"michel":7467,"stein":7468,"mitch":7469,"soup":7470,"knights":7471,"fluttered":7472,"suicide":7473,"mau":7474,"discipl":7475,"speaks":7476,"haul":7477,"disappearing":7478,"angrily":7479,"tempted":7480,"curling":7481,"hardened":7482,"recru":7483,"hyster":7484,"topic":7485,"quin":7486,"temporary":7487,"liness":7488,"tible":7489,"navi":7490,"hart":7491,"stabbed":7492,"mister":7493,"locking":7494,"illusion":7495,"penny":7496,"cence":7497,"sped":7498,"drama":7499,"meg":7500,"clients":7501,"acious":7502,"lers":7503,"error":7504,"congress":7505,"japanese":7506,"toby":7507,"plum":7508,"sleeves":7509,"ideal":7510,"guardian":7511,"phic":7512,"blushed":7513,"dedic":7514,"erupted":7515,"urged":7516,"fragile":7517,"wilder":7518,"intru":7519,"engers":7520,"temples":7521,"damaged":7522,"misery":7523,"instincts":7524,"touches":7525,"teria":7526,"xim":7527,"torso":7528,"migr":7529,"pecu":7530,"insp":7531,"pian":7532,"vey":7533,"ater":7534,"sacred":7535,"storage":7536,"izes":7537,"dude":7538,"lifts":7539,"relatively":7540,"dresser":7541,"rack":7542,"creek":7543,"nett":7544,"bould":7545,"melt":7546,"panicked":7547,"thumbs":7548,"suggestion":7549,"inkling":7550,"discovery":7551,"pavement":7552,"fridge":7553,"abs":7554,"passes":7555,"motiv":7556,"symbo":7557,"nevertheless":7558,"pacing":7559,"aye":7560,"assigned":7561,"nels":7562,"tem":7563,"committee":7564,"jude":7565,"inda":7566,"spur":7567,"physic":7568,"vicious":7569,"compassion":7570,"vacation":7571,"plas":7572,"employees":7573,"spike":7574,"asion":7575,"joshu":7576,"gery":7577,"psychic":7578,"piled":7579,"judging":7580,"ishly":7581,"instance":7582,"wary":7583,"gentlemen":7584,"breathless":7585,"ryder":7586,"tales":7587,"myth":7588,"decorated":7589,"score":7590,"numerous":7591,"sydney":7592,"imagining":7593,"explaining":7594,"angles":7595,"ddle":7596,"inevitable":7597,"conflict":7598,"wax":7599,"gible":7600,"elements":7601,"particip":7602,"blows":7603,"bug":7604,"toss":7605,"giggle":7606,"lazy":7607,"speaker":7608,"hovered":7609,"destiny":7610,"competition":7611,"dial":7612,"aboard":7613,"orted":7614,"smash":7615,"rying":7616,"inse":7617,"peculiar":7618,"coff":7619,"uted":7620,"atives":7621,"fashioned":7622,"chip":7623,"wallet":7624,"parliament":7625,"churn":7626,"illegal":7627,"specifically":7628,"sixth":7629,"voc":7630,"stefan":7631,"lasted":7632,"experiences":7633,"whip":7634,"limits":7635,"roses":7636,"linked":7637,"marshall":7638,"mead":7639,"candid":7640,"murdere":7641,"ripping":7642,"inven":7643,"johnson":7644,"zzed":7645,"ulated":7646,"implic":7647,"antha":7648,"partly":7649,"champagne":7650,"dus":7651,"susp":7652,"corre":7653,"dates":7654,"zar":7655,"toast":7656,"asc":7657,"vik":7658,"relationships":7659,"differently":7660,"trim":7661,"hauled":7662,"indul":7663,"fountain":7664,"sul":7665,"murmur":7666,"generous":7667,"facility":7668,"licking":7669,"joint":7670,"weigh":7671,"beasts":7672,"agency":7673,"toy":7674,"chas":7675,"april":7676,"mold":7677,"lah":7678,"cue":7679,"circling":7680,"berg":7681,"cain":7682,"talks":7683,"healed":7684,"vivid":7685,"sliced":7686,"della":7687,"tribe":7688,"trailer":7689,"perspective":7690,"ouch":7691,"pled":7692,"reassuring":7693,"intrigu":7694,"usions":7695,"realised":7696,"virus":7697,"civiliz":7698,"coughed":7699,"semi":7700,"madness":7701,"difficulty":7702,"enthusiasm":7703,"bishop":7704,"interven":7705,"terribly":7706,"players":7707,"dramatic":7708,"knives":7709,"forearm":7710,"kha":7711,"permit":7712,"goodness":7713,"skinny":7714,"pru":7715,"smoothed":7716,"appreciated":7717,"column":7718,"clinging":7719,"deer":7720,"damon":7721,"tained":7722,"contrast":7723,"prompt":7724,"loyalty":7725,"pam":7726,"tives":7727,"usal":7728,"supre":7729,"visitors":7730,"magnus":7731,"collapse":7732,"poo":7733,"reminder":7734,"angu":7735,"district":7736,"immense":7737,"dealt":7738,"mak":7739,"perched":7740,"ultimately":7741,"herent":7742,"athle":7743,"downtown":7744,"appointment":7745,"choo":7746,"domen":7747,"mistakes":7748,"comprom":7749,"imperial":7750,"blouse":7751,"explor":7752,"commanded":7753,"elsewhere":7754,"thrilled":7755,"dizzy":7756,"burg":7757,"shops":7758,"squat":7759,"handled":7760,"chu":7761,"scarce":7762,"frightening":7763,"meetings":7764,"rival":7765,"refuge":7766,"vom":7767,"winding":7768,"russia":7769,"beloved":7770,"discre":7771,"slice":7772,"warmed":7773,"langdon":7774,"independent":7775,"ruby":7776,"disturbing":7777,"mixture":7778,"patterns":7779,"ralph":7780,"unlikely":7781,"injuries":7782,"warehouse":7783,"strongly":7784,"meredith":7785,"jin":7786,"cope":7787,"plays":7788,"haze":7789,"ib":7790,"earl":7791,"refusing":7792,"instructed":7793,"savannah":7794,"abandon":7795,"pillows":7796,"ambul":7797,"struct":7798,"clit":7799,"industrial":7800,"injury":7801,"coward":7802,"shay":7803,"curb":7804,"monica":7805,"sham":7806,"increasingly":7807,"drain":7808,"freezing":7809,"geon":7810,"marty":7811,"demands":7812,"flex":7813,"ffle":7814,"bunk":7815,"eden":7816,"veness":7817,"supported":7818,"insurance":7819,"joshua":7820,"explode":7821,"oly":7822,"tempt":7823,"witches":7824,"stephan":7825,"recognition":7826,"praying":7827,"aiden":7828,"jealousy":7829,"stores":7830,"tapping":7831,"bending":7832,"peak":7833,"league":7834,"focusing":7835,"offices":7836,"ctors":7837,"solemn":7838,"inward":7839,"joking":7840,"nations":7841,"extent":7842,"damien":7843,"headache":7844,"ups":7845,"chess":7846,"spon":7847,"lantern":7848,"greeting":7849,"returns":7850,"claiming":7851,"tune":7852,"puzzle":7853,"apprehen":7854,"rattled":7855,"conserv":7856,"irish":7857,"viously":7858,"characters":7859,"forgiven":7860,"accused":7861,"oping":7862,"sparks":7863,"pinched":7864,"thorne":7865,"clamped":7866,"ighed":7867,"rebecca":7868,"presses":7869,"stove":7870,"tide":7871,"unpleasant":7872,"dismissed":7873,"delighted":7874,"fain":7875,"solo":7876,"warren":7877,"oxygen":7878,"enses":7879,"streaming":7880,"dna":7881,"dded":7882,"wars":7883,"watches":7884,"claw":7885,"addressed":7886,"nudged":7887,"tones":7888,"packing":7889,"wag":7890,"backing":7891,"flare":7892,"attended":7893,"picks":7894,"crisp":7895,"promo":7896,"bouncing":7897,"socks":7898,"istent":7899,"politic":7900,"exhaustion":7901,"crooked":7902,"dent":7903,"pathetic":7904,"ficial":7905,"dur":7906,"pression":7907,"blazing":7908,"retreated":7909,"academy":7910,"dashed":7911,"reci":7912,"spilling":7913,"nightmares":7914,"grins":7915,"individuals":7916,"reporter":7917,"hack":7918,"peas":7919,"dense":7920,"omin":7921,"afterwards":7922,"philosophy":7923,"shorter":7924,"fits":7925,"fighter":7926,"maker":7927,"ultimate":7928,"ashley":7929,"nonsense":7930,"alike":7931,"assistance":7932,"suv":7933,"foul":7934,"tiff":7935,"visual":7936,"shades":7937,"000":7938,"suitcase":7939,"aves":7940,"scanning":7941,"dangling":7942,"dum":7943,"rays":7944,"urance":7945,"logist":7946,"catho":7947,"flicker":7948,"folds":7949,"trousers":7950,"painter":7951,"finishing":7952,"clad":7953,"wealthy":7954,"resolve":7955,"follows":7956,"discussing":7957,"swirled":7958,"views":7959,"vag":7960,"fiery":7961,"bryn":7962,"yle":7963,"midst":7964,"intentions":7965,"proceeded":7966,"zzling":7967,"apply":7968,"sighs":7969,"longed":7970,"secured":7971,"jection":7972,"stink":7973,"ego":7974,"fundam":7975,"positioned":7976,"xico":7977,"trait":7978,"archite":7979,"deciding":7980,"rabbit":7981,"strings":7982,"decade":7983,"attorney":7984,"depth":7985,"kor":7986,"seas":7987,"----":7988,"raises":7989,"thrill":7990,"tortured":7991,"slides":7992,"thoughtful":7993,"possibilities":7994,"bure":7995,"notebook":7996,"evidently":7997,"canvas":7998,"oldest":7999,"nuclear":8000,"officially":8001,"companions":8002,"hugging":8003,"aler":8004,"ories":8005,"encountered":8006,"spaces":8007,"crushing":8008,"repeatedly":8009,"remarkable":8010,"samuel":8011,"gem":8012,"jenks":8013,"quant":8014,"capacity":8015,"diet":8016,"avenue":8017,"archer":8018,"margaret":8019,"lana":8020,"pierre":8021,"biz":8022,"17":8023,"politely":8024,"bothering":8025,"management":8026,"curves":8027,"genes":8028,"iana":8029,"joey":8030,"plug":8031,"scholar":8032,"lexi":8033,"insides":8034,"registered":8035,"anthony":8036,"hmm":8037,"comments":8038,"accusto":8039,"weighed":8040,"license":8041,"grunt":8042,"shuffled":8043,"shack":8044,"flour":8045,"cano":8046,"examine":8047,"profound":8048,"shaken":8049,"bullshit":8050,"cargo":8051,"frequently":8052,"elimin":8053,"rusty":8054,"stunning":8055,"launch":8056,"smacked":8057,"catholic":8058,"impatient":8059,"originally":8060,"july":8061,"proced":8062,"absorbed":8063,"pond":8064,"robot":8065,"lords":8066,"enne":8067,"shivering":8068,"orn":8069,"taxi":8070,"yel":8071,"trailing":8072,"altar":8073,"chewed":8074,"distract":8075,"improve":8076,"missi":8077,"ero":8078,"denied":8079,"iful":8080,"confin":8081,"charity":8082,"arriving":8083,"portal":8084,"griffin":8085,"spells":8086,"peeked":8087,"costu":8088,"identified":8089,"admire":8090,"hastily":8091,"accounts":8092,"offers":8093,"outs":8094,"determine":8095,"ige":8096,"condo":8097,"waiter":8098,"critic":8099,"sober":8100,"omi":8101,"kneeling":8102,"tians":8103,"essential":8104,"fluid":8105,"african":8106,"freeze":8107,"lining":8108,"pleading":8109,"simult":8110,"legit":8111,"publi":8112,"kil":8113,"apology":8114,"iser":8115,"phrase":8116,"wrath":8117,"garbage":8118,"rubs":8119,"obed":8120,"katherine":8121,"refri":8122,"strolled":8123,"genuinely":8124,"foundation":8125,"sworn":8126,"gossip":8127,"peer":8128,"dominic":8129,"defeated":8130,"corporate":8131,"anni":8132,"bution":8133,"accustomed":8134,"rounds":8135,"urgent":8136,"attraction":8137,"zack":8138,"unts":8139,"mexico":8140,"divided":8141,"scrut":8142,"scur":8143,"fantastic":8144,"someday":8145,"tucker":8146,"heaved":8147,"shrugs":8148,"jai":8149,"robes":8150,"cuffs":8151,"laced":8152,"crumpled":8153,"manu":8154,"descend":8155,"solar":8156,"sparkling":8157,"applic":8158,"jenna":8159,"humming":8160,"perfu":8161,"brass":8162,"masters":8163,"samantha":8164,"genius":8165,"divorce":8166,"sensual":8167,"array":8168,"countless":8169,"alia":8170,"echoing":8171,"partially":8172,"quet":8173,"investment":8174,"mascul":8175,"fans":8176,"freely":8177,"stain":8178,"mired":8179,"kira":8180,"lem":8181,"downward":8182,"essentially":8183,"extraordinary":8184,"exited":8185,"refriger":8186,"reacted":8187,"rafe":8188,"bible":8189,"neutral":8190,"anchor":8191,"invite":8192,"actor":8193,"distress":8194,"huddled":8195,"solit":8196,"expressions":8197,"reluctant":8198,"infer":8199,"adults":8200,"blessed":8201,"performed":8202,"cub":8203,"sympa":8204,"drivers":8205,"feminine":8206,"causes":8207,"elaborate":8208,"restless":8209,"doubts":8210,"eagerly":8211,"void":8212,"sufficient":8213,"mae":8214,"encing":8215,"nicole":8216,"jagged":8217,"succeeded":8218,"lest":8219,"mound":8220,"hugh":8221,"documents":8222,"16":8223,"nora":8224,"misty":8225,"hunched":8226,"chron":8227,"enda":8228,"duties":8229,"oker":8230,"excl":8231,"magnificent":8232,"founded":8233,"sley":8234,"essence":8235,"strap":8236,"flickering":8237,"steven":8238,"safer":8239,"jewelry":8240,"summoned":8241,"slung":8242,"bruises":8243,"exagger":8244,"races":8245,"absur":8246,"sca":8247,"ffling":8248,"avery":8249,"identical":8250,"regi":8251,"cah":8252,"marine":8253,"previously":8254,"supper":8255,"donald":8256,"sling":8257,"travis":8258,"dane":8259,"sunglasses":8260,"ruled":8261,"austr":8262,"recorded":8263,"desired":8264,"introduce":8265,"affairs":8266,"appeal":8267,"itches":8268,"twir":8269,"shotgun":8270,"lecture":8271,"strapped":8272,"annoyance":8273,"earn":8274,"jonas":8275,"defined":8276,"britain":8277,"apor":8278,"natalie":8279,"chips":8280,"teams":8281,"josie":8282,"anya":8283,"honour":8284,"wander":8285,"drun":8286,"lance":8287,"clerk":8288,"mie":8289,"failing":8290,"pierced":8291,"paths":8292,"octo":8293,"rats":8294,"seventh":8295,"pills":8296,"computers":8297,"theyll":8298,"proto":8299,"tunnels":8300,"sunset":8301,"tanner":8302,"removing":8303,"escor":8304,"whos":8305,"patrol":8306,"razor":8307,"pepper":8308,"congrat":8309,"brig":8310,"catches":8311,"glorious":8312,"hearted":8313,"index":8314,"israel":8315,"hypo":8316,"colleagues":8317,"tia":8318,"messy":8319,"choking":8320,"accurate":8321,"pencil":8322,"absurd":8323,"profession":8324,"scoff":8325,"elo":8326,"ici":8327,"sweaty":8328,"heavens":8329,"imple":8330,"attacking":8331,"convincing":8332,"flashes":8333,"brim":8334,"barre":8335,"tracking":8336,"motions":8337,"sday":8338,"election":8339,"commercial":8340,"whiskey":8341,"frances":8342,"scowl":8343,"jasmine":8344,"tess":8345,"vain":8346,"restri":8347,"dil":8348,"kan":8349,"convention":8350,"elise":8351,"reserved":8352,"promises":8353,"elliot":8354,"threats":8355,"blackness":8356,"inity":8357,"grain":8358,"standards":8359,"awoke":8360,"tad":8361,"stung":8362,"evident":8363,"releasing":8364,"reduced":8365,"reference":8366,"sofia":8367,"worries":8368,"xon":8369,"cracks":8370,"unhappy":8371,"awkwardly":8372,"controll":8373,"elderly":8374,"lever":8375,"sunny":8376,"compliment":8377,"alysis":8378,"renew":8379,"helpful":8380,"tum":8381,"unaware":8382,"loading":8383,"copper":8384,"suf":8385,"swayed":8386,"sia":8387,"tires":8388,"scu":8389,"mature":8390,"sometime":8391,"surged":8392,"melody":8393,"stim":8394,"bruised":8395,"stance":8396,"cken":8397,"inviting":8398,"owl":8399,"phas":8400,"battered":8401,"preced":8402,"thankful":8403,"slash":8404,"alternative":8405,"ored":8406,"aircraft":8407,"civilization":8408,"teddy":8409,"chand":8410,"zombie":8411,"tissue":8412,"laund":8413,"fantas":8414,"thud":8415,"bizar":8416,"amaze":8417,"iner":8418,"passengers":8419,"patiently":8420,"drunken":8421,"accompany":8422,"tram":8423,"pearl":8424,"bureau":8425,"jade":8426,"protested":8427,"ponytail":8428,"shrieked":8429,"bolted":8430,"italy":8431,"autumn":8432,"yers":8433,"respected":8434,"ropes":8435,"crimes":8436,"senator":8437,"seld":8438,"sobbing":8439,"isabella":8440,"dled":8441,"bulk":8442,"suited":8443,"sweating":8444,"parad":8445,"cesses":8446,"troll":8447,"adopted":8448,"measures":8449,"hears":8450,"feathers":8451,"sided":8452,"gel":8453,"faintly":8454,"lounge":8455,"believes":8456,"creepy":8457,"stilled":8458,"ende":8459,"beef":8460,"retired":8461,"cakes":8462,"fiona":8463,"sacrific":8464,"survivor":8465,"outrage":8466,"encouraged":8467,"evolution":8468,"egypt":8469,"gardens":8470,"retire":8471,"beams":8472,"adin":8473,"tember":8474,"irect":8475,"drowned":8476,"jews":8477,"slit":8478,"sni":8479,"lemon":8480,"mistaken":8481,"smoothly":8482,"isode":8483,"shocking":8484,"paintings":8485,"guarantee":8486,"foyer":8487,"kas":8488,"cracking":8489,"episode":8490,"accepting":8491,"accommo":8492,"associated":8493,"printed":8494,"ceased":8495,"rend":8496,"closes":8497,"january":8498,"jokes":8499,"rio":8500,"pout":8501,"recon":8502,"persons":8503,"october":8504,"guessing":8505,"composed":8506,"ille":8507,"ku":8508,"welcomed":8509,"pictured":8510,"piano":8511,"eternal":8512,"stron":8513,"circular":8514,"distingu":8515,"resisted":8516,"hazel":8517,"flan":8518,"september":8519,"mars":8520,"teenager":8521,"hin":8522,"stumble":8523,"casey":8524,"colum":8525,"irritation":8526,"hopeful":8527,"cursing":8528,"lodge":8529,"sale":8530,"lizzie":8531,"earnest":8532,"primary":8533,"ruins":8534,"hairs":8535,"pussy":8536,"manufact":8537,"callum":8538,"glittering":8539,"outward":8540,"bells":8541,"ambulance":8542,"phis":8543,"coo":8544,"secretly":8545,"shark":8546,"kindness":8547,"choosing":8548,"ario":8549,"static":8550,"item":8551,"females":8552,"stride":8553,"prop":8554,"bucks":8555,"coins":8556,"upside":8557,"ee":8558,"delivery":8559,"transformed":8560,"tenance":8561,"felix":8562,"admired":8563,"romance":8564,"robo":8565,"rises":8566,"motionless":8567,"christop":8568,"fascinated":8569,"fried":8570,"astro":8571,"engines":8572,"ani":8573,"sprawled":8574,"sate":8575,"champion":8576,"buzzing":8577,"gren":8578,"dain":8579,"fication":8580,"grandpa":8581,"receiving":8582,"burnt":8583,"parker":8584,"ardon":8585,"luxury":8586,"fights":8587,"aspect":8588,"shifts":8589,"shold":8590,"layers":8591,"cares":8592,"arer":8593,"offended":8594,"skipped":8595,"towers":8596,"arrangement":8597,"oblivious":8598,"goddamn":8599,"gloss":8600,"aristo":8601,"roaring":8602,"traum":8603,"products":8604,"assignment":8605,"megan":8606,"ification":8607,"joan":8608,"luther":8609,"brady":8610,"debris":8611,"trucks":8612,"relative":8613,"marco":8614,"chis":8615,"sticky":8616,"pets":8617,"slack":8618,"ov":8619,"proven":8620,"sighing":8621,"glen":8622,"latin":8623,"gallery":8624,"maintained":8625,"morti":8626,"scooped":8627,"esy":8628,"bumped":8629,"patients":8630,"tremble":8631,"theirs":8632,"tending":8633,"poster":8634,"parano":8635,"aura":8636,"bites":8637,"substanti":8638,"vial":8639,"zombies":8640,"willow":8641,"junk":8642,"flaw":8643,"contribut":8644,"twitch":8645,"cautious":8646,"blos":8647,"threshold":8648,"vory":8649,"oma":8650,"dazed":8651,"household":8652,"technically":8653,"tightening":8654,"preston":8655,"paralle":8656,"gee":8657,"izzy":8658,"phoen":8659,"startling":8660,"blinding":8661,"insult":8662,"rumors":8663,"larry":8664,"metery":8665,"stew":8666,"obst":8667,"complained":8668,"aa":8669,"unfamiliar":8670,"displayed":8671,"climate":8672,"sper":8673,"blunt":8674,"perry":8675,"tomb":8676,"invent":8677,"brisk":8678,"shutting":8679,"situations":8680,"feast":8681,"fund":8682,"skep":8683,"baron":8684,"resort":8685,"hh":8686,"ctives":8687,"strokes":8688,"generations":8689,"carson":8690,"laundry":8691,"inform":8692,"fiercely":8693,"stumbling":8694,"brighter":8695,"quote":8696,"uous":8697,"vines":8698,"sanctuary":8699,"photographs":8700,"cattle":8701,"halls":8702,"lis":8703,"expan":8704,"conscience":8705,"daring":8706,"blasted":8707,"rober":8708,"grit":8709,"creeping":8710,"gla":8711,"pauses":8712,"abuse":8713,"albert":8714,"slay":8715,"smelling":8716,"benefits":8717,"operations":8718,"represented":8719,"accidentally":8720,"olive":8721,"cherry":8722,"creative":8723,"correctly":8724,"impatiently":8725,"betrayal":8726,"stella":8727,"gratitude":8728,"arab":8729,"cemetery":8730,"willingly":8731,"infected":8732,"ulted":8733,"forgetting":8734,"rons":8735,"perfection":8736,"smar":8737,"lized":8738,"hog":8739,"innocence":8740,"mocking":8741,"concluded":8742,"blurred":8743,"fig":8744,"listed":8745,"majesty":8746,"illuminated":8747,"embarrassing":8748,"atlan":8749,"nico":8750,"sunk":8751,"asia":8752,"diag":8753,"disgusted":8754,"lovers":8755,"mainly":8756,"vier":8757,"outcome":8758,"crowds":8759,"diplo":8760,"cable":8761,"communicate":8762,"wives":8763,"bizarre":8764,"elean":8765,"lowering":8766,"menu":8767,"chad":8768,"agu":8769,"disturb":8770,"principle":8771,"bears":8772,"cooked":8773,"infant":8774,"scraped":8775,"frankly":8776,"ape":8777,"malcol":8778,"bumps":8779,"officials":8780,"simultaneously":8781,"furiously":8782,"bacon":8783,"meals":8784,"pheno":8785,"costs":8786,"commitment":8787,"balanced":8788,"ishes":8789,"throws":8790,"heck":8791,"trum":8792,"gritted":8793,"stirring":8794,"ttes":8795,"veil":8796,"buzzed":8797,"sly":8798,"scenes":8799,"successfully":8800,"tens":8801,"stacked":8802,"employment":8803,"veron":8804,"ponder":8805,"bronze":8806,"dive":8807,"exquis":8808,"supernatural":8809,"calvin":8810,"crun":8811,"exped":8812,"proposal":8813,"pover":8814,"coats":8815,"expressed":8816,"explic":8817,"unbelie":8818,"resumed":8819,"50":8820,"filthy":8821,"historical":8822,"responding":8823,"pris":8824,"gross":8825,"refrigerator":8826,"bands":8827,"classic":8828,"passionate":8829,"concealed":8830,"urban":8831,"considerable":8832,"quie":8833,"cled":8834,"bedside":8835,"scand":8836,"myst":8837,"vored":8838,"rak":8839,"shifter":8840,"diana":8841,"pumping":8842,"terry":8843,"kenned":8844,"crest":8845,"meantime":8846,"rendered":8847,"employed":8848,"sensing":8849,"oblig":8850,"drowning":8851,"whimper":8852,"oath":8853,"tremend":8854,"vegas":8855,"ini":8856,"isha":8857,"discard":8858,"automatic":8859,"paperwork":8860,"lincol":8861,"becky":8862,"aud":8863,"coincidence":8864,"crust":8865,"retrieved":8866,"feat":8867,"occasions":8868,"lessness":8869,"cellar":8870,"jaws":8871,"xy":8872,"trey":8873,"hag":8874,"snort":8875,"fae":8876,"overall":8877,"residence":8878,"thoughtfully":8879,"zipped":8880,"eyeing":8881,"republi":8882,"traged":8883,"straining":8884,"indif":8885,"theater":8886,"flipping":8887,"furrowed":8888,"division":8889,"masculine":8890,"wield":8891,"issy":8892,"glim":8893,"malcolm":8894,"recommend":8895,"caressed":8896,"odor":8897,"blance":8898,"toric":8899,"legis":8900,"foster":8901,"lurched":8902,"braid":8903,"pausing":8904,"surgery":8905,"evol":8906,"ranks":8907,"scarf":8908,"arrogant":8909,"inkle":8910,"itter":8911,"retrieve":8912,"differences":8913,"supreme":8914,"subjects":8915,"enforce":8916,"bruce":8917,"greatly":8918,"extend":8919,"circu":8920,"bb":8921,"chewing":8922,"presu":8923,"principal":8924,"bbling":8925,"gloom":8926,"serves":8927,"contri":8928,"silky":8929,"gaping":8930,"compart":8931,"digital":8932,"purchased":8933,"headquarters":8934,"peeled":8935,"nephe":8936,"shrink":8937,"unfortunate":8938,"engagement":8939,"december":8940,"priests":8941,"hael":8942,"mortals":8943,"lamps":8944,"ivan":8945,"inspir":8946,"eman":8947,"jug":8948,"liking":8949,"interpret":8950,"michelle":8951,"kara":8952,"referred":8953,"grove":8954,"vine":8955,"lime":8956,"!\"":8957,"batt":8958,"elijah":8959,"clum":8960,"indication":8961,"ppled":8962,"pursed":8963,"wee":8964,"eagle":8965,"mick":8966,"blings":8967,"encies":8968,"sobs":8969,"thel":8970,"examining":8971,"unle":8972,"tuesday":8973,"ousal":8974,"melting":8975,"rumble":8976,"bray":8977,"accomplished":8978,"phenomen":8979,"bourne":8980,"allie":8981,"trusting":8982,"fero":8983,"acknowledged":8984,"poly":8985,"dson":8986,"florida":8987,"phoenix":8988,"indign":8989,"thursday":8990,"roth":8991,"waf":8992,"virginia":8993,"ifying":8994,"levi":8995,"tracked":8996,"mused":8997,"november":8998,"eleanor":8999,"modest":9000,"accomplish":9001,"stormed":9002,"tiffany":9003,"reverse":9004,"certainty":9005,"kindly":9006,"wednes":9007,"raging":9008,"jewish":9009,"lawyers":9010,"grud":9011,"brood":9012,"acceptable":9013,"lincoln":9014,"murderer":9015,"outline":9016,"referring":9017,"wry":9018,"providing":9019,"glove":9020,"grinding":9021,"ballo":9022,"moss":9023,"selected":9024,"swaying":9025,"investigate":9026,"outstretched":9027,"santa":9028,"ique":9029,"comparison":9030,"wyn":9031,"ology":9032,"messed":9033,"anticipated":9034,"sleepy":9035,"salad":9036,"administration":9037,"dripped":9038,"tricks":9039,"leah":9040,"supporting":9041,"recording":9042,"suspended":9043,"resolved":9044,"warming":9045,"grows":9046,"kennedy":9047,"escaping":9048,"dimin":9049,"groom":9050,"teenage":9051,"shea":9052,"theatre":9053,"mund":9054,"allies":9055,"lene":9056,"connections":9057,"tease":9058,"sue":9059,"horns":9060,"graceful":9061,"intellectual":9062,"opponent":9063,"glas":9064,"purposes":9065,"fortress":9066,"scientist":9067,"nell":9068,"gic":9069,"openly":9070,"nold":9071,"starving":9072,"adequ":9073,"discomfort":9074,"caress":9075,"pregnancy":9076,"citizen":9077,"skid":9078,"relevant":9079,"pyram":9080,"cookies":9081,"cind":9082,"sauce":9083,"swallowing":9084,"beamed":9085,"idio":9086,"backyard":9087,"coffin":9088,"guts":9089,"awhile":9090,"cheerful":9091,"locate":9092,"altern":9093,"fitted":9094,"doom":9095,"ares":9096,"potent":9097,"promin":9098,"extr":9099,"madison":9100,"naomi":9101,"tracting":9102,"hunted":9103,"yea":9104,"worker":9105,"gaining":9106,"substance":9107,"papa":9108,"stench":9109,"cling":9110,"rec":9111,"mathem":9112,"peoples":9113,"cuted":9114,"rattle":9115,"depression":9116,"sleek":9117,"pleaded":9118,"murphy":9119,"inser":9120,"cousins":9121,"destroying":9122,"chambers":9123,"xavi":9124,"sends":9125,"float":9126,"effectively":9127,"acon":9128,"lush":9129,"drives":9130,"rogue":9131,"corrup":9132,"dialed":9133,"angular":9134,"interrog":9135,"hoarse":9136,"proposed":9137,"nancy":9138,"rebelli":9139,"fumbled":9140,"arousal":9141,"napkin":9142,"mara":9143,"chy":9144,"embraced":9145,"deput":9146,"tripped":9147,"fronted":9148,"lore":9149,"leys":9150,"funds":9151,"fascinating":9152,"eighth":9153,"buff":9154,"liest":9155,"yep":9156,"terminal":9157,"lash":9158,"piper":9159,"elf":9160,"bartender":9161,"nurses":9162,"islands":9163,"deposit":9164,"muddy":9165,"gallo":9166,"pursuit":9167,"mush":9168,"forbidden":9169,"fati":9170,"gos":9171,"pil":9172,"dimit":9173,"rung":9174,"fraction":9175,"happier":9176,"halted":9177,"calmed":9178,"audible":9179,"puppy":9180,"stry":9181,"thief":9182,"het":9183,"console":9184,"slips":9185,"rina":9186,"lug":9187,"defence":9188,"metallic":9189,"labe":9190,"dess":9191,"rou":9192,"cringed":9193,"lethal":9194,"valid":9195,"torment":9196,"allison":9197,"impulse":9198,"plucked":9199,"emotionally":9200,"sensor":9201,"values":9202,"celebrate":9203,"neys":9204,"dup":9205,"oy":9206,"aliens":9207,"supposedly":9208,"inton":9209,"fighters":9210,"nearer":9211,"demean":9212,"budget":9213,"democratic":9214,"jewels":9215,"exposing":9216,"intact":9217,"clair":9218,"oven":9219,"sustain":9220,"popping":9221,"silhou":9222,"kest":9223,"worm":9224,"choke":9225,"stays":9226,"scope":9227,"brew":9228,"controls":9229,"perfume":9230,"istics":9231,"bloom":9232,"von":9233,"instrument":9234,"categor":9235,"lina":9236,"frequent":9237,"timing":9238,"snif":9239,"amazement":9240,"arrangements":9241,"opposed":9242,"golf":9243,"onds":9244,"thic":9245,"obeyed":9246,"inspired":9247,"convenient":9248,"busines":9249,"album":9250,"acular":9251,"imated":9252,"maze":9253,"laught":9254,"privile":9255,"angie":9256,"aggressive":9257,"hiss":9258,"lighted":9259,"encouraging":9260,"dismay":9261,"behalf":9262,"powered":9263,"scheme":9264,"borne":9265,"clarity":9266,"suspiciously":9267,"jase":9268,"cowboy":9269,"rocket":9270,"lings":9271,"fills":9272,"motel":9273,"kerchief":9274,"depending":9275,"bean":9276,"shuttle":9277,"sources":9278,"hast":9279,"neighbour":9280,"giggling":9281,"saun":9282,"hyp":9283,"businesses":9284,"christopher":9285,"vlad":9286,"desig":9287,"gunner":9288,"promising":9289,"regularly":9290,"marily":9291,"leton":9292,"punish":9293,"bundle":9294,"limb":9295,"voted":9296,"domestic":9297,"issued":9298,"posture":9299,"inf":9300,"worship":9301,"opti":9302,"anytime":9303,"departure":9304,"blamed":9305,"entertainment":9306,"escorted":9307,"invasion":9308,"therapy":9309,"witnesses":9310,"dging":9311,"shan":9312,"leadership":9313,"sau":9314,"uncertainty":9315,"cement":9316,"milton":9317,"genetic":9318,"soviet":9319,"cigare":9320,"lst":9321,"heed":9322,"dub":9323,"tighten":9324,"shimmering":9325,"unseen":9326,"sasha":9327,"diner":9328,"marian":9329,"electronic":9330,"fundamental":9331,"gag":9332,"wednesday":9333,"isabel":9334,"apollo":9335,"ovan":9336,"tails":9337,"practiced":9338,"revelation":9339,"dimitri":9340,"assembled":9341,"undead":9342,"rex":9343,"dling":9344,"annon":9345,"isolated":9346,"website":9347,"smack":9348,"proudly":9349,"niko":9350,"plains":9351,"remn":9352,"whilst":9353,"projects":9354,"ala":9355,"metri":9356,"barry":9357,"gleam":9358,"headlights":9359,"maya":9360,"splashed":9361,"mck":9362,"ivity":9363,"dana":9364,"japan":9365,"virtually":9366,"goat":9367,"hence":9368,"kellan":9369,"risen":9370,"indicating":9371,"cun":9372,"carlos":9373,"moaning":9374,"hyper":9375,"broo":9376,"reminds":9377,"emerald":9378,"desires":9379,"wayne":9380,"exten":9381,"jut":9382,"honesty":9383,"cigarettes":9384,"descending":9385,"deputy":9386,"relations":9387,"henri":9388,"heir":9389,"stem":9390,"harbor":9391,"nanny":9392,"trips":9393,"dren":9394,"pained":9395,"analysis":9396,"turkey":9397,"gum":9398,"tial":9399,"sights":9400,"buckled":9401,"graphy":9402,"abra":9403,"disgusting":9404,"bracing":9405,"bless":9406,"satell":9407,"pulsing":9408,"lame":9409,"challenged":9410,"poking":9411,"fuckin":9412,"doubled":9413,"rumbled":9414,"contest":9415,"loan":9416,"kur":9417,"mutual":9418,"banged":9419,"strengthen":9420,"freshly":9421,"grac":9422,"isabelle":9423,"eerie":9424,"ghan":9425,"spor":9426,"abbey":9427,"hollywood":9428,"feature":9429,"clubs":9430,"harper":9431,"materi":9432,"insight":9433,"visitor":9434,"slum":9435,"targets":9436,"asher":9437,"orbit":9438,"brist":9439,"deepened":9440,"methods":9441,"measured":9442,"verge":9443,"rane":9444,"snakes":9445,"lain":9446,"fes":9447,"urgency":9448,"classroom":9449,"exists":9450,"observation":9451,"approved":9452,"lewis":9453,"surveill":9454,"customer":9455,"hilt":9456,"endure":9457,"tread":9458,"dened":9459,"overly":9460,"aroused":9461,"harris":9462,"melanie":9463,"aer":9464,"hector":9465,"containing":9466,"dammit":9467,"requested":9468,"ughty":9469,"stagger":9470,"relaxing":9471,"curly":9472,"declan":9473,"plague":9474,"charging":9475,"whitney":9476,"walter":9477,"tourists":9478,"absently":9479,"mored":9480,"alliance":9481,"achieved":9482,"refe":9483,"yn":9484,"tracing":9485,"inquis":9486,"sympathetic":9487,"fastened":9488,"andrea":9489,"wret":9490,"urs":9491,"vard":9492,"slowing":9493,"cany":9494,"francisco":9495,"toys":9496,"interfe":9497,"towering":9498,"isms":9499,"loos":9500,"egyp":9501,"youngest":9502,"scratching":9503,"uncomfortably":9504,"swamp":9505,"needles":9506,"sophis":9507,"smen":9508,"submit":9509,"regretted":9510,"pumped":9511,"execution":9512,"gulped":9513,"surreal":9514,"swarm":9515,"visibly":9516,"venture":9517,"sector":9518,"rif":9519,"dab":9520,"grasping":9521,"wheeled":9522,"cultural":9523,"tumbling":9524,"pples":9525,"gleamed":9526,"coated":9527,"controlling":9528,"operating":9529,"mistak":9530,"overnight":9531,"streaked":9532,"howl":9533,"chester":9534,"toll":9535,"tina":9536,"terior":9537,"whore":9538,"tasting":9539,"tant":9540,"mol":9541,"janet":9542,"essa":9543,"manners":9544,"acquaint":9545,"skilled":9546,"itll":9547,"straps":9548,"motorcycle":9549,"knit":9550,"burger":9551,"ante":9552,"arte":9553,"democracy":9554,"oph":9555,"elite":9556,"cke":9557,"priority":9558,"drawers":9559,"indicate":9560,"jolt":9561,"darius":9562,"swelled":9563,"attic":9564,"barking":9565,"chatting":9566,"nash":9567,"gaped":9568,"scold":9569,"surveillance":9570,"arguments":9571,"developing":9572,"legged":9573,"twenties":9574,"mouthed":9575,"praise":9576,"scheduled":9577,"guer":9578,"folder":9579,"reflex":9580,"tragedy":9581,"fang":9582,"playful":9583,"kilo":9584,"adel":9585,"davis":9586,"anxiously":9587,"vivian":9588,"context":9589,"grocery":9590,"exotic":9591,"disguise":9592,"arena":9593,"illness":9594,"galax":9595,"colorful":9596,"linda":9597,"bern":9598,"punct":9599,"backseat":9600,"eval":9601,"texts":9602,"lend":9603,"steaming":9604,"acquired":9605,"cyn":9606,"medium":9607,"patio":9608,"abe":9609,"cannon":9610,"clenching":9611,"unmistak":9612,"tavern":9613,"raine":9614,"frankie":9615,"merry":9616,"widely":9617,"theyve":9618,"rider":9619,"inges":9620,"springs":9621,"werewolves":9622,"eving":9623,"leaping":9624,"promptly":9625,"prompted":9626,"olymp":9627,"weeping":9628,"reader":9629,"escal":9630,"instruments":9631,"thrusting":9632,"beats":9633,"carolina":9634,"coughing":9635,"tuous":9636,"scarcely":9637,"stomped":9638,"mping":9639,"idents":9640,"valentine":9641,"yells":9642,"devoted":9643,"assho":9644,"wiz":9645,"tattoos":9646,"surveyed":9647,"adri":9648,"riers":9649,"opy":9650,"efficient":9651,"filed":9652,"flinch":9653,"appointed":9654,"lena":9655,"universal":9656,"inquired":9657,"asser":9658,"sneaking":9659,"comedy":9660,"awakened":9661,"wasting":9662,"welcoming":9663,"unbear":9664,"materials":9665,"temptation":9666,"clawed":9667,"ppery":9668,"clark":9669,"grumbled":9670,"tiles":9671,"dimens":9672,"lica":9673,"skip":9674,"mps":9675,"banging":9676,"executive":9677,"sincere":9678,"vengeance":9679,"cradled":9680,"coordin":9681,"shields":9682,"satin":9683,"battles":9684,"loosened":9685,"monkey":9686,"requires":9687,"goals":9688,"trag":9689,"drey":9690,"heavier":9691,"stil":9692,"liquor":9693,"fingernails":9694,"smer":9695,"telepath":9696,"pupils":9697,"gasps":9698,"constructed":9699,"waits":9700,"lilly":9701,"erotic":9702,"atically":9703,"explains":9704,"cooler":9705,"ays":9706,"coven":9707,"handling":9708,"antonio":9709,"apologe":9710,"inal":9711,"ata":9712,"musical":9713,"mast":9714,"astron":9715,"piles":9716,"discipline":9717,"magne":9718,"heaving":9719,"electrical":9720,"largely":9721,"otto":9722,"detect":9723,"rue":9724,"micah":9725,"graphic":9726,"contradic":9727,"linen":9728,"hasn":9729,"paradise":9730,"vised":9731,"killers":9732,"fath":9733,"messenger":9734,"rejected":9735,"morse":9736,"dose":9737,"spas":9738,"reign":9739,"anony":9740,"errand":9741,"joel":9742,"ellen":9743,"factor":9744,"dorian":9745,"planets":9746,"faithful":9747,"taut":9748,"krist":9749,"jerking":9750,"fatal":9751,"pursue":9752,"xavier":9753,"finest":9754,"dusk":9755,"loomed":9756,"nonetheless":9757,"rhe":9758,"kills":9759,"eleph":9760,"stations":9761,"detailed":9762,"unwilling":9763,"herd":9764,"fetch":9765,"coy":9766,"container":9767,"regain":9768,"punished":9769,"shire":9770,"leis":9771,"handkerchief":9772,"tling":9773,"ulating":9774,"wraps":9775,"undoubted":9776,"gazes":9777,"collective":9778,"closure":9779,"intrigued":9780,"200":9781,"observe":9782,"sophistic":9783,"knots":9784,"torial":9785,"detected":9786,"sumably":9787,"predictable":9788,"wilson":9789,"granite":9790,"diamonds":9791,"chatter":9792,"paraly":9793,"transition":9794,"chunk":9795,"technical":9796,"wick":9797,"figuring":9798,"moth":9799,"fras":9800,"handy":9801,"cathe":9802,"tid":9803,"stairwell":9804,"abdomen":9805,"artificial":9806,"coco":9807,"addled":9808,"confession":9809,"server":9810,"soda":9811,"philli":9812,"gans":9813,"tis":9814,"sensations":9815,"bared":9816,"fewer":9817,"farmer":9818,"dreadful":9819,"negle":9820,"payment":9821,"acceptance":9822,"belongs":9823,"motive":9824,"magazines":9825,"bedded":9826,"foli":9827,"employee":9828,"beans":9829,"prow":9830,"slapping":9831,"growling":9832,"tremendous":9833,"athen":9834,"rape":9835,"recovery":9836,"owns":9837,"dip":9838,"bice":9839,"madeline":9840,"dedicated":9841,"hazard":9842,"bler":9843,"norman":9844,"elders":9845,"serena":9846,"tennis":9847,"jur":9848,"bargain":9849,"austin":9850,"shells":9851,"contrary":9852,"dox":9853,"connecting":9854,"liberal":9855,"presumably":9856,"spectacular":9857,"reporters":9858,"unner":9859,"nightstand":9860,"resembled":9861,"iris":9862,"elves":9863,"georgia":9864,"chop":9865,"reo":9866,"infl":9867,"oon":9868,"utch":9869,"laz":9870,"inspector":9871,"cody":9872,"scrap":9873,"clinic":9874,"opposit":9875,"tuck":9876,"principles":9877,"depends":9878,"bursting":9879,"opportunities":9880,"iciently":9881,"budd":9882,"zeke":9883,"flutter":9884,"lucian":9885,"neared":9886,"utes":9887,"soever":9888,"tickets":9889,"rev":9890,"anguish":9891,"hideous":9892,"atl":9893,"farmers":9894,"mechanical":9895,"cassandra":9896,"suitable":9897,"sickness":9898,"cassidy":9899,"establish":9900,"dimp":9901,"kent":9902,"allest":9903,"rion":9904,"keith":9905,"dynam":9906,"flit":9907,"shriek":9908,"aby":9909,"reins":9910,"hostile":9911,"rivers":9912,"prosecu":9913,"transformation":9914,"blessing":9915,"clipped":9916,"speakers":9917,"penn":9918,"consult":9919,"stamped":9920,"potatoes":9921,"kyrian":9922,"engul":9923,"nay":9924,"padded":9925,"punching":9926,"gles":9927,"tongues":9928,"announ":9929,"receiver":9930,"savor":9931,"ito":9932,"phase":9933,"angeles":9934,"posted":9935,"lifeless":9936,"pey":9937,"cale":9938,"conduct":9939,"beep":9940,"sucks":9941,"ival":9942,"peek":9943,"devices":9944,"investiga":9945,"swiped":9946,"granny":9947,"yank":9948,"buttoned":9949,"captive":9950,"chapel":9951,"nadia":9952,"ration":9953,"shattering":9954,"windshield":9955,"swat":9956,"24":9957,"rade":9958,"menacing":9959,"groaning":9960,"overheard":9961,"sailed":9962,"poetry":9963,"gerald":9964,"pairs":9965,"troy":9966,"fisher":9967,"signature":9968,"brandy":9969,"darting":9970,"hates":9971,"appreciation":9972,"uated":9973,"ditch":9974,"astonishment":9975,"behave":9976,"sweethe":9977,"noti":9978,"paces":9979,"shadowy":9980,"orleans":9981,"harvest":9982,"helena":9983,"empt":9984,"muttering":9985,"blurted":9986,"involve":9987,"constitution":9988,"contacts":9989,"scalp":9990,"facebook":9991,"dalton":9992,"whistled":9993,"jumps":9994,"scoffed":9995,"managing":9996,"diego":9997,"tingling":9998},"merges":["h e","i n","t he","a n","r e","o u","e d","t h","t o","o n","a t","in g","e r","a s","an d","i s","e n","a r","a l","i t","o r","s t","o f","l e","m e","a d","b e","s e","o w","a c","w as","l y","e s","r o","he r","i d","l d","g h","l i","h is","v e","y ou","l l","s he","th at","w e","h i","w i","a y","t i","l o","c h","n o","v er","u t","f or","s o","k e","r i","m y","gh t","ou ld","ou t","u n","wi th","i r","h ad","n e","en t","h a","m o","c e","c o","w h","al l","f e","g e","a b","on e","u r","b ut","g o","d o","hi m","s h","d e","u p","re d","the r","c k","t er","o k","a m","i on","a in","t e","ac k","p e","ou n","' '","a g","u s","c a","n ow","s a","w he","th ing","ro m","the y","an t","i f","o d","c on","no t","p p","f rom","s s","w ay","u st","ar d","t r","ha ve","th is","oun d","i l","in d","p o","so me","a re","wh at","ow n","i c","f o","we re","s u","m an","c ould","li ke","t ed","w ould","m p","d id","b ack","id e","r a","e x","w or","the re","u l","lo ok","ou gh","h o","er s","q u","b o","ou r","p l","in to","g r","i ght","c he","i ll","w o","e l","whe n","a k","ac e","j ust","al ly","e ver","the m","at e","b y","v en","o p","at ion","l a","k now","ab out","h and","en d","ti me","an y","o ver","se e","the n","e t","k ed","as t","on g","s to","be en","m ent","s i","o ther","s p","e y","ar t","ge t","b l","d own","ti on","ou s","wh o","sa id","e p","a ke","in k","b r","mo re","w ant","ur n","t ing","he ad","se l","in e","ag ain","p ro","p re","you r","c an","g u","a p","fo re","the ir","of f","s ide","is t","h ow","i m","w hi","es s","a f","r y","d er","s m","n t","ey es","ne w","th r","u se","o m","sel f","r u","th an","t urn","v ed","s c","e ven","ou ght","p er","f i","he d","pp ed","c t","p u","ab le","ar m","ri ght","v i","ever y",". .","co m","e ar","d i","g l","be fore","t y","ar ound","it y","v ing","as s","ad e","th ink","thr ough","d ay","c lo","t le","on ly","it e","b le","u re","wi ll","i ck","le t","k ing","g i","a th","m ed","w ard","c l","whe re","it s","i ce","a ir","p s","f ul","ac h","g a","look ed","l ed","t en","d is","v o","u m","l it","re e","f ace","co me","ro om","af ter","re ad","go ing","l ong","ac t","at ed","to o","he re","th ought","n a","a way","be ca","m u","an g","st ill","t wo","do or","l t","f r","sh ould","w at","or t","j o","ne ed","c i","p r","an s","sh o","li ght","m ar","b ed","mo st","some thing","g re","an ce","s ay","ne ver","b re","f ir","go t","c ar","st e","l ow","m ade","on t","che d","en ed","be t","w a","i g","s ed","fe el","c le","we ll","f t","beca use","b od","as ked","b er","b u","mu ch","n ing","go od","v es","n ight","to r","turn ed","un der","whi ch","t al","s hi","op le","lit tle","pe ople","ti c","t ri","co mp","m en","k new","w al","d d","fir st","m on","s pe","en ce","f a","w ent","m ake","li e","d s","p t","d es","i z","bod y","f in","h as","a ge","s er","tr y","m in","ar k","c all","ll ed","t s","s it","m ay","ak ing","o l","p le","o se","l u","fe lt","e st","t ake","ver y","ha pp","con t","to ok","he l","st and","c re","a red","s k","as e","s ur","c r","u e","te ll","is h","re n","re st","su re","li fe","le ss","want ed","i es","c or","i e","again st","re al","m or","c ed","hand s","i le","y ear","us ed","st ar","wh y","p ut","th ough","st r","k s","d r",".. .","a u","ca me","whi le","h u","m at","p h","m ind","is e","an other","n ed","ro ss","n er","re ally","be ing","le ft","d re","h ard","c hi","ou se","c tion","is s","p art","i ly","se t","b ro","g ed","fe w","a pp","to n","l ast","ch o","s ha","mo ment","i ve","way s","ti l","o ld","ow ed","in t","f ri","be g","h ind","p ar","read y","p ed","c ur","ck ed","le a","m ight","b lo","f ind","th ose","h un","be hind","to ward","z e","h ouse","m a","x t","sa w","thing s","st u","j e","ke ep","wor k","en ough","wa it","op en","f l","vo ice","n ess","an ge","d ark","c ent","f ing","pl ace","no thing","fri end","t re","s en","un til","at ing","f u","c er","any thing","ou th","ar y","la u","j u","c oun","on ce","w r","f ound","in ce","ha ir","f f","pre ss","to ld","i mp","le s","m s","bo th","s il","s ound","r un","ca re","fr ont","b it","f lo","ch ing","look ing","t ain","m er","s at","w all","se s","ho ld","s up","b ar","s l","h al","ne xt","co l","il ed","do es","a w","the se","i ous","n or","y s","d u","g ir","th ree","sa me","al ways","st re","ho me","with out","u ally","l ing","t able","him self","we en","wor ld","c ted","bet ween","gir l","hel p","w ind","me m","b ab","l and","sm all","in side","d ri","year s","e ach","le g","d on","g er","a h","he art","v is","she d","bl ack","m outh","i re","lo ve","g n","arm s","o b","see med","wo man","f am","w on","may be","man y","c our","fa ther","c al","f ar","t a","ri ed","ow s","as h","se con","mo ther","ac ross","e f","k ind","s id","ing s","am p","sm ile","k ill","ac hed","blo od","every thing","ap pe","s ing","pl ay","pu lled","d if","p ers","ar s","gi ve","de ep","o t","al so","y e","s ince","d ro","c es","i a","he ard","lo t","be lie","for m","p ain","try ing","al most","e v","is ed","m ust","ow er","qu est","tr a","an k","fo ll","p a","w ar","l at","s ent","sto od","ga ve","he ar","de c","p ass","bet ter","b ig","as on","s low","star ted","clo se","me an","wor ds","p ri","al ready","e m","in ter","my self","qu ick","time s","tr u","ge ther","to gether","wat er","ne ar","d one","ow ing","y et","se en","h or","st ep","fe et","ke t","in s","m i","tri ed","s we","ion s","li ps","he ld","some one","g en","bre ath","s le","pp ing","mo ve","com ing","wal ked","re nt","e as","me s","re mem","st art","el se","gre at","iz ed","on d","m ain","no dd","an e","ra w","li c","n i","su ch","t ou","flo or","ic al","s on","l ar","s po","ss i","mo ved","hal f","h ur","d ont","ru g","min ut","e k","pers on","ver s","b en","do ing","com m","gr ound","to p","f all","is hed","t ak","g hed","al e","sc re","hi gh","as k","h our","r is","s y","ful ly","st ay","u al","en ti","chi ld","nodd ed","qu i","ac ed","a v","al ong","c ess","e red","f re","call ed","c ou","her self","f le","f our","secon d","beg an","r an","at t","po ssi","c as","ate ly","wh ite","g one","ch ar","che st","qu e","ar ing","need ed","fi re","wor d","p at","did nt","sto p","s of","y es","fing ers","c us","ation s","d y","te en","i ther","v al","* *","p ower","i an","m r","re p","dif fe","ter s","hu man","na me","c y","b ad","pl an","dd en","get ting","p ast","so on","ste ad","te mp","bo ok","c u","su dden","c li","s un","sm iled","di re","n y","pro bab","le ast","de ad","m aking","er ing","be st","p ick","re ached","e mp","le an","d en","ph one","ti ve","b us","probab ly","in te","m iss","ey e","d am","l s","f act","g ri","cont in","you n","pu ll","pre t","lat er","cle ar","d an","dre ss","sho ok","in st","g y","o h","ang er","sk in","are nt","m ag","lea ve","tal k","ent ly","fi ve","gr ab","d ed","c at","day s","fin ally","te red","ve red","l ine","comp le","op ened","c la","go d","c ut","si x","b ri","n at","f ight","fe ct","stand ing","re ason","fam ily","po int","m il","ex pe","t u","cour se","id ed","g ing","for ward","feel ing","l in","l ist","ti ght","to w","d ist","sto pped","b or","d ing","th ir","ke pt","he ll","ca u","bo y","r ow","sur pr","m is","ck ing","m as","vi e","che s","ide a","f ill","i ld","s or","al s","ha ving","s li","shi p","fu ll","ne ck","he s","t aking","en ing","happ ened","m id","f ted","end ed","e le","ans w","t w","de red","h ar","fe ll","m us","j a","cer tain","me et","ous ly","should er","belie ve","mor ning","diffe rent","l ay","con f","st er","s w","who le","on s","gl an","e ld","r ound","si gn","re g","f un","h it","at es","bu ild","in ess","d ou","p ic","quick ly","clo sed","st ra","r ing","ve l","m ine","for t","p ur","remem ber","ou d","bro ther","ain ed","me t","co ld","z ed","pro te","sle ep","en s","wo od","ac tion","th ro","f ree","act ually","mo tion","ul t","il ing","re sp","one y","d red","lar ge","bl ed","ch air","su b","quest ion","slow ly","wal k","out side","ul ar","youn g","wat ched","ten tion","de ath","on es","ck s","al one","as ed","n um","ent s","did n","st ared","every one","gu y","per i","or d","th re","ment s","g un","s n","e ither","hun dred","re s","r id","m it","ur ing","think ing","to m","le y","sof t","c ra","tak en","cont ro","le ad","lau gh","bl ue","w his","sudden ly","k id","gu ard","s cho","h all","on to","lo st","sh ort","minut es","t went","twent y","bo t","im ag","c ri","fi gu","fo ot","g ra","ag ed","g ar","ure s","scho ol","si mp","o s","w arm","other s","comple te","bre ak","won der","in ed","f ast","stre et","b ur","any one","ex p","c ase","mat ter","ho pe","m al","in stead","b urn","cl u","f ic","sen se","st ro","k en","sh ow","under stand","cau ght","tal king","so l","ga ze","v ic","k ne","m ach","p ing","possi ble","am er","ge st","v an","ch ang","app ro","s mo","po in","ant s","wait ing","am ed","ce pt","m ing","friend s","v ent","a go","it ion","st air","ab o","k iss","contin u","se ver","shi r","c ity","str ong","it ed","appe ared","g an","br ought","en g","wr ong","of fe","s had","leg s","sa fe","know n","wind ow","say s","i er","is ter","qui et","un g","end ing","sho t","e ight","l ad","z z","pret ty","d ad","o c","la w","b s","r or","d raw","tow n","inte rest","re main","gu e","f ur","c ing","se at","ac es","d a","j ack","ch ange","gi ven","m oney","f er","ci al","co vered","b and","sever al","ex act","enti re","lau ghed","br ing","e ks","le ar","b are","c tor","k it","p al","stra ight","re l","f li","p or","b at","po sed","we l","ak es","c ir","qu ite","glan ced","ok ay","n ine","il ity","real ized","vie w","answ er","c ross","thro at","ch ap","ho t","to ry","ste pped","gl ass","v in","mon th","s us","sit ting","hur t","fe ar","ro ad","foll owed","p ie","jo y","b ing","se ar","ex press","wo men","b all","what ever","at tention","hold ing","hour s","gr in","di e","st ri","b al","l li","g as","se x","br u","c ru","l an","i al","fing er","m ur","w ra","p ap","l ly","me ant","po sit","wat ching","co ver","run ning","f if","c ry","p rom","li ving","look s","b ag","wat ch","de al","d le","li ve","ist s","ri es","mo ving","th ous","thous and","long er","shir t","up on","s ort","s qu","per fect","c up","us ing","c tive","mo m","happ y","we ek","chap ter","be come","it ies","b as","i gh","vo l","i li","s me","lean ed","be au","dr ink","sh ut","abo ve","pu shed","te e","di ed","s al","v or","bre a","gre en","ca p","gen er","ly ing","lo ved","m ir","ha ps","che n","p an","ex pl","tou ch","st ru","pro ble","per haps","contro l","d in","k y","grab bed","spe ak","cou ple","be side","sl id","l ate","si ve","clo ser","v amp","with in","exact ly","gu ess","s am","is ted","f ine","tr ue","stair s","should ers","ss ed","ch ance","iz e","s light","it al","beau ti","ro se","m ad","ex peri","ap art","ju mp","pass ed","med i","off ice","sk y","re ach","o pp","fill ed","li ed","en e","gr and","dr ag","ght er","p ack","t in","dre am","jo b","wor king","ex c","ic ally","he n","k is","un i","continu ed","ant ly","bus iness","ra ther","ar r","il s","ll ing","w in","je ct","dro pped","me mor","gr ou","ar ri","no tic","ll s","z y","dec ided","st ate","re turn","p arent","p ay","p ort","sto ne","ra ised","s ou","imp ort","is on","beauti ful","kit chen","bo x","her s","b i","tr ust","vamp ire","sto ry","dou b","p hi","fo od","s ight","ti es","te ars","go ld","w ide","jo h","col le","ple ase","att ack","build ing","ed ge","sel ves","be y","say ing","beg in","se cre","i ed","you re","ear th","sh rug","pre sent","ple as","tru th","b ly","b right","cr ow","ter ri","im medi","step s","f air","sid es","d uring","or der","complete ly","child ren","cor ner","lea ving","he a","toward s","sor ry","ru b","ob vi","as hed","an n","joh n","th or","k no","g ro","ch a","the s","z ing","h id","see ing","s wi","in a","ke y","sh ar","press ed","spo ke","n ice","f low","b ir","sh it","li fted","sh ing","got ten","express ion","un ch","eas y","am a","ye ah","for ce","near ly","parent s","bo ard","su m","con cer","sil ence","ben e","that s","ak ed","was nt","resp on","ac ing","te st","b ow","r ain","un d","ag es","gi ving","sto mach","re co","c ast","po se","gr y","m akes","g s","w ed","i th","ra id","chang ed","wal king","pl aced","m ist","pr of","than k","h ang","how ever","beca me","pick ed","wr it","ser ious","x ed","dire ction","sp ace","con vers","stu ff","s ister","num ber","wor ked","f la","f as","pic t","wait ed","know ing","gl ed","star ing","notic ed","bene ath","ti ce","s que","str ange","off ic","re turned","ro lled","ut e","c ket","cle an","mid dle","be at","some times","a tor","id ent","m and","bl ing","y ing","gr ow","ig n","th ick","al ex","expe cted","sh out","e at","kill ed","d anger","see m","thought s","figu re","m oun","ce p","- -","l er","av y","cli m","clo thes","spo t","tee th","form ation","wi fe","b ul","e motion","import ant","fr own","s co","al though","r up","j er","emp ty","u ck","b ers","g ent","s ion","p ath","f lu","po li","scre am","se ven","dri ve","p i","dam n","immedi ately","happ en","grou p","en joy","c ting","he avy","fi eld","wi ld","s ad","an na","s ar","de li","k es","bab y","ci ally","wo l","cla im","k ick","won dered","or s","he al","s and","month s","in c","sup posed","e u","to day","des k","shar p","w ish","girl s","ro ck","tr ou","t ar","turn ing","fam ili","c offe","be red","con ne","posit ion","pap er","ce ll","et y","so ld","f it","any way","ton gue","l oud","sp ir","p ul","reco gn","r ad","re le","h y","bare ly","cl ass","sing le","b la","mar k","ca pt","ad ed","dre w","ra ge","n one","gr ay","t t","cle s","p en","of ten","coffe e","as su","si ghed","re ss","con sid","no se","i ent","poin ted","simp ly","des p","com for","convers ation","vis ion","swe et","tell ing","kis sed","ard s","could nt","proble m","sp ent","poli ce","bey ond","light s","lo g","whe ther","es pe","thir ty","un k","l ord","ne y","ear ly","en er","an im","come s","sh all","c ant","surpr ised","u d","co ll","gu ys","sa ge","at ive","d au","br own","w it","i o","espe cially","ex cept","che ek","pu b","cr ack","lu ck","de mon","minut e","we aring","pe t","b ath","il t","stre t","li ked","re lie","wor ry","af raid","d ar","p ho","in formation","f ro","re mind","g le","shrug ged","co ol","fi ed","are a","es ca","know s","j ac","fo ld","ab ly","on y","vi ce","pe red","ter n","exp lo","wor th","pr ac","b a","ver n","sit u","appe ar","t all","g or","br ain","li p","was n","ren ce","spe ct","su c","tr ain","hu ge","door s","head ed","ti m","ri ch","thre at","kne es","un t","ve st","slight ly","secre t","them selves","b ra","t as","de fin","bro ken","li on","ri c","tin y","tr ans","wall s","tou ched","sy ste","your self","if f","pro du","ev ent","st ick","am ong","he at","ha m","p es","ad d","su it","ain t","tre es","some how","ur al","we ap","t ree","pie ce","v ar","m ale","me ans","op er","sp read","to night","r at","bo o","h us","st up","car ry","sound ed","doub t","th in","an ces","foll ow","coun try","r am","we eks","at ure","she s","fin ished","ca red","s la","des er","se a","comp any","to ne","h um","i v","lad y","ve lo","in de","dark ness","pull ing","sup er","for ced","tr ac","fur ther","wra pped","dist ance","me ss","v ir","trou ble","remem bered","we ak","comm and","bed room","de f","ga me","an ti","part y","kid s","c amp","a head","wor se","de mand","m ile","secon ds","it self","is ing","new s","ch ris","see ms","li er","al ive","let s","the red","as ses","be l","some where","de v","d ir","s pl","con sc","is m","quest ions","i ble","su g","men tion","lo cked","surpr ise","g ently","man aged","aw are","w ound","in v","do ctor","c ab","tr ack","re ve","e ve","wo re","coun ter","dress ed","st rug","ro pe","set t","e en","thre w","do g","j or","mag ic","dau ghter","h at","stup id","rep lied","t ro","sil ent","te am","f ut","ex am","clear ly","the d","at temp","fl at","comm un","e li","che ck","sug gest","bro ke","in es","ho od","st ren","crow d","li ved","cal m","sur round","ation al","be low","s wall","s ir","be ll","p it","in clu","mr s","r on","si ck","pri v","cra zy","k a","bat tle","lo ck","er y","stren g","sque e","me tal","expl ain","par tic","po cket","id ence","dire ct","coun t","bri ef","fir m","if ic","co p","we ight","situ ation","ti an","ite ly","ti red","swe at","tak es","in vol","p un","he sit","nine teen","din ner","sur vi","st are","partic ular","u g","el s","tor s","z en","z a","b an","meet ing","st s","an gry","play ing","pr in","like ly","fut ure","be th","n ick","p ound","bor n","cat ch","pub lic","re f","te l","mus ic","ok ed","bot tom","app arent","al ed","ad mit","ph ys","hus band","pro per","famili ar","ju d","get s","sh owed","ag ree","certain ly","des per","r ist","li ves","sl am","k ni","ig no","we red","j aw","hun g","arri ved","ic s","b il","ener gy","h ide","j es","keep ing","is su","ad ded","si gh","gre w","ta il","wa ist","n es","a vo","we t","ear lier","desp ite","s na","us ually","pa used","led ge","ma x","want s","tic ally","st y","ll ow","sear ch","p air","s word","comfor table","whis pered","li es","fort un","sou l","mo on","rel ation","dif fic","us ual","ter min","wor ried","ch in","b ase","s now","ag er","even ing","le vel","nor mal","sound s","al i","mas ter","um bled","cross ed","to ri","expe ct","si e","for med","eas ily","consc ious","fl ash","thir d","bo ys","sa ve","streng th","und ers","sil ver","remain ed","no on","hand ed","resp ond","pleas ure","sme ll","ter ing","ac y","sli pped","me l","dec is","person al","br ow","se ss","could n","j en","bot tle","in ation","sha king","g es","i ence","imag ine","fre sh","th y","mar y","ner v","br id","ans wered","wol f","g ged","sc ar","ke ts","at ures","sto r","re ed","syste m","gl ad","w ise","p in","pict ure","do ll","e mer","hor se","mor row","ju li","all owed","re su","ent ered","sp r","begin ning","pro v","s end","w id","con st","se cur","no te","us ion","t un","spe cial","gr ace","moun tain","col or","ce i","ch uck","c her","re la","ac c","po or","so ci","will ing","on ed","care fully","ri ver","ne t","obvi ously","amer ic","it u","simp le","t wi","tion s","is a","fo cus","s ence","cour t","ab ility","ser v","ear s","play ed","cu ri","c ard","y ed","ho ped","no tice","in ing","foll owing","any more","c ul","t end","jump ed","a po","gl ing","memor y","cent r","te ch","apart ment","for get","dro p","gl ance","sm iling","as ing","an a","in vest","tal ked","c and","pho to","la p","gent le","go es","d ry","po lit","fa vor","ca use","lo se","u red","we ar","hel ped","um b","ar row","che eks","sc ent","go vern","experi ence","n on","g lo","r ac","ur y","fif ty","smo o","real ize","d ra","fight ing","brea thing","m ut","cho ice","cent er","ho sp","vi ol","an ne","ti v","lear ned","stu dy","prof ess","ut y","po st","book s","ne cess","f an","p ill","h one","spe ed","co at","ction s","let ting","ust r","t an","capt ain","car ried","des ire","vis it","as ide","we st","po s","d im","bath room","re cor","de stro","pe ace","b ill","scre en","f il","n s","sto re","ne ither","app o","fu ck","be ar","m ic","ch rist","p ale","j am","re pe","c ro","kni fe","bo at","mp ed","d av","tre m","pre p","grin ned","mis sed","for d","offe red","gener al","in ten","secur ity","list en","ru m","as king","fle sh","stay ed","laugh ing","than ks","f ra","cont act","his tory","old er","frown ed","is es","en gl","h on","dis cus","shad ow","ho l","ja mes","ho le","ent er","po l","nor th","f ac","defin itely","p ark","fall ing","low er","pu sh","de p","l ou","apparent ly","power ful","to od","d ust","nat ural","sett led","bod ies","bur st","ho ping","pro cess","l or","fore head","sh op","unders tood","comp ut","te le","lo c","st ation","tr ay","st al","moment s","consid er","b ility","me re","read ing","i ca","c ried","dav id","li m","lin es","miss ion","qu ar","g ard","ch ur","hand le","for ty","wind ows","hosp ital","sho ck","h ate","tr an","prote ct","pl aces","dro ve","lear n","g ate","mir ror","open ing","after noon","tru ck","sol ute","br ows","se vent","sat is","suc cess","she l","turn s","l en","gre ss","g ree","no ise","la id","com mon","s outh","ra p","need s","c amer","que en","i or","diffic ult","quiet ly","shout ed","des cri","put ting","con side","v ill","event ually","conside red","relie f","was h","b ound","re fle","gr owing","i el","b on","hang ing","ag reed","iz ing","v a","ti e","p ow","od d","au thor","avo id","prom ise","ic es","or gan","to morrow","g ust","who se","ps y","mile s","esca pe","w ing","stu d","sum mer","stu ck","ro ll","mes sage","guard s","lo gy","n ers","gr am","sna pped","relation ship","de velo","hi g","l ab","h ated","tre at","ach ing","f ting","for th","fo c","m ort","qu al","fr ank","pr ison","j ake","be sides","t ent","b ent","start ing","in ted","gro an","l on","app re","r it","mar ried","fif teen","comp an","as tic","fo ol","l eng","mi cha","al ing","eu rope","danger ous","all ow","j our","d ate","ll a","ro b","fin al","a id","th igh","ge or","hi ps","govern ment","sha ke","call ing","would nt","p as","st at","ab solute","end s","as ks","am ing","priv ate","com fort","dis appeared","ad am","cou ch","pre sid","ly n","soft ly","ar gu","sus pe","r ance","is land","ser ved","shi fted","but ton","fore st","rep ort","de termin","smo ke","ri ck","respon se","je ans","f ish","pr ay","at tered","a ur","pre sence","sur face","miss ing","sha re","hone st","belie ved","f at","p ants","ac cept","p ink","bl ind","su ff","bu ilt","br and","s cared","in cre","af f","e cho","f aces","gri p","th us","off er","be long","fore ver","bl an","p is","pa ul","re cei","ar my","am ber","lea ther","con tr","want ing","cur rent","s ong","sup port","ex tra","w ine","find ing","bl in","direct ly","happ ening","x i","ver se","n arr","chur ch","wonder ing","ma jor","we ir","fr an","inst ru","fre y","i ers","ment al","ef fect","si ze","tru ly","oc cas","hor ri","e ase","ti p","bus y","burn ed","head s","scre amed","human s","pe ter","burn ing","d rug","thr ow","hi ll","ex ist","r ide","g ging","de ar","j on","st age","tw isted","reg ard","d or","sp end","ad ing","tas te","comp l","s an","y al","spe aking","d ance","b by","fall en","bar r","co ok","hi p","ct s","un less","i red","so cial","stret ched","ou red","m ac","bir th","ir on","hid den","co ck","micha el","ad es","im possible","nerv ous","po ol","i ans","stru ck","k at","r ough","hard er","de st","gr ass","le ap","g al","or ig","whe el","figu red","ne igh","ye llow","lo cal","y er","s ink","ci p","ad v","w s","lau ghter","cl en","sh ower","pa id","w and","rub bed","g if","feel ings","move ment","hall way","se par","ri age","americ an","c raw","a ther","cab in","vi a","possi bly","re spect","clo ck","gri m","wa ve","pl ain","ro of","obvi ous","st ates","ho tel","shad ows","does n","smoo th","r us","pu shing","clu b","know ledge","spir it","comput er","t ur","leng th","ch ase","or y","de l","sub ject","nat ure","si g","sold iers","decis ion","bro ad","invol ved","tri p","sc ene","claim ed","ward s","wa ved","re cent","f aced","ar a","h arm","tra ve","p ier","a z","b ank","jo in","k er","respon si","lo ose","list ening","foc used","no body","in no","fin ish","contin ue","ent rance","et s","r and","ev il","ef fort","k i","ne l","j im","comm it","would n","expl ained","ag ue","r ay","im age","ort un","opp ortun","pal m","mil lion","weir d","l ack","le ep","mi ke","am oun","0 0","w ake","f ly","ty pe","as leep","clim bed","n ational","br an","inde ed","sho es","jac ket","ce ed","fr ustr","f ought","hun ter","ag ged","swall owed","c il","f ren","sleep ing","cir cle","w ished","jo ined","ga ge","it ch","whis per","pur pose","b ones","s our","er ial","te a","appro ached","con d","eng ine","j ason","frey ja","po p","mil it","lu tion","o li","ris k","ant ed","y or","l as","re action","te xt","interest ed","thr ust","ber t","shi eld","conf used","to t","an ci","ce iling","en se","pp er","orig in","ci ous","most ly","r ise","in ch","m ass","resu lt","cl ut","pie ces","ch all","door way","f ed","in n","tic al","fe ed","k o","no d","hear ing","har ry","concer ned","de te","vampire s","dri ving","en ces","care ful","e than","ris ing","stor m","n arrow","re li","bl u","feel s","any where","n ur","un cle","br it","mus cles","hard ly","un able","does nt","appre ci","blin ked","bl ade","perfect ly","chi ef","inc red","gr own","tra il","f al","g g","bre ast","t wel","fas ter","anim al","eight een","necess ary","bl ow","weap on","let ter","gl asses","ch ain","f arm","ti ed","n ie","memor ies","terri ble","em barr","ma il","sha pe","ok en","gr as","be ast","brid ge","bu y","li mp","lean ing","y ard","s ses","lan gu","f aint","vis ible","la red","n al","y an","si mil","embarr ass","writ ten","ag ing","k in","there s","con su","c am","gi e","rest ed","sto ries","emp lo","sar ah","had nt","r ang","opp os","th om","gh o","f lying","mem bers","luck y","oppos ite","sho ved","who m","real ity","do m","s ne","fle w","lea ves","f ist","spe c","war ri","li ft","squ are","twi ce","ac her","inclu ding","occas ion","char ac","n in","room s","prep ared","presid ent","wood en","gold en","interest ing","low ered","av a","g on","slam med","to ssed","sp ark","oun ced","ru sh","b one","dri ver","pl ate","brother s","che cked","ca used","wo ke","s can","n aked","w is","ye lled","war ning","remind ed","pan ic","l unch","p he","sw ung","f right","rup t","ele ct","u mp","co le","shi ft","re ct","be a","ind ic","do min","sol id","sure ly","ut ter","sus pic","yor k","simil ar","la ke","reach ing","g are","sk ill","less ly","gre y","wor ks","for gotten","mur der","kick ed","be er","inst antly","cry ing","shi ps","tot ally","bo ther","ev idence","fun ny","a x","en a","twel ve","ama zing","z o","fold ed","wr ist","imp ress","ac he","bre aking","de ta","st iff","ru shed","b ite","m ate","inst in","wood s","wor st","e ating","kill ing","boo ts","au di","recogn ized","p red","demand ed","id s","cle ared","cep tion","fe male","r ace","draw n","con centr","brea the","sto n","cre ature","lead ing","use s","gre t","ele v","anci ent","ar ch","ey ed","stu died","what s","go ds","gi ant","s ac","ser vice","e ast","d aw","z er","mo od","mean ing","rom an","dou ble","c um","list ened","de b","dis appo","m art","bru shed","rele ased","vi ous","ex ha","carry ing","entire ly","stead y","hen ry","had n","exha ust","wi lli","mo an","land s","an no","ter ror","r are","m c","squee zed","igno red","oc cur","char ge","w ont","ash ing","est er","sk ir","se m","weap ons","hid ing","phys ical","ord in","be ach","ar ti","colle ge","ac cor","int ro","b ble","z ane","a unt","ga ther","pr ince","ste el","exc ited","ser ve","qui red","ing ing","pr oud","hig her","head ing","jo e","gr ad","hor ror","writ ing","thom as","and a","amoun t","deep er","ar i","id ing","rac hel","v il","th o","trac ted","t at","h an","j an","tri ck","st aff","stre am","sm art","emotion s","sho o","ac hes","ac tiv","se qu","re moved","sup p","engl ish","dream s","me as","dan iel","s lo","i tor","car s","sha red","milit ary","is ting","f ant","con vin","ex tre","ene my","gi ves","ref used","s in","ga thered","bring ing","en ced","neigh bor","c ow","ster n","u c","g ut","eas ier","wor n","proble ms","opportun ity","par king","dis covered","inst ant","doll ars","ro lling","a im","n amed","e con","night s","id ay","ver ing","cl ou","absolute ly","gu est","cur led","ct ure","hea ven","be lt","tight ly","t our","sh u","chall en","ce le","kne e","it ing","lo sing","willi am","ul ous","be s","sup pose","sp ort","every where","serious ly","scream ing","fl ashed","do zen","itu de","en cy","part s","li br","break fast","com b","attemp t","land ed","blo ck","pl ans","ain ing","train ing","hur ried","if ied","st un","concer n","ha w","press ure","en sive","ag ger","te x","pro gram","sh owing","fra me","fren ch","or dered","sp in","lit er","issu e","hea vi","dir t","f light","my ster","p ad","sear ching","chris tian","ci es","sp ring","deep ly","ch an","he y","sen s","and re","ph y","dy ing","af fe","intro du","fortun ately","t it","sc ri","m ill","star s","ac cep","de ck","pu re","mo vie","happ ens","street s","w ings","fa ith","set ting","em ma","other wise","st ir","de part","determin ed","rep or","geor ge","b ought","jer ked","lo ss","li a","si mon","r out","pass ing","draw ing","be lly","d ue","b ree","rest aur","th umb","v ul","ab and","fre ed","mach ine","plan ned","ang le","na mes","wr ite","fo l","arm ed","z i","fe rence","sp un","mas sive","your s","sle pt","acc ident","sc rat","fu cking","tra vel","au to","gr ate","c red","gi g","gl ow","desper ate","repe ated","cre ated","w inter","wed ding","gas ped","d un","blood y","inten se","prom ised","surround ed","li z","wa ves","ple ased","drag on","extre me","cre w","y a","plan et","g ab","sp oken","bea uty","ke ys","invest ig","v y","e ager","iz ation","imag ined","kno cked","ro t","drag ged","s ending","mem ber","y ester","is tic","under standing","dec ide","bl ur","aw k","at ic","coll ap","end er","so phi","bu ried","ious ly","p ile","belie f","call s","te ar","sh ud","dir ty","clo sing","narr owed","offic er","ck er","press ing","co st","tou ching","smile s","wel come","think s","s her","inte lli","pict ures","youn ger","fa iled","p age","favor ite","mat ch","warm th","c ure","peri od","ac cess","se th","vo ices","n u","p y","s is","bo b","ac ting","near by","cover ing","i us","k ate","tight ened","ch at","m are","po t","sk i","mist ake","c ise","man age","be coming","sho cked","k n","hor ses","bl ink","fi x","sh ri","cla ire","re gret","m ul","he ro","p ment","a me","ac ted","reg ular","var ious","eye brows","vill age","g in","ve hi","to es","eli za","temp er","oc cup","anim als","inter rup","elev ator","ob ject","exc ite","yester day","awk ward","six ty","langu age","prote st","polit ical","el le","fe atures","clen ched","diffe rence","t v","sil ently","er ic","ten sion","log ical","safe ty","v ide","o ce","ho st","cou rage","sig ned","gard en","tri es","f aded","fi xed","mention ed","mat erial","lead er","ive ly","pre fer","are n","action s","g ap","deta ils","ig nor","j ane","w ro","t es","rela x","cor rid","sp ill","b ay","swe pt","pass ion","hu g","exam ple","f ab","some body","charac ter","bo m","sho ot","kiss ing","is sa","help ing","lu ci","coun cil","par ti","b ast","wonder ful","suggest ed","au ght","r ust","al d","ad o","spl it","bru sh","ag on","ent y","m ap","al y","excite ment","kno ck","ar ily","li am","dr unk","f fe","and er","cent ury","is nt","res ist","u es","ass ist","rad io","com ment","per cent","f acing","cl oud","n an","v it","mo der","gif t","soci ety","c ult","e qui","pull s","hesit ated","sli p","reason s","p ace","chuck led","drink ing","wi ped","m ous","ti ps","mort al","adv ant","bu ck","ev ents","sa ved","mar ket","in y","spe ll","ru les","se y","ord ers","be ha","un ited","ind iv","particular ly","ack ed","recei ved","ra ise","indiv id","flow ers","em ily","t ended","l am","for mer","pl enty","inno cent","gho st","lo ts","a my","ca ve","appear ance","sc ow","curi ous","lu ke","fa ult","flo od","lo gan","des c","up per","hun gry","char lie","accor ding","su cked","whe never","mere ly","so le","me at","br ace","in tention","stud ents","it ched","as ter","sty le","every body","up set","prac tice","se ll","pro ject","house s","bir d","cast le","he els","je ff","li qu","wro te","fas hi","mar riage","ok ing","uni vers","consid ering","big ger","in it","conne ction","answ ers","p oured","ha ven","b id","l ung","ru le","they re","commun ic","thr owing","lin ed","rela xed","b un","d at","pos sess","strong er","conne cted","mat t","ll en","poin ts","id enti","heal th","cho ose","ti ll","ish ing","nor m","s lu","al le","fla mes","li mit","gare t","pa use","rele ase","d are","sy mp","cap able","hur ry","e ch","cr it","rap id","ac hi","c kets","hon or","n ic","iss ion","ha bit","bit ter","l un","bad ly","lon don","thr own","set tle","ne st","c it","pl astic","pleas ant","stay ing","ange l","fa il","pow ers","fu ri","expe cting","re present","pl ane","rich ard","ac count","br ad","cor rect","enjoy ed","apo lo","b ie","c ash","start s","o me","slid ing","th ri","build ings","aw ake","he ight","rus si","un ted","cus to","leg al","strug gled","a i","l ace","individ ual","di g","ad just","ry an","tr ad","pro ve","tu cked","b ased","pap ers","libr ary","cr is","restaur ant","n ut","qu ire","own ed","thigh s","ang ed","b ond","v ac","sm ir","whe l","er t","se ction","dis gust","nin ety","de re","ob li","tle ss","groan ed","min is","now here","n ate","g lared","back ed","de cl","through out","appro ach","dist ant","ri an","oce an","mar ry","as hes","christ mas","ch amber","cond ition","re ar","ten ti","to re","bo ss","camer a","heavi ly","man s","pri est","satis f","fi er","we ather","mar ked","in ches","bal ance","man i","convin ced","sex y","bla me","light ly","ele ven","man ner","ish ment","e qu","ther n","le e","ne ath","er al","1 9","rep ly","ben ef","num bers","is n","six teen","t aught","bl ank","for ms","m ber","be tray","ep ing","anti cip","over whel","id es","poin ting","sl ide","gri pped","cra ft","por ch","go dd","c ous","sp ar","st ab","assu med","ctive ly","gra ve","me al","you ve","ad dress","l one","mon ster","sme lled","brief ly","w y","ack s","tre ated","our s","stand s","temp le","oun ce","rid ic","sevent een","blan ket","cir cum","small er","bu ll","bl ond","al arm","pre gn","de lic","chi ck","ion al","re quest","b its","th s","swi m","dist ur","swi ft","f urn","lar ger","amer ica","conf usion","lo red","pri ce","wi l","clou ds","s ank","kis ses","wit ness","accep ted","gab ri","chang ing","con temp","under neath","par ked","ser ies","to tal","cre atures","re ck","op s","ur ge","fi red","gu ilt","profess or","as y","survi ve","di es","cre ate","jam ie","by e","pl us","thousand s","th a","re search","dam age","ab rupt","un comfortable","chair s","bit ch","ri pped","eliza beth","or a","de light","jud ge","g ain","s nor","prac tically","or ange","igno re","de fe","advant age","was te","beha vi","ir rit","hand some","f red","int ended","i ently","pro gress","d read","ble w","norm ally","op in","t ask","pain ting","europe an","wit ch","ter ms","sevent y","de mo","ro de","mag n","we al","recor d","ch ol","sc ra","wash ing","gun s","surpr ising","ch arm","sc ience","exc use","al ous","pl ant","rest ing","lo ad","ton y","pl at","was hed","do gs","jour ney","tun nel","imp ro","start led","ac le","bo l","swi r","li ly","tow er","tend er","con stru","recogn ize","eye brow","un ion","ide as","moder n","gu il","b unch","cri min","sto ck","ho ly","it ation","h anna","fell ow","r al","sto nes","re sc","tor n","po tenti","cele br","cur tain","f ate","pat tern","f ru","wid ened","dan cing","in ner","en or","relie ved","un e","p end","there fore","ball s","cri me","tr ade","a ver","con ven","hundred s","it ions","freed om","ex e","ff led","grate ful","plan ning","na ils","haw k","sil k","ul ed","p up","eight y","corrid or","b read","cont ent","beg un","as sa","v ince","uni verse","sign s","destro y","ag ent","des ign","ava il","not es","spe ech","vers ion","y o","re lat","ro cks","horri ble","st umbled","fr ag","wal ks","ro be","i as","pur se","du g","tar get","d uty","to l","in ju","sour ce","ir a","pr ide","int ment","sens ation","sha me","sto pping","fier ce","you ll","swe ar","d ers","comple x","in flu","re lu","cont ain","night mare","re sid","bag s","sk u","photo gra","ed uc","an x","experi enced","g ul","ab l","ter y","ig ned","be ating","** *","relu ct","sex ual","mar ks","proper ty","pound ing","d amp","clo thing","as ha","lung s","clo th","un like","right s","un fortunately","spot ted","ordin ary","p our","cr ou","en ger","fill ing","fli pped","co t","f ists","sp ine","fur y","re mo","sh y","back ward","h int","tell s","ta x","fro zen","suspe cted","sign ific","cho sen","sn ap","si p","m um","our selves","ro yal","mountain s","vi br","main tain","tr af","wh it","sear ched","vic tori","sm ith","comm ission","ind ust","pick ing","state ment","recent ly","ang s","dro pping","ch ose","origin al","vi o","str ate","mo b","ak s","up stairs","ad or","h oney","pre vious","she et","po pul","est abl","fro ze","land ing","cl as","g ence","hold s","th ur","let ters","re ssed","econ om","i um","ble ed","cir cl","pu zz","l ink","pred ic","cent u","possi bility","cl am","exist ence","rub bing","me red","par ted","shoo ting","whi r","firm ly","agree ment","ca using","ex plan","2 0","bree ze","ack now","pre vent","commun ity","car ol","prote ction","cas es","bri lli","no ah","str anger","trem bling","at s","brea thed","dam ned","ne are","sc ram","act ual","fall s","m n","rid ing","gen cy","mus cle","ple ss","in o","se ssed","bast ard","di ck","gl are","daw n","circum st","pe ered","crack ed","stri ke","vide o","re t","kill er","clim b","vo lution","esca ped","e b","sold ier","la ure","v ast","ro g","love ly","cap ital","t ap","in su","far ther","const ant","k not","s wo","c ad","jes us","remain ing","pur ple","al ley","ug ly","ss ing","el bow","jo se","di v","fas c","bl on","r as","g limp","gest ure","r hy","table s","respond ed","je alous","med ic","return ing","lu cas","com pe","med ical","dis tr","ri g","guil ty","s nat","che er","part ner","imag es","demon s","bi o","m m","ter m","so o","pain ful","desper ately","aw ful","frustr ation","d ge","b our","oli via","cl ay","de e","sco tt","re quired","sha kes","ist an","pain ted","d ic","can not","responsi ble","sho re","ga zed","ro le","o x","gor ge","ins isted","z es","l ur","mut tered","ben ch","sp an","pal ace","no ds","j et","lo ving","pre par","bas tian","bow l","for ces","some what","b ust","tu gged","pack ed","interrup ted","c ular","cop y","sh own","jo ke","destro yed","clo set","tr ap","friend ly","r ab","ut tered","wol ves","til ted","occur red","juli an","pis sed","gen e","bl ast","tre ss","hu gged","sy m","she ll","pill ow","li ons","_ _","ro o","b ac","co lored","so b","tr ained","as soci","to wel","har sh","challen ge","ke red","po pped","cor por","m ask","grand mother","pal ms","ic y","gr ant","al co","mat ters","cli ff","i bly","i ves","ast y","w are","who ever","g own","loud ly","tech no","dri fted","tor t","inter view","chang es","fam ous","exhaust ed","apolo gi","bu mp","j ared","terri fied","bul let","de cor","jo sh","sa ke","con ce","le ve","pul se","op ed","ven ge","sh ows","stun ned","for got","satis fied","ten se","warri or","dev il","co oper","bil ly","o il","cre am","k ar","surround ing","boy friend","re be","issu es","ro bert","id i","close ly","al ice","univers ity","o o","li fting","dat a","add ition","en velo","enor mous","r aced","gl owing","ap er","re placed","pay ing","s ke","ho ok","care er","y ards","sup por","conf idence","lo s","foot steps","cut ting","skir t","bla ke","avail able","l ust","fab ric","grow led","tra pped","ne at","enjoy ing","van ished","coll ar","vic es","dis play","cred it","c ass","attack ed","hal ed","lear ning","s well","tele vision","s way","grab bing","char les","n ap","traf fic","but ter","mo ves","cal i","rad i","arr ange","g all","el ed","gen u","att end","pret end","et te","e re","sac ri","na than","discus s","ar ies","bir ds","j ay","ef for","sis ters","se bastian","extreme ly","id er","p ir","centr al","be ck","lead ers","re quire","el ing","fin an","vehi cle","ce re","cit iz","co de","h ay","form ing","cra p","do t","b is","ga mes","nur se","admit ted","see ming","liqu id","secre ts","sur ve","je cted","loc ation","co ast","al o","sn ar","os ity","shad e","r ange","happ iness","the tic","ignor ing","ti re","great er","att ached","ridic ulous","g il","grand father","c art","le ans","b owed","four teen","le ct","sen ses","any body","po ison","fe st","just ice","hun t","ex er","brit ish","ex per","sp i","ri er","u ce","sat ur","tat too","li ber","famili es","hun ting","me th","be ard","the ory","ta pped","b ows",". \"","pro of","down stairs","quar ters","ky lie","chi ll","week end","glan cing","dd y","sku ll","bo lt","yan ked","sp here","tr ace","strug gling","assu red","si m","cre te","con sequ","echo ed","se cure","sun light","ca ge","r ate","ra ising","qu is","doub ted","fun ction","for cing","ro me","th under","genu ine","ex posed","tim ate","liter ally","son s","gar age","ex it","pro ceed","sof a","val ley","depart ment","un expected","din ing","ur a","ci vi","law s","aband oned","prin ci","four th","comp lic","v ague","blon de","fi le","abrupt ly","ex tended","che cking","fore ign","sen sed","able s","prov ided","co re","offic ers","ste pping","se ason","fright ened","par is","cut e","centu ries","p on","eas ed","e tern","ar ched","cas sie","cle aring","imp at","cru el","appe ars","w en","jac ob","back ground","n am","qual ity","um in","ab by","p ant","re tri","remain s","soon er","gabri el","cat ching","con nor","fla me","do cu","om ed","straight ened","um bling","juli a","psy cho","fo g","se ts","su ck","ma id","ca pe","thir teen","light ning","te ach","af ford","gr at","trad ition","cry stal","cur se","dr ank","t ank","opin ion","ch amp","appreci ate","run s","me chan","bu zz","li cked","emer ged","imp act","hel pless","exp ensive","gu ide","te acher","de an","ef fe","pp le","inten s","explan ation","sub st","prov ide","il ities","be am","zz y","half way","le on","s ched","um ble","lo yal","iv y","k im","ve re","con vince","var i","af ri","p her","fre qu","al p","bri ck","hor iz","f ence","j ar","gorge ous","hit ting","potenti al","t ough","g ger","conf ess","guess ed","p unch","prin cess","sol ve","circumst ances","se an","lad ies","keep s","ste al","val ue","gr an","reve aled","we b","un conscious","v as","l ind","pas sage","pu mp","char ged","ste ve","mar ch","ve t","conf ident","che e","elect ri","pl u","t am","co vers","sh r","ci garet","vul ner","sla pped","cigaret te","pain t","mag az","cur sed","c ate","f y","ar gue","stu red","honest ly","enti al","bar s","se ated","po ckets","deser t","k al","sp ending","af fair","dete ctive","sa il","c ti","ge stured","ho lly","con crete","w ink","viol ence","threat ened","w an","st ers","e ved","all owing","mi x","she ets","snor ted","slow ed","r in","gras p","lo aded","cas ual","ri fle","str and","dist in","stud ent","sen sit","ad van","dro ps","ra il","study ing","war ned","ar ian","pregn ant","m ia","pl un","big gest","ta pe","fe ared","wra p","cho col","pop ular","meth od","not ed","se es","argu ment","new sp","mind s","de tail","pp y","in visible","embarrass ed","fair ly","k ay","dri ven","ed die","pat ted","ad mir","cl ue","trust ed","pe l","dan ny","fashi on","e g","ti ck","deli ber","demo cr","off ering","si zed","thro b","nat ur","cor p","r acing","engl and","qu it","z ard","ain e","cl ar","n ia","cous in","con s","sha ped","mu d","you th","mo de","phi lo","du ll","girl friend","b bled","stro ked","ers on","sc en","drug s","r s","strug gle","ve ins","remember ing","sum mon","ink led","cent re","k end","re mark","sw ing","brilli ant","e th","tu red","ne g","appro aching","appro pri","mat ic","emotion al","ad vent","ff ed","sh ine","re fer","i tors","r ings","bas ically","inv ited","bo thered","bel le","ger man","sh ining","s him","gri ef","pl acing","cre ep","belong ed","st an","gre et","drive way","quar ter","pri or","pre cise","ver t","n ation","audi ence","vio let","dist ri","so lution","eld er","th read","uni form","op tion","fru it","ak er","tr on","p ages","mi xed","grou ps","ins ane","sp it","ro land","ro ar","c ards","behavi or","g us","f ake","c is","enter tain","ri ley","delic ate","rhy th","ac tive","ra ven","ner ves","andre w","cau ti","intelli gence","assu me","birth day","pu bl","mul ti","s ab","we stern","ex claimed","profess ional","for give","ann ounced","curi osity","idi ot","rapid ly","p lo","la un","sil ly","stro de","bu d","vi es","sy n","w him","pe e","emp ire","squ ir","r ag","ey el","i k","sho ts","ch anne","separ ate","b oun","cla ws","ham mer","ro d","bas ket","in spe","sto ps","def end","lou der","bell a","bran ches","guest s","drink s","box es","ann ie","over head","collap sed","kind s","ha vent","1 0","o re","mag gie","deser ve","spin ning","ha ired","ther ine","pat ient","spr ay","offic ial","a is","lu cy","sa v","mar cus","cr ash","ye ll","nat ive","com pet","f ying","li kes","ator s","move ments","pre cious","lu x","skill s","vir gin","ser ge","the at","zer o","spec ific","ve ment","g ment","ex change","d umb","j as","init i","mart in","str ing","gi ous","ru shing","suspe ct","ri e","hell o","med ia","go ver","success ful","ath y","rand om","incre asing","track s","pass enger","sc ient","dis cover","en vir","field s","bo ld","sharp ly","al ter","di am","cor ners","descri bed","sn iff","ad vice","bri an","b ang","gather ing","hol iday","j ace","ge red","posit ive","pur su","en thus","explo ded","hun ger","ten ed","deal ing","it ure","f are","tr unk","br ut","deser ved","real izing","dis tracted","com ed","gas p","eat en","mor gan","ass ass","sar a","ing ly","hum or","victori a","natur ally","ca ke","am used","in tri","reve al","chocol ate","appe aring","flow ing","warri ors","coun ted","mo tor","p od","sc attered","en em","produ ced","wi cked","w ren","work ers","def ense","ci a","stru cture","squee ze","br is","col ors","viol ent","sus an","remo te","ab or","swall ow","impress ion","back s","con fir","pro ved","mil k","sa ving","ch ina","jour nal","sli pping","fl ag","ed ges","inc ident","if y","enem ies","envir on","bar n","coun tries","jack son","u ed","at trac","pat ch","ous ed","craw led","grin ning","lo e","fli ck","ab sor","o tic","un known","gl it","bo re","sun day","am use","da ily","shud dered","bom b","ge ar","in cl","ser ving","em brace","ate st","e z","sing ing","bleed ing","equi pment","ali en","pis tol","short s","stuff ed","ho les","j ap","we ve","re aches","heal thy","f led","own er","ho p","po sing","d al","they d","high ly","hand ful","seat s","act s","s its","sp are","mid night","scream s","hope fully","um n","beg ins","wr ists","figu res","ch ant","const antly","john ny","as ted","reve aling","shout ing","anx ious","u ary","arri ve","dis appear","satisf action","conscious ness","gre atest","fil m","as ton","ch ine","ac cent","disappo inted","in fe","o bey","g ates","scan ned","imp ressed","command er","occup ied","put s","thr one","sol ved","kn uck","wound s","st all","re y","ri b","p tion","cir cles","sh attered","un usual","incred ible",", \"","weal th","je re","se cu","fli cked","jo bs","dire ctor","dere k","de stru","o ak","satur day","dr am","kno cking","m ont","laugh s","tre as","ch or","stret ch","p ig","di gging","were nt","suc ceed","arr anged","vil le","de vo","art s","but t","cus tom","ho llow","er ie","finger tips","ed s","dad dy","tal e","mor al","lo ves","in ched","e ll","o my","g ers","ce ive","neare st","use ful","u ri","dis h","br aced","tal ent","open s","stu b","ex cell","grad u","mo del","l amp","no ble","suff ering","fr iday","sw itch","rare ly","chine se","ad a","ti le","shi vered","per man","cal cul","furn iture","thor ough","f angs","ac compl","fe t","as sem","con du","bra ve","kne lt","go al","wi re","n is","flu shed","tri but","air port","cal eb","see k","fal se","flo ating","ar an","tic s","vic tim","jose ph","temp or","sn ake","finan cial","sent ence","crow ded","ke lly","cre pt","mar ble","mat the","j i","cere mon","re move","sh or","est ate","hel en","bi ke","up ward","du ke","offic i","effor ts","ex isted","pound s","de gree","arri val","e c","s ought","ch loe","p ity","ru th","ti ly","survi ved","fact s","mu red","sensit ive","nerv ously","ja il","prote cted","p ac","stre ss","br y","te asing","dri ed","is y","meas ure","responsi bility","ar c","mur mured","clo ak","result s","answ ering","comp li","d rum","se le","tre nt","glan ces","spe cies","furi ous","des igned","drag ging","sc or","pun ched","chick en","mag ical","comp ared","king s","jor dan","inclu ded","hi lls","threat ening","sle eve","co ps","direction s","li an","lot te","exper t","vo lu","photogra ph","ll o","develo ped","author ity","emer gency","tas ted","den y","lo bby","ton s","je an","fre ak","u h","n ud","rel ated","r ant","re sem","qu o","breath s","sto len","techno logy","lou is","mal es","colle ction","sher iff","clim bing","sound ing","popul ation","lo ver","car pet","wound ed","a than","g ang","ent ry","cha os","glimp se","v id","mo ist","d ating","sne ak","sand wi","n asty","con cl","stri p","deli cious","d agger","wat ers","law yer","bo ot","cont ained","l id","gl or","tr istan","clut ched","un certain","econom ic","do me","inde pend","p ene","sign al","cru m","z om","ro l","re act","cl an","s aint","his sed","ri bs","cr own","as es","hanna h","shi fting","j ury","g ur","ev an","mic ro","are as","horiz on","li ar","ke vin","bor der","ic ient","co ach","st ained","close st","cur ve","activ ity","po lic","exe cu","lim bs","ac ade","br on","fe ather","pat ience","flow er","comp ass","sho pping","mis er","ch ased","dan ced","bo red","qu ir","ja x","mo vies","influ ence","up right","ind ian","breast s","anno yed","ang ers","sur ge","pos sessed","car riage","side walk","imag ination","inju red","moan ed","attemp ted","myster y","al ert","jon athan","cl asses","je wel","wa ving","motion ed","b in","bre n","loc ated","re put","limit ed","fool ish","she er","p aw","cr ashed","the less","c ities","vulner able","or gas","at tr","cre ating","opp o","she ep","stro ke","an o","cand le","b ark","su gar","resc ue","dead ly","sal t","wish ing","ou l","chee se","ar ia","su ffe","tra iled","fl ing","c ough","lu c","amuse ment","pan ties","m am","foot ball","nodd ing","suff er","fan cy","de ter","u le","re call","mother s","ti pped","res our","wi g","end less","un it","compan ion","capt ured","alco hol","worth y","emplo ye","instin ct","e leg","st ag","x ic","shi ver","form al","do ck","whi pped","re volution","incre ased","m un","app le","dis belief","become s","st raw","sc i","p ical","rout e","en cour","cross ing","re tt","immedi ate","** **","kick ing","ill a","reli g","to e","i est","col in","r owed","pl ants","val ent","investig ation","russi an","jen ny","affe ction","di a","appropri ate","id ge","sto ol","ri p","prac tic","one l","car ved","bit ing","w n","ad s","vic tor","occasion ally","tight er","wand ered","signific ant","tri al","incred ibly","ro ared","shud der","complic ated","ab ilities","educ ation","happ ily","e ff","ti mid","fasc in","co al","reli gious","sh aring","fi ce","an xi","jer k","v ity","fol k","it es","er up","tort ure","we a","plat form","as sure","he li","anxi ety","fr ance","r ows","blo cks","short ly","mi ld","doll ar","st ack","father s","bu sh","it ted","tw in","anticip ation","emp er","suffe red","mo s","attrac tive","c ca","m ath","ce l","mat es","fortun e","gre gor","draw er","proper ly","th u","ru in","ag ony","cult ure","m ack","king dom","tran sp","wra pping","laure n","neighbor hood","bran ch","sp ite","char lotte","sho ve","cr ad","fol ks","deli vered","heart beat","sou thern","refle ction","g am","jump ing","du cked","comp re","st en","cont ents","ri l","da ve","introdu ced","ro lls","d war","ri ce","serv ants","win ked","ff s","t ac","gre g","ite ms","il a","arm or","rhyth m","moun ted","tru mp","en gage","fif th","re spe","na h","polic y","crou ched","camp a","sou ls","child hood","re ver","min or","cali for","dar ted","pl a","co cked","swift ly","m ason","ak en","appro val","compre hen","just in","repor ted","dis ease","bl owing","ar on","ch oked","disappo intment","tri gger","s care","he ated","and ra","che m","cor n","bru shing","fo o","sha ft","circl ed","ru ined","bu bble","l ately","att itude","a vi","r att","inter national","home s","psy chi","1 1","au gust","g wen","rid ge","supp lies","stand ard","k night","suspic ious","in formed","decis ions","vir t","sad ness","cup ped","ro y","contro lled","sh one","gener ally","eg gs","fli es","u ced","so re","fl ung","grow l","al right","frustr ated","phys ically","bas ic","ri al","ple s","equ ally","washing ton","br ide","citiz ens","fli r","mat tered","r ational","de cent","e qual","am anda","hur ting","ren der","pour ing","where ver","l ted","fle et","ke l","law n","alex ander","win ced","t ren","matthe w","in ting","vic tory","it a","par ties","dra ke","prep are","por tion","vis ited","pi lot","lone ly","st able","el lie","bro ok","scram bled","tw isting","discus sion","co tt","back pack","ne go","lu mp","dire cted","see king","side ways","sophi e","sla ve","ac cur","exp and","st am","do c","de vice","current ly","ad minis","ju lie","clean ing","sw inging","grow th","che ap","inter net","l ane","s che","sett ling","cy cle","mon d","serge ant","prefer red","re ception","flash ing","explo sion","pret ending","ch ances","mer cy","califor nia","serv ant","int ent","e gy","jes se","ti er","st ing","cur ved","develo pment","cl er","b ind","ty ler","mon itor","jes si","high way","eng aged","mat tress","base ment","ain s","make up","pound ed","su cking","americ ans","el bows","intens ity","pe ar","i en","friend ship","tro ops","photo s","re in","heal ing","r agged","w ow","cli cked","excell ent","and y","t ay","pl anted","trans fer","ab sent","shel f","re ass","lab or","ch al","pro phe","sc ale","ste am","ale c","hun ters","overwhel ming","re view","hal t","vol un","nego ti","ine vit","dr own","sh iny","supp ly","fin n","dy lan","th al","ment ed","real m","coun ts","snat ched","th ump","b art","ner ve","separ ated","f ond","dan te","mel ted","sp at","tw ist","con ference","use less","fair y","compan ies","t ack","i i","inter ior","gree ted","sc out","spread ing","leve ls","person ally","ga vin","syste ms","min ister","chi ca","dark ened","dev on","si ble","utter ly","pp ers","i let","if er","bal con","fr on","u k","id a","philo so","stir red","fo x","br ings","commit ted","s words","oper ation","cl in","com bat","cli ck","ro ger","benef it","no ve","col our","du mp","bil ities","envelo pe","jere my","en sure","tech n","stub born","tri ump","u el","cru shed","dec ades","confir med","tu b","w es","report s","you d","th um","cot ton","spir its","sen ior","per mission","flow ed","moon light","tr ash","recor ds","ob je","la ura","clut ching","per su","de lay","aim ed","l oun","ac cus","trem bled","deli ver","coun ting","jim my","min i","bl own","ho pes","j est","out er","doctor s","surprising ly","ill umin","ele c","e mon","less on","mob ile","ad vis","stare s","magaz ine","gi es","m all","w aking","bur y","safe ly","affe cted","lead s","road s","m use","campa ign","vis ions","mess ages","can e","me ter","ment ally","chica go","om ing","leap t","gu es","sort s","stu di","m ers","mu g","ag ents","it er","mur dered","late st","k ins","blo cked","an gled","cri es","refle cted","to ps","cl ung","sho e","swe e","prepar ing","tr aced","sto le","ke ll","s wore","prote ctive","ye lling","pol ite","assist ant","sess ion","being s","terri tory","st ated","1 2","ap h","le x","ser vices","spill ed","ve get","ut en","b end","emper or","on ing","ent ering","col onel","ci vil","mon day","ed ward","per for","pat rick","dd led","ex changed","col on","hi red","sar cas","ag ging","pri ck","ac les","r ul","z ach","elect ric","newsp aper","pri me","shi f","b ass","ren ces","hu h","ul ts","ti ms","back wards","ber ry","lap top","fle e","pin ned","as pe","at tering","knuck les","gig gled","ground s","wild ly","roman tic","de ce","myster ious","so aked","lo cks","effect s","val u","itu tion","stat us","pl ates","sc ary","ra z","mat ched","sco t","cur ls","aver age","ven ue","descri be","ru de","gentle man","rout ine","jessi ca","re place","mar ia","app ing","ke en","man ager","at mo","all ed","z el","conf li","con cept","ul ty","gr unted","re ward","dri pping","ca fe","pi pe","godd ess","stair case","step hen","s ust","scre w","t ab","ac hers","num b","acknow led","ph ones","ho oked","he st","f lic","ex ception","to dd","for k","round ed","he el","indic ated","d ged","y aw","reg is","ring ing","ad op","s ite","tit le","keep er","gr u","cour ty","sy l","desc ended","gr ind","sophi a","pit ch","sub tle","fire s","cas ually","re na","fe ars","inte l","mar ie","un ting","stick ing","triump h","defe at","spar hawk","h ut","board s","trave led","ni k","d ared","pr int","se vere","er a","serv ation","s chol","question ed","slu mped","te aring","ins ist","contr act","it ching","fl or","mo lly","achi eve","mil lions","crimin al","uni que","st ake","di pped","bottle s","shel ter","pe te","vic tims","perfor man","c lau","ident ity","r h","ar is","light ing","blink ing","under ground","an ton","jo ining","str ained","arti cle","wi pe","sc ree","pe st","hat red","ri m","co lt","k ane","mani pul","it ive","hesit ation","swo llen","mel issa","stri king","reluct antly","swe ep","to ler","world s","fun eral","id ently","reg ul","comp ound","gr ade","mar sh","f fin","cle ver","ag gress","cli ent","dr ained","re called","qu inn","ri pp","sp raw","advan ced","beg ging","instru ctions","dress ing","play er","boo th","se ized","gu aran","orgas m","reput ation","produ ce","re ne","sport s","ac qu","sw itched","st ark","al oud","n ar","glo ves","destru ction","s ack","imp er","hal e","find s","clean ed","on a","is ol","strange ly","pan ick","na il","gar ion","sp ider","too ls","assa ult","dun can","ank le","swim ming","stret ching","dec lared","im mortal","relig ion","p ony","heart s","ky le","l ang","sa van","flo ated","ar se","po le","i ga","lo o","be e","ho ll","en cer","ow en","beg ged","mar i","com mer","tre vor","tr ous","scre wed","balcon y","scar let","sm ug","con ver","ad ult","good bye","exam ined","jen n","j uni","ro cked","prote cting","his tori","secret ary","along side","enthus ias","sh ane","cond itions","su its","craw l","gri pping","dre amed","add ic","consequ ences","j ess","t ag","rest rain","j ones","fail ure","h ank","d art","bor ing","regard ed","th ie","un sure","too th","belie ving","us ive","dri ft","distin ct","emplo y","courty ard","smo king","h its","bil lion","gu ided","brut al","ten sed","on line","trave ling","c him","ind ia","mp led","ca vern","bar rel","grab s","ag ers","pene tr","gu it","fre aking","ar chi","re ceive","life time","stiff ened","al ine","tw ins","scow led","fe ver","gr anted","le o","ele ment","ris on","wi zard","pat ri","cook ing","continu es","pre y","need ing","nor thern","lay ing","di vor","f is","te ased","cor d","ga u","mat ically","self ish","ul ously","be aring","bre ed","button s","a ust","b ounced","might y","cr ashing","r ut","ni pple","brand on","sacri fice","p ine","mir anda","re venge","no vel","ni chol","j une","da emon","st ic","mon sters","f id","do z","ob served","ok es","dar ling","ref use","sweat er","coun tered","prison er","fa v","a ut","squ ad","car a","dis ci","hor n","op tions","ad rian","su ic","can s","volun te","ar thur","ting u","the o","pray er","d well","gras ped","bab ies","bul lets","in timate","cup s","impress ive","n ina","qu es","frown ing","tu be","repe at","w agon","moun t","ves sel","concentr ate","so m","atmo sphere","rough ly","flic kered","gree k","we ls","heli cop","to ms","ce lls","p iz","b age","sc ars","b um","ant a","bu b","treat ment","con firm","cut s","produ ction","whis pers","ag ne","so ap","1 8","tim ately","imp ul","vi et","seeming ly","he m","priv acy","ff y","hea ther","p lot","question ing","en counter","al an","g ained","pun ishment","avoid ing","tran sport","c ort","human ity","tan gled","fic tion","me lo","ad ding","no stri","miser able","bl ades","stro king","pret ended","shall ow","j ung","lad der","sl ender","suspic ion","puzz led","colle cted","fran cis","ent al","polit ics","mar ched","id y","present ed","comb ination","inter nal","hel met","num er","g ay","car ing","ste ep","ro s","sor row","al t","whisper ing","i x","ty pical","fli p","e gg","environ ment","min im","ch asing","clu ded","shir ts","ing e","er in","alp ha","sci enti","cr an","occasion al","or ient","clas ped","ab sence","s ang","l isa","reason able","laun ched","cli p","tall er","feed ing","fortun ate","cabin et","pant ing","doz ens","vi le","ar rog","j un","resour ces","bal d","desp air","calm ly","corp se","es ome","le af","z one","as sign","deliber ately","were n","in sur","ion a","v ant","spe ar","regard less","part ners","scienti fic","slam ming","colle ct","floor s","gl owed","continu ing","scrat ched","ast ing","g gy","ac ity","po e","ack ing","avo ided","m ant","the e","dark er","lo op","constru ction","cus hi","drag ons","vel vet","se lling","among st","k ir","temper ature","tw enti","spo ts","stat ue","cr am","determin ation","ange ls","inv itation","e ves","super ior","al ys","en ess","advent ure","con front","bas is","weak ness","grim aced","ac compan","stri pped","godd am","curtain s","develo p","re sent","adv ance","gy m","he ap","ear ned","na vy","car l","pray ed","to ilet","fla red","bur den","t led","in fin","tay lor","so il","adjust ed","real ization","leap ed","con vic","ri ly","jud gment","channe l","sla p","chain s","is o","l um","bo bby","camer as","sha pes","fe li","nat al","i ents","shel ves","sp encer","song s","d ash","shri e","coun ty","chuck le","hum ili","sched ule","organ ization","sli ck","mir acle","oli ver","cris is","after ward","stu dies","too l","ank les","hi re","1 5","3 0","ow e","el li","fant asy","rel ent","fold ing","sn ug","peace ful","diam ond","mu ffled","break s","ru mor","ty pes","ag ues","charm ing","aware ness","performan ce","resist ance","an aly","ie ld","rep air","e lla","muse um","th ou","bu shes","flood ed","sto red","sink ing","glo bal","at ter","ad ren","demand ing","rit ual","gener ation","explo re","out fit","lt s","c arm","da isy","e igh","pack age","win ning","fro st","zz le","lay er","sm ashed","n ad","ri a","k ers","ital ian","grad ually","thank fully","p ent","nes ses","volu me","precise ly","vo te","ging er","fu el","comfort ably","se al","beat en","dust y","as he","sc al","imag in","mat ching","car ter","exer cise","me lan","c ade","cru sh","gu ise","? \"","bu ying","s ally","roo ts","int ently","d ale","neg ative","as sess","max im","u ght","kid na","comfor ting","attack s","nostri ls","dev ast","dra ped","te aching","c s","re comm","ex haled","kat ie","cand y","af fect","comple ted","valu able","tar a","el ena","eleg ant","a top","dream ing","ens ion","flash light","un ks","v ation","ti ger","econ omy","as per","survi val","j ab","war n","wi ping","ble s","rock y","lie uten","dep end","scri pt","g ide","cott age","d ated","electri city","zz led","establ ished","dis co","b ies","mer ing","smir k","st if","kno b","ban ks","light er","al li","e mail","apologi ze","cho ices","eas tern","in timid","p ted","incre ase","am i","etern ity","guit ar","squee zing","ve led","fish ing","indust ry","f bi","wr inkled","convers ations","ex hi","im ate","p us","fe min","gre ed","posit ions","medic ine","ree k","a ire","kend ra","instin ctively","exc iting","gl ory","major ity","nut s","scrat ch","ceremon y","fir ing","of t","school s","consu med","h ou","isa ac","effe ctive","de m","un locked","ul ate","ro ot","cauti ously","a aron","spr ang","accompan ied","b ou","dis hes","re vel","a tory","it ute","rob in","an cy","to ries","fit ting","whe els","experi ment","should nt","do l","w rest","s no","gra vel","asha med","dep ths","bal an","sad ly","soo thing","pro spect","tw itched","need le","neck lace","aw esome","stag gered","mean while","for bid","inte gr","sed u","smir ked","gover nor","leg end","pol ished","lands cape","er i","stick s","l ation","ther ap","stead ily","init ial","squ inted","en na","su ite","fire place","rub ber","sw am","tele phone","bar rier","hel ps","tran sm","flu sh","tu g","ed ged","scient ists","m our","mo ck","tes sa","f us","publ ished","sy d","fav our","piz za","stri ct","ne il","gl aring","worry ing","co in","own ers","a we","attemp ting","ama zed","cl ary","wis dom","gide on","h ound","de t","town s","odd ly","hig hest","se aled","rig id","ra iling","new ly","str angers","ling ering","com mo","emp has","custom ers","neat ly","at tor","at tracted","mo le","slight est","s ket","fi les","may or","wid er","po sal","per form","d all","lat ter","cast ing","chem ical","sme lls","ar rest","nichol as","boat s","surround ings","ane se","embarrass ment","li zz","multi ple","betray ed","ga zing","possess ion","t ate","ad vert","m ire","ma jest","personal ity","f fing","ce ler","ju ice","visit ing","sand y","aid an","m ou","dwar f","go ssi","me ters","ga be","argu ing","cau tion","pro pped","intelli gent","in her","elec tron","l ated","sad dle","do ve","fr amed","test ed","f ade","s ch","ing ed","re covered","pow der","communic ation","c en","test ing","cur l","can cer","w ri","de x","l ting","cand les","mon o","overwhel med","se ed","bar ked","import ance","el ine","discus sed","notic ing","concl usion","capt ure","str ay","ch am","acknow ledge","cat s","an th","pe ering","ra el","se am","bright ly","vi gor","whir led","reg ion","k aren","ph an","symp athy","comp ar","g id","prison ers","sp y","f ading","to ssing","so med","a ve","n ak","blan kets","camp us","assass in","large st","neighbor s","in haled","ms on","pain fully","bar bar","re treat","li ck","sla ves","strate gy","xt ure","cl ust","studi o","docu ment","sen su","swir ling","day light","e h","we ary","crit ical","under wear","swe eping","j ill","sav age","p iss","r ank","bo ston","opp on","pan el","fe e","phi l","blo cking","intel lect","vague ly","en courage","anno y","du ck","it ated","reg ister","n as","mach ines","1 4","si ren","zo e","man sion","fac tory","ais le","ag an","compl ain","pit ched","re ly","test s","wand ering","ste ering","walk er","shout s","we ed","vin cent","bo om","wo ol","ap ers","el abor","qu er","jung le","th ouse","ha unted","perman ent","ro cking","gra vity","dau ght","sniff ed","w reck","we bs","sur render","gar rett","gi a","hold en","pers pe","ar rested","dis aster","ho o","regard ing","m umbled","v able","tradition al","tor ted","fran tic","__ __","fran tically",
[...]
