{"version":"1.0","truncation":null,"padding":null,"added_tokens":[{"id":0,"special":true,"content":"[STOP]","single_word":false,"lstrip":false,"rstrip":false,"normalized":false},{"id":1,"special":true,"content":"[UNK]","single_word":false,"lstrip":false,"rstrip":false,"normalized":false}],"normalizer":null,"pre_tokenizer":{"type":"Whitespace"},"post_processor":null,"decoder":null,"model":{"type":"BPE","dropout":null,"unk_token":"[UNK]","continuing_subword_prefix":"$$$","end_of_word_suffix":null,"fuse_unk":false,"vocab":{"[STOP]":0,"[UNK]":1,"!":2,"\"":3,"#":4,"$":5,"%":6,"&":7,"'":8,"(":9,")":10,"*":11,"+":12,",":13,"-":14,".":15,"/":16,"0":17,"1":18,"2":19,"3":20,"4":21,"5":22,"6":23,"7":24,"8":25,"9":26,":":27,";":28,"=":29,"?":30,"@":31,"[":32,"\\":33,"]":34,"^":35,"_":36,"a":37,"b":38,"c":39,"d":40,"e":41,"f":42,"g":43,"h":44,"i":45,"j":46,"k":47,"l":48,"m":49,"n":50,"o":51,"p":52,"q":53,"r":54,"s":55,"t":56,"u":57,"v":58,"w":59,"x":60,"y":61,"z":62,"{":63,"}":64,"ʼ":65,"—":66,"$$$h":67,"$$$a":68,"$$$r":69,"$$$c":70,"$$$o":71,"$$$k":72,"$$$e":73,"$$$s":74,"$$$n":75,"$$$t":76,"$$$l":77,"$$$d":78,"$$$i":79,"$$$m":80,"$$$p":81,"$$$q":82,"$$$u":83,"$$$y":84,"$$$z":85,"$$$w":86,"$$$j":87,"$$$v":88,"$$$b":89,"$$$f":90,"$$$g":91,"$$$0":92,"$$$4":93,"$$$8":94,"$$$6":95,"$$$x":96,"$$$9":97,"$$$2":98,"$$$1":99,"$$$3":100,"$$$,":101,"$$$5":102,"$$$7":103,"$$$?":104,"$$$]":105,"$$$.":106,"$$$_":107,"$$$*":108,"$$$-":109,"$$$'":110,"$$$!":111,"$$$\"":112,"$$$ʼ":113,"$$$^":114,"$$$=":115,"$$$:":116,"$$$)":117,"$$$;":118,"$$$+":119,"$$$/":120,"$$$[":121,"$$$(":122,"$$$—":123,"$$$}":124,"$$$\\":125,"$$$he":126,"the":127,"$$$in":128,"$$$er":129,"$$$ed":130,"$$$nd":131,"$$$ou":132,"$$$ing":133,"$$$at":134,"to":135,"$$$re":136,"and":137,"th":138,"$$$is":139,"$$$en":140,"$$$as":141,"$$$on":142,"$$$ar":143,"$$$or":144,"$$$an":145,"$$$es":146,"$$$ll":147,"of":148,"he":149,"in":150,"$$$it":151,"$$$om":152,"ha":153,"be":154,"$$$ow":155,"was":156,"$$$ut":157,"her":158,"$$$le":159,"it":160,"$$$ld":161,"$$$ot":162,"$$$ac":163,"on":164,"$$$id":165,"$$$gh":166,"st":167,"$$$et":168,"you":169,"his":170,"that":171,"$$$ic":172,"she":173,"$$$ly":174,"$$$st":175,"$$$im":176,"$$$ve":177,"$$$ay":178,"$$$al":179,"as":180,"wh":181,"$$$se":182,"re":183,"$$$ad":184,"$$$ver":185,"$$$ent":186,"$$$ir":187,"my":188,"$$$ght":189,"$$$ur":190,"$$$oo":191,"for":192,"$$$ith":193,"$$$ould":194,"with":195,"$$$ion":196,"me":197,"had":198,"an":199,"at":200,"li":201,"$$$ke":202,"$$$am":203,"sh":204,"but":205,"fr":206,"$$$all":207,"$$$her":208,"we":209,"se":210,"him":211,"do":212,"$$$ter":213,"$$$ro":214,"$$$ight":215,"$$$ked":216,"$$$pp":217,"$$$ain":218,"$$$ce":219,"not":220,"$$$ch":221,"ne":222,"$$$il":223,"so":224,"$$$ack":225,"''":226,"$$$ill":227,"is":228,"$$$ore":229,"$$$ant":230,"out":231,"$$$el":232,"they":233,"$$$ri":234,"$$$rou":235,"up":236,"$$$ct":237,"whe":238,"kn":239,"$$$out":240,"$$$ust":241,"from":242,"$$$ome":243,"$$$ard":244,"ch":245,"$$$us":246,"sa":247,"have":248,"this":249,"de":250,"$$$un":251,"$$$ra":252,"$$$ere":253,"le":254,"ab":255,"all":256,"$$$hing":257,"al":258,"what":259,"were":260,"$$$king":261,"no":262,"go":263,"$$$ind":264,"int":265,"$$$ge":266,"could":267,"$$$ie":268,"would":269,"su":270,"$$$est":271,"one":272,"$$$ess":273,"did":274,"$$$nt":275,"like":276,"$$$art":277,"con":278,"$$$one":279,"loo":280,"fe":281,"$$$hed":282,"back":283,"there":284,"$$$own":285,"$$$ers":286,"sp":287,"cl":288,"if":289,"$$$ss":290,"ex":291,"$$$ul":292,"$$$op":293,"$$$ab":294,"or":295,"into":296,"wor":297,"$$$and":298,"$$$ast":299,"when":300,"$$$ood":301,"$$$um":302,"$$$ide":303,"ag":304,"ro":305,"$$$ace":306,"$$$ck":307,"$$$ist":308,"$$$ally":309,"them":310,"just":311,"$$$ep":312,"bl":313,"tr":314,"$$$ation":315,"$$$ol":316,"about":317,"$$$ate":318,"hand":319,"$$$au":320,"over":321,"$$$ven":322,"$$$ong":323,"then":324,"see":325,"been":326,"$$$ake":327,"$$$way":328,"$$$ig":329,"$$$ap":330,"com":331,"te":332,"pl":333,"mo":334,"by":335,"tim":336,"$$$if":337,"any":338,"know":339,"$$$lf":340,"ey":341,"$$$ous":342,"some":343,"are":344,"sm":345,"said":346,"down":347,"ever":348,"$$$ame":349,"man":350,"who":351,"ar":352,"lo":353,"want":354,"bo":355,"$$$urn":356,"get":357,"$$$ive":358,"$$$are":359,"$$$ag":360,"too":361,"$$$ort":362,"again":363,"fl":364,"br":365,"$$$round":366,"co":367,"off":368,"your":369,"more":370,"their":371,"tw":372,"$$$os":373,"time":374,"en":375,"$$$ect":376,"thou":377,"$$$ther":378,"$$$ice":379,"now":380,"un":381,"$$$ine":382,"$$$our":383,"us":384,"eyes":385,"can":386,"sc":387,"qu":388,"$$$ull":389,"how":390,"sl":391,"pro":392,"$$$ick":393,"head":394,"$$$ound":395,"$$$ak":396,"$$$ink":397,"im":398,"$$$ure":399,"$$$ved":400,"$$$nder":401,"$$$ry":402,"$$$pped":403,"even":404,"af":405,"$$$other":406,"$$$itt":407,"$$$self":408,"way":409,"pre":410,"po":411,"$$$th":412,"other":413,"$$$ile":414,"than":415,"$$$ire":416,"$$$ft":417,"$$$fore":418,"$$$ass":419,"every":420,"$$$reat":421,"$$$led":422,"before":423,"bec":424,"gr":425,"$$$ear":426,"around":427,"$$$ity":428,"$$$ade":429,"$$$dd":430,"$$$ving":431,"$$$ies":432,"$$$ip":433,"$$$rough":434,"will":435,"through":436,"$$$ment":437,"only":438,"pe":439,"pr":440,"$$$ue":441,"$$$act":442,"som":443,"$$$ite":444,"turn":445,"$$$ose":446,"gl":447,"somet":448,"$$$pt":449,"thing":450,"$$$ward":451,"looked":452,"$$$ich":453,"am":454,"ac":455,"exp":456,"$$$iz":457,"after":458,"right":459,"$$$ff":460,"going":461,"sw":462,"thought":463,"$$$ree":464,"$$$ause":465,"$$$able":466,"away":467,"still":468,"$$$ang":469,"two":470,"should":471,"face":472,"$$$ble":473,"$$$ach":474,"door":475,"$$$iss":476,"think":477,"kne":478,"mu":479,"need":480,"long":481,"$$$dy":482,"look":483,"wat":484,"$$$ated":485,"$$$ance":486,"$$$ont":487,"fo":488,"$$$wn":489,"something":490,"gu":491,"here":492,"$$$ark":493,"let":494,"say":495,"$$$ered":496,"dis":497,"car":498,"bet":499,"$$$te":500,"$$$age":501,"$$$med":502,"$$$ened":503,"our":504,"fir":505,"op":506,"$$$thing":507,"made":508,"never":509,"cr":510,"where":511,"$$$fe":512,"$$$ious":513,"$$$ting":514,"che":515,"feel":516,"$$$ence":517,"day":518,"because":519,"$$$ell":520,"$$$ched":521,"wa":522,"$$$ath":523,"under":524,"arm":525,"got":526,"its":527,"asked":528,"$$$ather":529,"much":530,"$$$co":531,"$$$ery":532,"rem":533,"good":534,"$$$ittle":535,"room":536,"$$$ans":537,"$$$ning":538,"which":539,"em":540,"comp":541,"little":542,"peop":543,"$$$ress":544,"$$$ted":545,"$$$ough":546,"cont":547,"well":548,"people":549,"ho":550,"$$$ave":551,"$$$aking":552,"knew":553,"$$$ves":554,"first":555,"$$$ber":556,"$$$ty":557,"str":558,"$$$gg":559,"make":560,"$$$elt":561,"ke":562,"per":563,"app":564,"$$$air":565,"$$$ud":566,"mom":567,"$$$ady":568,"jo":569,"$$$ried":570,"$$$em":571,"$$$qu":572,"wal":573,"$$$side":574,"res":575,"des":576,"$$$ks":577,"part":578,"may":579,"$$$ild":580,"felt":581,"$$$ase":582,"start":583,"take":584,"took":585,"has":586,"call":587,"$$$een":588,"$$$ions":589,"$$$ying":590,"hands":591,"come":592,"happ":593,"ve":594,"$$$ied":595,"$$$ia":596,"turned":597,"tell":598,"cou":599,"$$$ared":600,"$$$oth":601,"ad":602,"$$$ling":603,"pull":604,"sk":605,"$$$ps":606,"against":607,"wanted":608,"mar":609,"$$$ily":610,"$$$ens":611,"new":612,"$$$uck":613,"year":614,"hel":615,"$$$be":616,"night":617,"why":618,"very":619,"sur":620,"..":621,"el":622,"$$$ced":623,"real":624,"tal":625,"$$$ish":626,"...":627,"vo":628,"life":629,"$$$les":630,"came":631,"beh":632,"another":633,"$$$ise":634,"$$$ross":635,"left":636,"$$$av":637,"bel":638,"really":639,"$$$owed":640,"$$$ds":641,"hard":642,"spe":643,"own":644,"being":645,"side":646,"ll":647,"put":648,"while":649,"$$$ful":650,"fin":651,"$$$hes":652,"wom":653,"$$$ci":654,"body":655,"$$$bb":656,"$$$ook":657,"sure":658,"last":659,"ph":660,"few":661,"dr":662,"war":663,"moment":664,"$$$ned":665,"$$$az":666,"imp":667,"act":668,"$$$xt":669,"gra":670,"light":671,"$$$igh":672,"$$$get":673,"went":674,"old":675,"unt":676,"might":677,"most":678,"$$$ouse":679,"$$$ail":680,"find":681,"those":682,"behind":683,"$$$ars":684,"help":685,"mat":686,"rep":687,"bu":688,"toward":689,"$$$iff":690,"ste":691,"$$$orm":692,"wr":693,"$$$ord":694,"sn":695,"$$$per":696,"$$$ness":697,"beg":698,"end":699,"things":700,"saw":701,"cle":702,"enough":703,"id":704,"dark":705,"set":706,"$$$int":707,"though":708,"voice":709,"wo":710,"$$$mo":711,"keep":712,"$$$ian":713,"nothing":714,"wait":715,"hair":716,"$$$ng":717,"$$$ory":718,"breat":719,"$$$ons":720,"until":721,"$$$amp":722,"$$$ary":723,"lau":724,"mind":725,"anything":726,"ca":727,"$$$outh":728,"bed":729,"clos":730,"open":731,"$$$ways":732,"hu":733,"$$$red":734,"att":735,"stre":736,"$$$ower":737,"once":738,"$$$aring":739,"$$$ching":740,"inter":741,"rel":742,"told":743,"found":744,"both":745,"$$$ool":746,"inst":747,"$$$ys":748,"fing":749,"$$$ince":750,"dec":751,"sound":752,"$$$ner":753,"$$$ating":754,"$$$ru":755,"cur":756,"min":757,"house":758,"place":759,"$$$so":760,"work":761,"next":762,"looking":763,"$$$iv":764,"$$$ah":765,"sat":766,"does":767,"$$$aw":768,"these":769,"$$$ne":770,"sil":771,"$$$ix":772,"three":773,"front":774,"$$$less":775,"gir":776,"same":777,"always":778,"ser":779,"$$$iend":780,"$$$ually":781,"without":782,"$$$cked":783,"care":784,"himself":785,"gre":786,"run":787,"friend":788,"$$$ween":789,"small":790,"between":791,"heart":792,"cor":793,"$$$row":794,"stand":795,"inside":796,"hold":797,"years":798,"rest":799,"$$$ors":800,"each":801,"$$$ert":802,"world":803,"$$$ical":804,"black":805,"far":806,"mouth":807,"gi":808,"ret":809,"$$$ict":810,"wind":811,"ass":812,"seemed":813,"bre":814,"$$$cond":815,"flo":816,"love":817,"pass":818,"sho":819,"$$$ung":820,"home":821,"$$$ream":822,"maybe":823,"$$$ange":824,"$$$arly":825,"girl":826,"dra":827,"men":828,"smil":829,"across":830,"second":831,"$$$ier":832,"woman":833,"$$$dded":834,"fam":835,"$$$ings":836,"$$$ible":837,"ob":838,"deep":839,"everything":840,"inc":841,"$$$ised":842,"many":843,"kill":844,"comm":845,"air":846,"$$$most":847,"blood":848,"arms":849,"pulled":850,"$$$ump":851,"$$$ever":852,"$$$ank":853,"kind":854,"$$$ized":855,"ev":856,"also":857,"hop":858,"hum":859,"$$$ably":860,"diff":861,"$$$sh":862,"pain":863,"trying":864,"cons":865,"almost":866,"wall":867,"$$$ached":868,"bit":869,"dri":870,"foll":871,"must":872,"since":873,"heard":874,"father":875,"cour":876,"pers":877,"$$$aught":878,"mon":879,"$$$ub":880,"$$$used":881,"sto":882,"ang":883,"stood":884,"$$$ult":885,"big":886,"gave":887,"better":888,"mother":889,"mor":890,"$$$pping":891,"started":892,"acc":893,"tra":894,"give":895,"$$$ign":896,"$$$ready":897,"$$$iver":898,"already":899,"myself":900,"quick":901,"dro":902,"$$$ense":903,"ind":904,"$$$gether":905,"great":906,"met":907,"smile":908,"belie":909,"ple":910,"$$$ple":911,"yet":912,"$$$ph":913,"$$$anc":914,"stu":915,"don":916,"$$$ott":917,"feet":918,"$$$ater":919,"$$$ren":920,"$$$tered":921,"$$$ash":922,"ent":923,"$$$ib":924,"tried":925,"$$$ial":926,"$$$ows":927,"kiss":928,"done":929,"$$$umb":930,"mean":931,"sle":932,"someone":933,"$$$rew":934,"sim":935,"pa":936,"together":937,"bar":938,"supp":939,"breath":940,"close":941,"$$$ained":942,"$$$sw":943,"conf":944,"lot":945,"held":946,"leg":947,"seen":948,"walked":949,"words":950,"inv":951,"$$$owing":952,"remem":953,"$$$ition":954,"ra":955,"else":956,"dist":957,"water":958,"ed":959,"red":960,"$$$ushed":961,"$$$vel":962,"ter":963,"$$$ently":964,"$$$der":965,"yes":966,"play":967,"such":968,"$$$ction":969,"quest":970,"$$$ully":971,"char":972,"wonder":973,"$$$ual":974,"$$$irt":975,"lips":976,"dont":977,"$$$cept":978,"answ":979,"minut":980,"tou":981,"$$$ention":982,"ma":983,"slow":984,"hur":985,"$$$ason":986,"$$$ected":987,"tre":988,"$$$ane":989,"$$$pr":990,"stop":991,"$$$ished":992,"move":993,"underst":994,"half":995,"$$$akes":996,"$$$ither":997,"floor":998,"$$$ms":999,"$$$og":1000,"doing":1001,"$$$ene":1002,"high":1003,"hour":1004,"$$$gn":1005,"$$$ined":1006,"step":1007,"nodded":1008,"$$$bo":1009,"stay":1010,"$$$icked":1011,"miss":1012,"table":1013,"$$$aced":1014,"along":1015,"person":1016,"eas":1017,"$$$ond":1018,"inf":1019,"thin":1020,"herself":1021,"past":1022,"began":1023,"four":1024,"expl":1025,"pol":1026,"child":1027,"ide":1028,"bus":1029,"$$$ately":1030,"col":1031,"$$$here":1032,"white":1033,"$$$iet":1034,"aw":1035,"fore":1036,"needed":1037,"$$$ept":1038,"gone":1039,"poss":1040,"didnt":1041,"rec":1042,"fingers":1043,"$$$ations":1044,"prob":1045,"pat":1046,"$$$ek":1047,"bro":1048,"fall":1049,"differ":1050,"$$$uc":1051,"fre":1052,"mr":1053,"chest":1054,"fact":1055,"point":1056,"$$$dden":1057,"called":1058,"$$$pe":1059,"$$$enty":1060,"$$$gged":1061,"resp":1062,"soon":1063,"$$$cc":1064,"bad":1065,"pres":1066,"$$$ged":1067,"$$$ured":1068,"hear":1069,"$$$ering":1070,"$$$ents":1071,"sudden":1072,"es":1073,"lar":1074,"reg":1075,"smiled":1076,"$$$ny":1077,"power":1078,"return":1079,"best":1080,"dire":1081,"fire":1082,"least":1083,"getting":1084,"$$$ters":1085,"used":1086,"moved":1087,"name":1088,"reached":1089,"probably":1090,"cap":1091,"stra":1092,"ref":1093,"$$$rie":1094,"$$$ush":1095,"eye":1096,"making":1097,"young":1098,"$$$ipped":1099,"$$$ount":1100,"$$$idd":1101,"contin":1102,"press":1103,"hor":1104,"later":1105,"shook":1106,"sec":1107,"dead":1108,"$$$ins":1109,"$$$ided":1110,"coming":1111,"read":1112,"$$$to":1113,"leave":1114,"ear":1115,"talk":1116,"ran":1117,"five":1118,"cra":1119,"ground":1120,"finally":1121,"skin":1122,"par":1123,"oh":1124,"swe":1125,"ele":1126,"comple":1127,"cover":1128,"conc":1129,"opened":1130,"sy":1131,"vis":1132,"lean":1133,"$$$itting":1134,"god":1135,"je":1136,"$$$aken":1137,"gaz":1138,"coll":1139,"mag":1140,"dam":1141,"sit":1142,"cat":1143,"$$$ically":1144,"$$$bbed":1145,"$$$ret":1146,"family":1147,"list":1148,"six":1149,"$$$day":1150,"days":1151,"top":1152,"use":1153,"$$$iness":1154,"feeling":1155,"$$$pl":1156,"fight":1157,"mem":1158,"stopped":1159,"plan":1160,"ins":1161,"$$$ets":1162,"det":1163,"$$$arent":1164,"forward":1165,"tight":1166,"dem":1167,"kept":1168,"hell":1169,"$$$ening":1170,"del":1171,"$$$aps":1172,"course":1173,"$$$man":1174,"har":1175,"prot":1176,"$$$hen":1177,"surpr":1178,"$$$ates":1179,"perf":1180,"idea":1181,"ap":1182,"$$$ize":1183,"$$$uth":1184,"full":1185,"soft":1186,"able":1187,"$$$anced":1188,"sch":1189,"gen":1190,"$$$als":1191,"$$$fully":1192,"happened":1193,"count":1194,"phone":1195,"hot":1196,"understand":1197,"$$$iously":1198,"tri":1199,"jack":1200,"having":1201,"thir":1202,"neck":1203,"cut":1204,"$$$ertain":1205,"bes":1206,"shoulder":1207,"land":1208,"fell":1209,"roll":1210,"believe":1211,"$$$na":1212,"morning":1213,"$$$oke":1214,"cent":1215,"$$$ited":1216,"$$$ures":1217,"ru":1218,"taking":1219,"sun":1220,"$$$oc":1221,"mus":1222,"boy":1223,"$$$room":1224,"meet":1225,"appear":1226,"$$$ock":1227,"pur":1228,"whole":1229,"quickly":1230,"ask":1231,"$$$head":1232,"remember":1233,"brother":1234,"fill":1235,"sleep":1236,"exc":1237,"lea":1238,"$$$ued":1239,"$$$ased":1240,"different":1241,"times":1242,"$$$aut":1243,"$$$uring":1244,"$$$oy":1245,"actually":1246,"$$$io":1247,"build":1248,"$$$enc":1249,"$$$fort":1250,"$$$ten":1251,"closed":1252,"sub":1253,"near":1254,"$$$oney":1255,"dou":1256,"slowly":1257,"fig":1258,"outside":1259,"$$$ead":1260,"watched":1261,"death":1262,"dress":1263,"free":1264,"$$$airs":1265,"short":1266,"$$$ger":1267,"hit":1268,"question":1269,"cold":1270,"ill":1271,"bur":1272,"didn":1273,"less":1274,"try":1275,"sever":1276,"stared":1277,"everyone":1278,"human":1279,"glass":1280,"guy":1281,"$$$app":1282,"$$$ton":1283,"hund":1284,"lift":1285,"either":1286,"hundred":1287,"cal":1288,"def":1289,"alone":1290,"$$$att":1291,"ok":1292,"hall":1293,"$$$ric":1294,"fur":1295,"thinking":1296,"$$$ips":1297,"**":1298,"reason":1299,"laugh":1300,"suddenly":1301,"blue":1302,"$$$where":1303,"certain":1304,"minutes":1305,"low":1306,"taken":1307,"$$$ife":1308,"lost":1309,"twenty":1310,"$$$up":1311,"thro":1312,"$$$land":1313,"$$$vers":1314,"unc":1315,"lay":1316,"$$$que":1317,"lou":1318,"standing":1319,"large":1320,"foot":1321,"others":1322,"imag":1323,"$$$ides":1324,"onto":1325,"$$$ug":1326,"word":1327,"anyone":1328,"lead":1329,"$$$itc":1330,"form":1331,"$$$ards":1332,"$$$ax":1333,"eight":1334,"school":1335,"ty":1336,"complete":1337,"sign":1338,"contro":1339,"pret":1340,"$$$ister":1341,"instead":1342,"matter":1343,"$$$osed":1344,"beaut":1345,"$$$ield":1346,"$$$rought":1347,"show":1348,"$$$ired":1349,"mine":1350,"caught":1351,"$$$ove":1352,"talking":1353,"eng":1354,"$$$ghed":1355,"gaze":1356,"$$$ames":1357,"$$$ject":1358,"strong":1359,"eff":1360,"king":1361,"$$$ines":1362,"quiet":1363,"$$$inted":1364,"ten":1365,"ready":1366,"$$$ants":1367,"$$$eth":1368,"sent":1369,"shot":1370,"$$$ped":1371,"break":1372,"warm":1373,"brought":1374,"$$$ts":1375,"kid":1376,"walk":1377,"$$$its":1378,"$$$ken":1379,"wrong":1380,"$$$cus":1381,"$$$mm":1382,"gun":1383,"$$$ored":1384,"hope":1385,"window":1386,"sense":1387,"says":1388,"legs":1389,"waiting":1390,"$$$ee":1391,"chr":1392,"$$$ike":1393,"friends":1394,"$$$cess":1395,"prom":1396,"$$$iding":1397,"pretty":1398,"burn":1399,"$$$nded":1400,"$$$ility":1401,"$$$sel":1402,"chap":1403,"exact":1404,"money":1405,"$$$ale":1406,"ago":1407,"pri":1408,"nat":1409,"$$$aces":1410,"$$$cial":1411,"several":1412,"$$$br":1413,"entire":1414,"cross":1415,"hes":1416,"laughed":1417,"$$$nding":1418,"scream":1419,"$$$acked":1420,"$$$ression":1421,"whis":1422,"dad":1423,"lear":1424,"interest":1425,"line":1426,"straight":1427,"bare":1428,"wood":1429,"$$$lic":1430,"la":1431,"meant":1432,"appro":1433,"bring":1434,"ye":1435,"sing":1436,"$$$eks":1437,"glanced":1438,"$$$iew":1439,"okay":1440,"quite":1441,"fun":1442,"bott":1443,"$$$ape":1444,"mil":1445,"sor":1446,"realized":1447,"answer":1448,"shirt":1449,"$$$aster":1450,"perfect":1451,"throat":1452,"$$$ience":1453,"$$$ident":1454,"$$$read":1455,"$$$els":1456,"mess":1457,"month":1458,"consid":1459,"hurt":1460,"followed":1461,"$$$irc":1462,"$$$orn":1463,"thr":1464,"stepped":1465,"sitting":1466,"chair":1467,"$$$otion":1468,"sort":1469,"job":1470,"ir":1471,"$$$ison":1472,"$$$anged":1473,"given":1474,"whatever":1475,"win":1476,"fear":1477,"hours":1478,"$$$ract":1479,"bra":1480,"$$$ists":1481,"grin":1482,"$$$ities":1483,"add":1484,"dream":1485,"disapp":1486,"case":1487,"holding":1488,"women":1489,"$$$anger":1490,"$$$ming":1491,"attention":1492,"watching":1493,"creat":1494,"$$$ments":1495,"fif":1496,"running":1497,"seat":1498,"city":1499,"looks":1500,"adm":1501,"bene":1502,"sus":1503,"$$$ular":1504,"control":1505,"thous":1506,"thousand":1507,"heav":1508,"$$$arth":1509,"reco":1510,"longer":1511,"$$$iced":1512,"pap":1513,"living":1514,"$$$ains":1515,"tem":1516,"watch":1517,"sex":1518,"squ":1519,"circ":1520,"$$$body":1521,"cry":1522,"ann":1523,"$$$bed":1524,"chapter":1525,"known":1526,"upon":1527,"$$$ze":1528,"$$$ope":1529,"deal":1530,"clear":1531,"$$$gan":1532,"$$$aged":1533,"cre":1534,"hun":1535,"shut":1536,"clot":1537,"town":1538,"pushed":1539,"above":1540,"av":1541,"road":1542,"leaned":1543,"$$$ror":1544,"ext":1545,"direct":1546,"sens":1547,"pal":1548,"trans":1549,"$$$de":1550,"bag":1551,"dev":1552,"pie":1553,"$$$zy":1554,"repl":1555,"yell":1556,"$$$ina":1557,"$$$olog":1558,"$$$haps":1559,"business":1560,"proble":1561,"mur":1562,"guess":1563,"book":1564,"perhaps":1565,"grabbed":1566,"ale":1567,"beside":1568,"$$$aining":1569,"$$$iful":1570,"touch":1571,"vamp":1572,"closer":1573,"$$$by":1574,"street":1575,"exactly":1576,"within":1577,"$$$ots":1578,"bab":1579,"green":1580,"shoulders":1581,"change":1582,"rock":1583,"shad":1584,"apart":1585,"slight":1586,"true":1587,"$$$ones":1588,"fast":1589,"gener":1590,"hung":1591,"chance":1592,"wra":1593,"speak":1594,"happy":1595,"$$$imes":1596,"$$$ising":1597,"office":1598,"opp":1599,"live":1600,"mark":1601,"tom":1602,"exper":1603,"pos":1604,"$$$ime":1605,"rose":1606,"adv":1607,"moving":1608,"grand":1609,"passed":1610,"$$$erg":1611,"$$$isted":1612,"$$$ief":1613,"shif":1614,"couple":1615,"mad":1616,"sky":1617,"$$$antly":1618,"continued":1619,"$$$inet":1620,"rather":1621,"$$$ugg":1622,"working":1623,"stud":1624,"doub":1625,"dropped":1626,"tor":1627,"dep":1628,"occ":1629,"kitc":1630,"arri":1631,"decided":1632,"kitchen":1633,"import":1634,"grou":1635,"stom":1636,"shru":1637,"$$$ient":1638,"beautiful":1639,"$$$ashed":1640,"filled":1641,"$$$iny":1642,"$$$tern":1643,"protect":1644,"gri":1645,"pay":1646,"vampire":1647,"$$$ute":1648,"din":1649,"$$$ony":1650,"sig":1651,"esc":1652,"tears":1653,"story":1654,"become":1655,"$$$ik":1656,"$$$ho":1657,"$$$uct":1658,"joh":1659,"num":1660,"law":1661,"coun":1662,"food":1663,"jump":1664,"gold":1665,"pet":1666,"smell":1667,"parent":1668,"sam":1669,"loved":1670,"please":1671,"$$$ster":1672,"sou":1673,"begin":1674,"saying":1675,"$$$ative":1676,"$$$teen":1677,"safe":1678,"$$$arr":1679,"$$$medi":1680,"$$$apped":1681,"med":1682,"ign":1683,"raised":1684,"$$$selves":1685,"youre":1686,"$$$erv":1687,"bright":1688,"$$$son":1689,"cho":1690,"fine":1691,"conn":1692,"$$$oun":1693,"building":1694,"truth":1695,"abs":1696,"atte":1697,"immedi":1698,"earth":1699,"$$$ches":1700,"ce":1701,"corner":1702,"$$$night":1703,"during":1704,"sight":1705,"sol":1706,"$$$ply":1707,"finger":1708,"completely":1709,"art":1710,"leaving":1711,"son":1712,"wide":1713,"state":1714,"towards":1715,"pict":1716,"$$$aint":1717,"trust":1718,"sorry":1719,"class":1720,"obv":1721,"shar":1722,"$$$any":1723,"christ":1724,"hon":1725,"john":1726,"crow":1727,"empt":1728,"$$$ices":1729,"secret":1730,"possible":1731,"$$$ces":1732,"mir":1733,"$$$light":1734,"edge":1735,"capt":1736,"children":1737,"spoke":1738,"round":1739,"$$$ator":1740,"expression":1741,"$$$unch":1742,"order":1743,"loc":1744,"lifted":1745,"box":1746,"yeah":1747,"nearly":1748,"$$$lly":1749,"seeing":1750,"silence":1751,"dest":1752,"aff":1753,"$$$iddle":1754,"wasnt":1755,"$$$amed":1756,"$$$ues":1757,"$$$ories":1758,"gas":1759,"$$$acing":1760,"$$$ging":1761,"thats":1762,"$$$ilt":1763,"$$$ific":1764,"sal":1765,"week":1766,"$$$ma":1767,"stomach":1768,"$$$bs":1769,"led":1770,"nice":1771,"convers":1772,"stuff":1773,"trou":1774,"$$$ude":1775,"makes":1776,"norm":1777,"clim":1778,"da":1779,"$$$ital":1780,"however":1781,"became":1782,"$$$aked":1783,"late":1784,"thank":1785,"walking":1786,"ninet":1787,"lu":1788,"$$$ann":1789,"picked":1790,"$$$ics":1791,"$$$ler":1792,"draw":1793,"except":1794,"cla":1795,"coff":1796,"sister":1797,"thick":1798,"prof":1799,"sear":1800,"number":1801,"staring":1802,"bill":1803,"mill":1804,"beneath":1805,"guard":1806,"$$$ley":1807,"parents":1808,"fle":1809,"worked":1810,"returned":1811,"hang":1812,"$$$vent":1813,"middle":1814,"$$$rupt":1815,"sometimes":1816,"knowing":1817,"$$$ili":1818,"pleas":1819,"tong":1820,"sque":1821,"space":1822,"$$$lo":1823,"$$$ern":1824,"$$$ushing":1825,"sweet":1826,"clean":1827,"alex":1828,"bir":1829,"shout":1830,"spot":1831,"stri":1832,"danger":1833,"killed":1834,"thoughts":1835,"news":1836,"drink":1837,"strange":1838,"cam":1839,"ball":1840,"dan":1841,"seem":1842,"lit":1843,"teeth":1844,"figure":1845,"$$$uff":1846,"mer":1847,"enj":1848,"noticed":1849,"$$$me":1850,"$$$zz":1851,"gar":1852,"inform":1853,"$$$though":1854,"appeared":1855,"lim":1856,"forg":1857,"stone":1858,"clothes":1859,"frown":1860,"eat":1861,"although":1862,"mist":1863,"waited":1864,"$$$inc":1865,"sett":1866,"ben":1867,"$$$rief":1868,"$$$ances":1869,"$$$iting":1870,"$$$aled":1871,"grow":1872,"pock":1873,"$$$hel":1874,"expect":1875,"jer":1876,"giving":1877,"const":1878,"$$$ork":1879,"important":1880,"wife":1881,"gro":1882,"immediately":1883,"pressed":1884,"happen":1885,"dog":1886,"damn":1887,"die":1888,"spr":1889,"stro":1890,"group":1891,"empty":1892,"view":1893,"easy":1894,"$$$eric":1895,"$$$ision":1896,"$$$gr":1897,"$$$cially":1898,"heavy":1899,"today":1900,"rolled":1901,"comfort":1902,"wondered":1903,"$$$oon":1904,"sad":1905,"covered":1906,"months":1907,"drive":1908,"force":1909,"smo":1910,"$$$itch":1911,"supposed":1912,"desk":1913,"bas":1914,"$$$vern":1915,"$$$unt":1916,"$$$mpt":1917,"susp":1918,"pub":1919,"$$$unk":1920,"girls":1921,"desp":1922,"crowd":1923,"sar":1924,"$$$mb":1925,"terri":1926,"$$$ages":1927,"turning":1928,"loud":1929,"mount":1930,"anyway":1931,"shit":1932,"tongue":1933,"baby":1934,"sold":1935,"pan":1936,"fa":1937,"single":1938,"barely":1939,"attack":1940,"partic":1941,"cast":1942,"incl":1943,"$$$sing":1944,"americ":1945,"offic":1946,"$$$aded":1947,"gray":1948,"recogn":1949,"cant":1950,"vict":1951,"$$$ship":1952,"pract":1953,"problem":1954,"pick":1955,"sighed":1956,"often":1957,"coffee":1958,"ord":1959,"died":1960,"val":1961,"simply":1962,"paper":1963,"disappear":1964,"nose":1965,"pointed":1966,"bey":1967,"self":1968,"conversation":1969,"steps":1970,"changed":1971,"$$$ior":1972,"rele":1973,"kissed":1974,"$$$ination":1975,"couldnt":1976,"boo":1977,"police":1978,"beyond":1979,"$$$ism":1980,"spent":1981,"$$$icking":1982,"sand":1983,"cond":1984,"thirty":1985,"whether":1986,"early":1987,"slid":1988,"er":1989,"fair":1990,"tall":1991,"espe":1992,"pack":1993,"telling":1994,"mass":1995,"$$$ution":1996,"guys":1997,"brown":1998,"$$$how":1999,"conv":2000,"$$$ote":2001,"ge":2002,"surprised":2003,"$$$ats":2004,"cheek":2005,"especially":2006,"$$$sed":2007,"wild":2008,"$$$raid":2009,"jul":2010,"minute":2011,"wearing":2012,"direction":2013,"$$$sy":2014,"worry":2015,"$$$ey":2016,"remind":2017,"$$$alth":2018,"shrugged":2019,"knows":2020,"area":2021,"cell":2022,"afraid":2023,"serv":2024,"anim":2025,"$$$bered":2026,"summ":2027,"information":2028,"fly":2029,"$$$iling":2030,"wasn":2031,"cas":2032,"situ":2033,"bath":2034,"throw":2035,"musc":2036,"comes":2037,"ble":2038,"luck":2039,"none":2040,"$$$iled":2041,"$$$ought":2042,"accept":2043,"$$$la":2044,"huge":2045,"den":2046,"disc":2047,"knees":2048,"ant":2049,"$$$ney":2050,"path":2051,"$$$use":2052,"ship":2053,"slightly":2054,"ur":2055,"threat":2056,"$$$ctor":2057,"themselves":2058,"liked":2059,"batt":2060,"enc":2061,"ring":2062,"reach":2063,"$$$stem":2064,"seven":2065,"ones":2066,"prep":2067,"$$$let":2068,"rich":2069,"tiny":2070,"$$$tering":2071,"earl":2072,"doubt":2073,"daught":2074,"yourself":2075,"walls":2076,"$$$ails":2077,"$$$cking":2078,"among":2079,"hers":2080,"somehow":2081,"weap":2082,"whisp":2083,"$$$pid":2084,"trees":2085,"$$$nds":2086,"$$$cover":2087,"$$$ural":2088,"priv":2089,"mel":2090,"soul":2091,"system":2092,"level":2093,"drew":2094,"position":2095,"$$$cious":2096,"means":2097,"event":2098,"tow":2099,"ris":2100,"$$$aching":2101,"tonight":2102,"headed":2103,"$$$idence":2104,"heat":2105,"cool":2106,"luc":2107,"carry":2108,"follow":2109,"hus":2110,"fut":2111,"broken":2112,"rid":2113,"weeks":2114,"$$$res":2115,"main":2116,"country":2117,"tast":2118,"$$$my":2119,"check":2120,"vi":2121,"prov":2122,"sounded":2123,"$$$erm":2124,"doors":2125,"prod":2126,"spread":2127,"darkness":2128,"tree":2129,"$$$band":2130,"pulling":2131,"arg":2132,"van":2133,"further":2134,"stret":2135,"camp":2136,"cop":2137,"requ":2138,"distance":2139,"placed":2140,"shall":2141,"remembered":2142,"$$$ining":2143,"super":2144,"bedroom":2145,"hist":2146,"command":2147,"stairs":2148,"ahead":2149,"lady":2150,"party":2151,"$$$oss":2152,"touched":2153,"expected":2154,"$$$eng":2155,"$$$oof":2156,"test":2157,"worse":2158,"lord":2159,"fav":2160,"cab":2161,"itself":2162,"equ":2163,"seconds":2164,"demand":2165,"$$$ipp":2166,"$$$ection":2167,"seems":2168,"hed":2169,"$$$umbled":2170,"kids":2171,"$$$iam":2172,"alive":2173,"$$$ha":2174,"$$$ibly":2175,"spl":2176,"tu":2177,"somewhere":2178,"$$$osp":2179,"calm":2180,"$$$ously":2181,"scr":2182,"questions":2183,"surprise":2184,"nort":2185,"rad":2186,"finished":2187,"$$$cri":2188,"managed":2189,"wrapped":2190,"$$$bbing":2191,"brief":2192,"gather":2193,"using":2194,"game":2195,"wol":2196,"stupid":2197,"$$$orted":2198,"sharp":2199,"$$$itted":2200,"beat":2201,"strugg":2202,"$$$oring":2203,"react":2204,"threw":2205,"pen":2206,"field":2207,"replied":2208,"wound":2209,"obs":2210,"silent":2211,"team":2212,"spir":2213,"sir":2214,"piece":2215,"magic":2216,"anger":2217,"clearly":2218,"pocket":2219,"attempt":2220,"tar":2221,"sugg":2222,"$$$ien":2223,"age":2224,"commun":2225,"suggest":2226,"pop":2227,"$$$aped":2228,"weak":2229,"bull":2230,"surround":2231,"$$$ries":2232,"broke":2233,"rain":2234,"$$$more":2235,"mention":2236,"$$$ians":2237,"present":2238,"energ":2239,"swall":2240,"phys":2241,"brain":2242,"mrs":2243,"bottom":2244,"$$$ational":2245,"forced":2246,"below":2247,"pot":2248,"nor":2249,"star":2250,"drag":2251,"crazy":2252,"enjoy":2253,"streng":2254,"mis":2255,"lived":2256,"squee":2257,"$$$oming":2258,"$$$ively":2259,"$$$ety":2260,"suff":2261,"fro":2262,"$$$inite":2263,"$$$ift":2264,"$$$ives":2265,"govern":2266,"jud":2267,"lie":2268,"daughter":2269,"sick":2270,"situation":2271,"trouble":2272,"tot":2273,"$$$aling":2274,"port":2275,"--":2276,"$$$acy":2277,"fail":2278,"dinner":2279,"$$$fer":2280,"invol":2281,"est":2282,"surv":2283,"stare":2284,"hesit":2285,"$$$rig":2286,"takes":2287,"meeting":2288,"sea":2289,"silver":2290,"gent":2291,"angry":2292,"future":2293,"worth":2294,"$$$ky":2295,"catch":2296,"gently":2297,"$$$zed":2298,"forget":2299,"pound":2300,"lab":2301,"pun":2302,"bod":2303,"$$$iliar":2304,"ash":2305,"music":2306,"company":2307,"dav":2308,"discover":2309,"bal":2310,"wish":2311,"apparent":2312,"lip":2313,"husband":2314,"proper":2315,"$$$esh":2316,"showed":2317,"$$$ived":2318,"$$$ishing":2319,"bow":2320,"desper":2321,"slam":2322,"blank":2323,"effect":2324,"$$$cy":2325,"$$$inking":2326,"doll":2327,"jaw":2328,"arrived":2329,"river":2330,"tone":2331,"lying":2332,"$$$ession":2333,"band":2334,"energy":2335,"$$$imed":2336,"prop":2337,"key":2338,"$$$ipping":2339,"$$$ury":2340,"sigh":2341,"hide":2342,"waist":2343,"earlier":2344,"despite":2345,"paused":2346,"grew":2347,"wet":2348,"$$$ob":2349,"nine":2350,"wants":2351,"effort":2352,"clou":2353,"whispered":2354,"aware":2355,"diffic":2356,"invest":2357,"$$$od":2358,"dim":2359,"lock":2360,"ice":2361,"var":2362,"mid":2363,"worried":2364,"und":2365,"evening":2366,"bell":2367,"$$$ges":2368,"gotten":2369,"weight":2370,"sounds":2371,"serious":2372,"keeping":2373,"wed":2374,"relation":2375,"$$$igg":2376,"$$$atic":2377,"matt":2378,"ah":2379,"ive":2380,"certainly":2381,"treat":2382,"lives":2383,"third":2384,"$$$yl":2385,"inn":2386,"track":2387,"$$$ager":2388,"nick":2389,"$$$ressed":2390,"save":2391,"strength":2392,"remained":2393,"crossed":2394,"base":2395,"emb":2396,"fu":2397,"nineteen":2398,"slipped":2399,"mas":2400,"assum":2401,"ears":2402,"$$$zen":2403,"lights":2404,"couldn":2405,"sword":2406,"playing":2407,"public":2408,"fil":2409,"nerv":2410,"shaking":2411,"imagine":2412,"odd":2413,"battle":2414,"scre":2415,"toss":2416,"chin":2417,"personal":2418,"eyeb":2419,"normal":2420,"fold":2421,"coo":2422,"picture":2423,"poor":2424,"avo":2425,"chuck":2426,"allowed":2427,"lower":2428,"$$$ael":2429,"beginning":2430,"spec":2431,"rev":2432,"amaz":2433,"$$$usion":2434,"pair":2435,"visit":2436,"maj":2437,"special":2438,"$$$rent":2439,"snow":2440,"usually":2441,"entered":2442,"pu":2443,"hat":2444,"contact":2445,"surf":2446,"handed":2447,"boys":2448,"carefully":2449,"reve":2450,"focus":2451,"locked":2452,"$$$ration":2453,"obviously":2454,"answered":2455,"$$$era":2456,"$$$asing":2457,"$$$lect":2458,"$$$old":2459,"dressed":2460,"respond":2461,"$$$owers":2462,"$$$inct":2463,"rece":2464,"flat":2465,"pleasure":2466,"lap":2467,"succ":2468,"jen":2469,"truck":2470,"$$$izing":2471,"elect":2472,"glad":2473,"$$$idden":2474,"includ":2475,"fresh":2476,"post":2477,"fort":2478,"moon":2479,"court":2480,"relax":2481,"easily":2482,"hoped":2483,"tun":2484,"du":2485,"metal":2486,"anymore":2487,"following":2488,"phot":2489,"max":2490,"horse":2491,"counter":2492,"viol":2493,"inde":2494,"notice":2495,"jumped":2496,"$$$cho":2497,"$$$using":2498,"memory":2499,"dar":2500,"mut":2501,"apartment":2502,"agree":2503,"$$$ises":2504,"dom":2505,"mal":2506,"tired":2507,"hill":2508,"glance":2509,"$$$usted":2510,"talked":2511,"$$$line":2512,"wore":2513,"doctor":2514,"helped":2515,"demon":2516,"$$$iers":2517,"smiling":2518,"$$$urity":2519,"$$$fied":2520,"$$$pper":2521,"cheeks":2522,"gentle":2523,"$$$ency":2524,"shed":2525,"fix":2526,"$$$velop":2527,"$$$orrow":2528,"familiar":2529,"lose":2530,"added":2531,"books":2532,"$$$roy":2533,"$$$con":2534,"fifty":2535,"simple":2536,"wid":2537,"$$$pect":2538,"realize":2539,"likely":2540,"$$$ancing":2541,"breathing":2542,"note":2543,"cand":2544,"goes":2545,"$$$ified":2546,"grace":2547,"cup":2548,"$$$orge":2549,"master":2550,"experience":2551,"motion":2552,"choice":2553,"color":2554,"center":2555,"fighting":2556,"learned":2557,"wip":2558,"study":2559,"desire":2560,"fem":2561,"definite":2562,"$$$kes":2563,"hosp":2564,"shoot":2565,"crack":2566,"dry":2567,"univer":2568,"ways":2569,"letting":2570,"tech":2571,"hy":2572,"eyebrow":2573,"hol":2574,"bathroom":2575,"listen":2576,"carried":2577,"process":2578,"$$$ping":2579,"rom":2580,"$$$ls":2581,"pill":2582,"$$$ena":2583,"une":2584,"$$$bers":2585,"$$$aff":2586,"speed":2587,"bat":2588,"bother":2589,"emotion":2590,"$$$set":2591,"support":2592,"neither":2593,"scar":2594,"$$$ayed":2595,"pale":2596,"$$$idge":2597,"mot":2598,"polit":2599,"store":2600,"peace":2601,"determ":2602,"aside":2603,"$$$ences":2604,"ell":2605,"iss":2606,"rob":2607,"grinned":2608,"nar":2609,"$$$inal":2610,"eur":2611,"$$$uly":2612,"ry":2613,"general":2614,"gets":2615,"laughing":2616,"thanks":2617,"pin":2618,"queen":2619,"stayed":2620,"stick":2621,"asking":2622,"frowned":2623,"tele":2624,"$$$ledge":2625,"knife":2626,"$$$ils":2627,"discus":2628,"difficult":2629,"older":2630,"firm":2631,"north":2632,"suit":2633,"james":2634,"burst":2635,"$$$rian":2636,"history":2637,"flesh":2638,"fit":2639,"gest":2640,"fuck":2641,"offered":2642,"$$$rit":2643,"push":2644,"$$$yn":2645,"shadow":2646,"na":2647,"favor":2648,"won":2649,"falling":2650,"apparently":2651,"shock":2652,"powerful":2653,"lad":2654,"aftern":2655,"park":2656,"$$$gging":2657,"learn":2658,"hoping":2659,"forehead":2660,"$$$go":2661,"security":2662,"moments":2663,"screen":2664,"willing":2665,"comput":2666,"ver":2667,"$$$ental":2668,"$$$reed":2669,"pour":2670,"cried":2671,"$$$str":2672,"captain":2673,"$$$par":2674,"$$$itten":2675,"david":2676,"hen":2677,"deser":2678,"sweat":2679,"send":2680,"ol":2681,"angel":2682,"honest":2683,"explain":2684,"enem":2685,"lang":2686,"$$$cent":2687,"repe":2688,"definitely":2689,"windows":2690,"hospital":2691,"eth":2692,"forty":2693,"report":2694,"bodies":2695,"mich":2696,"chur":2697,"drove":2698,"$$$oned":2699,"handle":2700,"hate":2701,"$$$ara":2702,"$$$itive":2703,"$$$olute":2704,"imm":2705,"$$$inked":2706,"div":2707,"$$$ird":2708,"forest":2709,"$$$cing":2710,"vill":2711,"afternoon":2712,"understood":2713,"opening":2714,"$$$yle":2715,"turns":2716,"drop":2717,"south":2718,"enter":2719,"wolf":2720,"$$$ses":2721,"mach":2722,"$$$ding":2723,"needs":2724,"quietly":2725,"$$$ana":2726,"shouted":2727,"ended":2728,"$$$men":2729,"$$$astic":2730,"rac":2731,"share":2732,"exist":2733,"colle":2734,"necess":2735,"imposs":2736,"$$$ented":2737,"tomorrow":2738,"eventually":2739,"hea":2740,"consider":2741,"places":2742,"putting":2743,"relief":2744,"$$$ission":2745,"dig":2746,"settled":2747,"$$$val":2748,"growing":2749,"noise":2750,"$$$ston":2751,"promise":2752,"$$$rod":2753,"mov":2754,"whose":2755,"ut":2756,"purp":2757,"unf":2758,"defe":2759,"west":2760,"station":2761,"$$$ja":2762,"miles":2763,"considered":2764,"$$$aned":2765,"$$$onse":2766,"escape":2767,"auth":2768,"cause":2769,"rul":2770,"$$$uce":2771,"$$$like":2772,"$$$lish":2773,"$$$ading":2774,"$$$ashing":2775,"dust":2776,"message":2777,"lat":2778,"relationship":2779,"stuck":2780,"hanging":2781,"hated":2782,"card":2783,"descri":2784,"$$$come":2785,"bent":2786,"common":2787,"prison":2788,"jake":2789,"wel":2790,"besides":2791,"frank":2792,"prete":2793,"mere":2794,"$$$lin":2795,"$$$right":2796,"starting":2797,"aud":2798,"$$$ruct":2799,"aut":2800,"snapped":2801,"laid":2802,"charl":2803,"$$$ades":2804,"leng":2805,"satis":2806,"develop":2807,"$$$iel":2808,"europe":2809,"vol":2810,"dangerous":2811,"$$$ral":2812,"blond":2813,"$$$asion":2814,"bottle":2815,"appre":2816,"final":2817,"$$$ords":2818,"entr":2819,"summer":2820,"thigh":2821,"$$$oved":2822,"board":2823,"wouldnt":2824,"$$$aming":2825,"agreed":2826,"$$$ibility":2827,"church":2828,"destroy":2829,"absolute":2830,"government":2831,"shake":2832,"private":2833,"flash":2834,"techn":2835,"disappeared":2836,"$$$amb":2837,"arr":2838,"couch":2839,"oppos":2840,"smoke":2841,"forth":2842,"softly":2843,"bear":2844,"adam":2845,"asks":2846,"island":2847,"ow":2848,"paul":2849,"$$$attered":2850,"comb":2851,"response":2852,"shifted":2853,"jeans":2854,"rap":2855,"organ":2856,"$$$ucking":2857,"respect":2858,"shop":2859,"reading":2860,"presence":2861,"inte":2862,"tens":2863,"hole":2864,"block":2865,"$$$ology":2866,"$$$cher":2867,"married":2868,"$$$ners":2869,"believed":2870,"$$$lled":2871,"pink":2872,"success":2873,"blind":2874,"$$$udd":2875,"scared":2876,"$$$sion":2877,"surface":2878,"grip":2879,"belong":2880,"$$$mer":2881,"murder":2882,"jam":2883,"incre":2884,"hig":2885,"forever":2886,"ident":2887,"$$$ius":2888,"leather":2889,"wear":2890,"$$$illed":2891,"$$$acher":2892,"hips":2893,"$$$ocked":2894,"wanting":2895,"$$$het":2896,"oper":2897,"gard":2898,"guards":2899,"$$$ica":2900,"mirror":2901,"club":2902,"$$$ids":2903,"extra":2904,"jour":2905,"grass":2906,"fifteen":2907,"numb":2908,"ta":2909,"directly":2910,"narrow":2911,"usual":2912,"happening":2913,"song":2914,"finding":2915,"echo":2916,"$$$por":2917,"$$$hood":2918,"$$$hy":2919,"$$$erial":2920,"fool":2921,"offer":2922,"wondering":2923,"$$$rid":2924,"$$$lt":2925,"cost":2926,"$$$ium":2927,"mary":2928,"missed":2929,"$$$uced":2930,"army":2931,"length":2932,"grim":2933,"pul":2934,"played":2935,"scent":2936,"truly":2937,"storm":2938,"major":2939,"busy":2940,"respons":2941,"screamed":2942,"allow":2943,"horri":2944,"mart":2945,"compl":2946,"intern":2947,"vision":2948,"burning":2949,"$$$aly":2950,"accom":2951,"chang":2952,"$$$port":2953,"thumb":2954,"wine":2955,"humans":2956,"uns":2957,"twisted":2958,"built":2959,"bound":2960,"missing":2961,"spend":2962,"mort":2963,"subject":2964,"$$$arm":2965,"$$$anted":2966,"speaking":2967,"cass":2968,"calling":2969,"burned":2970,"sav":2971,"current":2972,"author":2973,"unless":2974,"ban":2975,"nervous":2976,"frey":2977,"impossible":2978,"$$$ron":2979,"hidden":2980,"$$$asm":2981,"social":2982,"harder":2983,"$$$bert":2984,"sides":2985,"cock":2986,"$$$stairs":2987,"yellow":2988,"neigh":2989,"rough":2990,"taste":2991,"weird":2992,"$$$umped":2993,"object":2994,"size":2995,"$$$yal":2996,"$$$rage":2997,"michael":2998,"shower":2999,"$$$bing":3000,"fat":3001,"feelings":3002,"concer":3003,"$$$rect":3004,"neighb":3005,"faces":3006,"$$$uss":3007,"ride":3008,"$$$gress":3009,"jon":3010,"hallway":3011,"feat":3012,"movement":3013,"$$$riage":3014,"$$$ball":3015,"$$$otten":3016,"drift":3017,"mike":3018,"craw":3019,"fallen":3020,"wand":3021,"obvious":3022,"shiver":3023,"american":3024,"iron":3025,"hotel":3026,"orig":3027,"$$$bby":3028,"smooth":3029,"shadows":3030,"$$$ption":3031,"wheel":3032,"doesn":3033,"concern":3034,"pushing":3035,"states":3036,"health":3037,"trip":3038,"spirit":3039,"born":3040,"$$$ald":3041,"buck":3042,"$$$inting":3043,"pants":3044,"broad":3045,"knowledge":3046,"nature":3047,"$$$icious":3048,"$$$ially":3049,"gab":3050,"$$$ring":3051,"fully":3052,"soldiers":3053,"psy":3054,"figured":3055,"$$$ett":3056,"computer":3057,"involved":3058,"jew":3059,"heads":3060,"$$$ormed":3061,"birth":3062,"waved":3063,"palm":3064,"wave":3065,"peter":3066,"non":3067,"$$$ov":3068,"dance":3069,"rub":3070,"listening":3071,"separ":3072,"nobody":3073,"struck":3074,"$$$riend":3075,"pier":3076,"lets":3077,"entrance":3078,"coat":3079,"continue":3080,"$$$oose":3081,"jos":3082,"mod":3083,"faint":3084,"wouldn":3085,"loose":3086,"record":3087,"arch":3088,"uncle":3089,"regard":3090,"$$$ortun":3091,"$$$leep":3092,"thom":3093,"$$$ndon":3094,"$$$aur":3095,"paid":3096,"grab":3097,"$$$ilar":3098,"amb":3099,"image":3100,"fren":3101,"theres":3102,"kat":3103,"$$$rest":3104,"$$$uit":3105,"$$$ploy":3106,"cru":3107,"opportun":3108,"mic":3109,"asleep":3110,"lines":3111,"wake":3112,"climbed":3113,"$$$ization":3114,"deb":3115,"president":3116,"indeed":3117,"$$$ceed":3118,"$$$itary":3119,"jim":3120,"$$$gs":3121,"date":3122,"fought":3123,"swallowed":3124,"spo":3125,"trick":3126,"sour":3127,"million":3128,"sleeping":3129,"dear":3130,"decision":3131,"jacket":3132,"gate":3133,"wished":3134,"frust":3135,"phil":3136,"spell":3137,"$$$rated":3138,"evil":3139,"distract":3140,"whisper":3141,"quar":3142,"explained":3143,"$$$roud":3144,"account":3145,"buy":3146,"approached":3147,"purpose":3148,"$$$wise":3149,"freyja":3150,"por":3151,"attract":3152,"risk":3153,"$$$eless":3154,"shoes":3155,"$$$inging":3156,"engine":3157,"drug":3158,"confused":3159,"$$$elle":3160,"circle":3161,"$$$ables":3162,"nod":3163,"clock":3164,"foc":3165,"scene":3166,"ceiling":3167,"clen":3168,"narr":3169,"thrust":3170,"joy":3171,"$$$work":3172,"$$$omb":3173,"mostly":3174,"train":3175,"result":3176,"$$$ague":3177,"pant":3178,"chall":3179,"breast":3180,"jes":3181,"$$$une":3182,"doorway":3183,"intell":3184,"hearing":3185,"clut":3186,"jason":3187,"deliver":3188,"hunter":3189,"harry":3190,"tea":3191,"stat":3192,"driving":3193,"vampires":3194,"$$$wh":3195,"dut":3196,"careful":3197,"$$$lessly":3198,"feels":3199,"anywhere":3200,"amount":3201,"muscles":3202,"hardly":3203,"unable":3204,"doesnt":3205,"nur":3206,"text":3207,"$$$wards":3208,"blinked":3209,"perfectly":3210,"inj":3211,"incred":3212,"focused":3213,"boat":3214,"faster":3215,"twel":3216,"action":3217,"elb":3218,"weapon":3219,"admit":3220,"$$$arrass":3221,"feed":3222,"laught":3223,"memories":3224,"terrible":3225,"appreci":3226,"trail":3227,"flick":3228,"animal":3229,"$$$essed":3230,"local":3231,"pool":3232,"$$$igned":3233,"embarrass":3234,"ger":3235,"$$$reme":3236,"beast":3237,"possibly":3238,"langu":3239,"pieces":3240,"fist":3241,"leaning":3242,"tip":3243,"$$$cul":3244,"rubbed":3245,"tur":3246,"type":3247,"$$$ns":3248,"natural":3249,"male":3250,"ethan":3251,"$$$icle":3252,"$$$ensive":3253,"shes":3254,"sarah":3255,"$$$omfort":3256,"exam":3257,"lung":3258,"hadnt":3259,"bank":3260,"stories":3261,"blow":3262,"hom":3263,"$$$ogra":3264,"whom":3265,"$$$board":3266,"laughter":3267,"roof":3268,"$$$nel":3269,"opposite":3270,"flying":3271,"shoved":3272,"cu":3273,"depart":3274,"flew":3275,"anci":3276,"letter":3277,"interested":3278,"leaves":3279,"members":3280,"joined":3281,"occasion":3282,"$$$host":3283,"twice":3284,"$$$ask":3285,"square":3286,"$$$itions":3287,"prev":3288,"sevent":3289,"warri":3290,"wooden":3291,"$$$ground":3292,"blade":3293,"lowered":3294,"golden":3295,"$$$omed":3296,"slammed":3297,"tossed":3298,"$$$iot":3299,"trave":3300,"including":3301,"$$$arily":3302,"ghost":3303,"rising":3304,"$$$end":3305,"faced":3306,"spark":3307,"$$$oint":3308,"reality":3309,"scra":3310,"anx":3311,"gras":3312,"$$$ounced":3313,"pit":3314,"caused":3315,"neg":3316,"brothers":3317,"$$$gy":3318,"shape":3319,"soph":3320,"victor":3321,"iv":3322,"$$$ivid":3323,"yelled":3324,"$$$hip":3325,"interesting":3326,"naked":3327,"join":3328,"stage":3329,"reminded":3330,"sha":3331,"rush":3332,"lunch":3333,"swung":3334,"ner":3335,"warning":3336,"$$$ests":3337,"$$$ument":3338,"concerned":3339,"fright":3340,"disg":3341,"aunt":3342,"$$$cer":3343,"tremb":3344,"aid":3345,"investig":3346,"stretched":3347,"button":3348,"search":3349,"tent":3350,"reaching":3351,"$$$ularly":3352,"forgotten":3353,"kicked":3354,"claim":3355,"instantly":3356,"surely":3357,"stiff":3358,"crying":3359,"comfortable":3360,"evidence":3361,"totally":3362,"beer":3363,"wit":3364,"ari":3365,"dir":3366,"ray":3367,"innoc":3368,"$$$itude":3369,"york":3370,"checked":3371,"funny":3372,"$$$well":3373,"concent":3374,"mac":3375,"$$$ality":3376,"sof":3377,"$$$icate":3378,"amazing":3379,"lucky":3380,"grey":3381,"wrist":3382,"driver":3383,"til":3384,"twelve":3385,"panic":3386,"particular":3387,"flight":3388,"pred":3389,"instinct":3390,"worst":3391,"east":3392,"compan":3393,"soci":3394,"rushed":3395,"eating":3396,"jess":3397,"killing":3398,"san":3399,"demanded":3400,"$$$ential":3401,"cleared":3402,"saf":3403,"female":3404,"$$$ese":3405,"$$$gar":3406,"$$$cil":3407,"elev":3408,"$$$ume":3409,"smart":3410,"$$$cks":3411,"written":3412,"$$$aret":3413,"prec":3414,"fal":3415,"breathe":3416,"gods":3417,"creature":3418,"lake":3419,"recognized":3420,"ancient":3421,"travel":3422,"adj":3423,"rang":3424,"host":3425,"pad":3426,"whats":3427,"cust":3428,"studied":3429,"$$$dom":3430,"di":3431,"$$$fast":3432,"$$$gram":3433,"mix":3434,"prepared":3435,"avoid":3436,"magn":3437,"beth":3438,"giant":3439,"eyed":3440,"$$$athan":3441,"$$$vin":3442,"listened":3443,"bite":3444,"lack":3445,"harm":3446,"staff":3447,"charac":3448,"mood":3449,"plate":3450,"entirely":3451,"hadn":3452,"released":3453,"service":3454,"gut":3455,"carrying":3456,"$$$den":3457,"$$$lling":3458,"henry":3459,"boots":3460,"brushed":3461,"crew":3462,"wont":3463,"$$$anda":3464,"squeezed":3465,"ignored":3466,"occur":3467,"proud":3468,"$$$otions":3469,"pray":3470,"weapons":3471,"$$$not":3472,"hiding":3473,"joe":3474,"solid":3475,"reaction":3476,"meaning":3477,"grown":3478,"exha":3479,"dism":3480,"higher":3481,"beach":3482,"$$$uing":3483,"$$$ancy":3484,"physical":3485,"civ":3486,"zane":3487,"$$$bit":3488,"$$$eps":3489,"hous":3490,"sne":3491,"college":3492,"excited":3493,"claw":3494,"eighteen":3495,"steel":3496,"vir":3497,"mountain":3498,"sac":3499,"rare":3500,"$$$agged":3501,"$$$zing":3502,"woods":3503,"bast":3504,"$$$under":3505,"decl":3506,"deeper":3507,"thomas":3508,"rand":3509,"$$$ham":3510,"bones":3511,"project":3512,"conte":3513,"steady":3514,"double":3515,"rachel":3516,"rise":3517,"$$$ique":3518,"$$$ulation":3519,"emotions":3520,"$$$ulous":3521,"bol":3522,"term":3523,"$$$istic":3524,"tick":3525,"breaking":3526,"unb":3527,"material":3528,"removed":3529,"$$$antic":3530,"$$$ama":3531,"english":3532,"heading":3533,"accord":3534,"$$$iction":3535,"shared":3536,"military":3537,"refused":3538,"$$$key":3539,"leading":3540,"dirt":3541,"kick":3542,"instant":3543,"gathered":3544,"terror":3545,"cars":3546,"opportunity":3547,"problems":3548,"inh":3549,"shield":3550,"parking":3551,"necessary":3552,"interrupt":3553,"regret":3554,"easier":3555,"$$$house":3556,"dollars":3557,"scan":3558,"rum":3559,"dreams":3560,"gives":3561,"cham":3562,"stars":3563,"$$$iday":3564,"$$$rib":3565,"$$$inated":3566,"exch":3567,"nic":3568,"pure":3569,"drawn":3570,"absolutely":3571,"fol":3572,"tightly":3573,"disp":3574,"heaven":3575,"enemy":3576,"challen":3577,"works":3578,"knee":3579,"brow":3580,"losing":3581,"breakfast":3582,"row":3583,"$$$conom":3584,"everywhere":3585,"displ":3586,"suppose":3587,"thor":3588,"plain":3589,"cow":3590,"discovered":3591,"employ":3592,"$$$rel":3593,"screaming":3594,"seriously":3595,"flashed":3596,"curt":3597,"dozen":3598,"$$$oted":3599,"libr":3600,"finish":3601,"activ":3602,"prefer":3603,"remain":3604,"prince":3605,"plans":3606,"$$$ker":3607,"curled":3608,"landed":3609,"french":3610,"$$$sc":3611,"pressure":3612,"shel":3613,"psych":3614,"showing":3615,"training":3616,"stun":3617,"meas":3618,"gigg":3619,"resear":3620,"bridge":3621,"$$$asy":3622,"william":3623,"knock":3624,"$$$ilities":3625,"$$$cr":3626,"christian":3627,"deeply":3628,"hors":3629,"$$$ires":3630,"conscious":3631,"econom":3632,"sen":3633,"target":3634,"$$$asons":3635,"$$$unately":3636,"tail":3637,"ability":3638,"tour":3639,"liter":3640,"similar":3641,"fed":3642,"garden":3643,"shudd":3644,"happens":3645,"wings":3646,"inch":3647,"cult":3648,"charge":3649,"movie":3650,"chase":3651,"ordered":3652,"$$$ature":3653,"$$$mp":3654,"bringing":3655,"cloud":3656,"hey":3657,"$$$itor":3658,"gall":3659,"emma":3660,"$$$inary":3661,"otherwise":3662,"piss":3663,"streets":3664,"program":3665,"fac":3666,"stir":3667,"correct":3668,"introd":3669,"loss":3670,"$$$imate":3671,"jerked":3672,"bought":3673,"$$$oying":3674,"$$$ios":3675,"sink":3676,"resist":3677,"$$$ival":3678,"spin":3679,"hurried":3680,"infl":3681,"cart":3682,"reb":3683,"env":3684,"restaur":3685,"$$$imp":3686,"named":3687,"$$$illy":3688,"freed":3689,"$$$nday":3690,"yours":3691,"cy":3692,"names":3693,"bree":3694,"$$$aches":3695,"eld":3696,"$$$yer":3697,"unlike":3698,"accident":3699,"determined":3700,"tax":3701,"$$$tle":3702,"desperate":3703,"dying":3704,"repeated":3705,"scrat":3706,"$$$ias":3707,"faith":3708,"gasped":3709,"daniel":3710,"wedding":3711,"gle":3712,"$$$umbling":3713,"bloody":3714,"deck":3715,"george":3716,"slept":3717,"$$$form":3718,"$$$izz":3719,"promised":3720,"surrounded":3721,"cabin":3722,"intense":3723,"skill":3724,"holl":3725,"passing":3726,"bul":3727,"$$$ify":3728,"$$$che":3729,"extreme":3730,"cig":3731,"beauty":3732,"$$$cl":3733,"planned":3734,"$$$wood":3735,"spun":3736,"horror":3737,"machine":3738,"eager":3739,"ken":3740,"aband":3741,"knocked":3742,"dragged":3743,"planet":3744,"sending":3745,"yester":3746,"$$$eping":3747,"greet":3748,"fucking":3749,"eric":3750,"imagined":3751,"belly":3752,"detect":3753,"searching":3754,"blur":3755,"decide":3756,"created":3757,"$$$ators":3758,"exte":3759,"$$$eke":3760,"$$$gest":3761,"rooms":3762,"ling":3763,"uncomfort":3764,"$$$ample":3765,"rout":3766,"vers":3767,"access":3768,"horses":3769,"write":3770,"glo":3771,"race":3772,"tan":3773,"dirty":3774,"buried":3775,"narrowed":3776,"$$$mas":3777,"dragon":3778,"massive":3779,"$$$ander":3780,"officer":3781,"glow":3782,"smiles":3783,"$$$lyn":3784,"parts":3785,"witness":3786,"touching":3787,"tear":3788,"fish":3789,"writing":3790,"waves":3791,"pictures":3792,"younger":3793,"$$$ieved":3794,"ly":3795,"warmth":3796,"favorite":3797,"failed":3798,"yesterday":3799,"rage":3800,"wis":3801,"brit":3802,"wer":3803,"perio":3804,"simon":3805,"recall":3806,"eliz":3807,"nearby":3808,"rolling":3809,"tightened":3810,"thinks":3811,"member":3812,"ess":3813,"ine":3814,"seth":3815,"cred":3816,"drawing":3817,"$$$rop":3818,"shocked":3819,"$$$aging":3820,"$$$iant":3821,"$$$eled":3822,"awk":3823,"mistake":3824,"lif":3825,"unfort":3826,"eyebrows":3827,"vac":3828,"veh":3829,"jane":3830,"various":3831,"village":3832,"yan":3833,"match":3834,"grad":3835,"obl":3836,"log":3837,"voices":3838,"indic":3839,"temper":3840,"$$$ai":3841,"glasses":3842,"$$$uses":3843,"excite":3844,"becoming":3845,"$$$action":3846,"jan":3847,"market":3848,"awkward":3849,"$$$acks":3850,"sixty":3851,"kate":3852,"$$$inn":3853,"frame":3854,"upset":3855,"josh":3856,"animals":3857,"language":3858,"$$$iment":3859,"$$$vered":3860,"features":3861,"closing":3862,"setting":3863,"difference":3864,"assist":3865,"silently":3866,"cook":3867,"farm":3868,"manage":3869,"$$$the":3870,"pleased":3871,"exh":3872,"safety":3873,"univers":3874,"$$$ashes":3875,"tied":3876,"leap":3877,"woke":3878,"faded":3879,"folded":3880,"$$$uries":3881,"calls":3882,"$$$**":3883,"tit":3884,"political":3885,"hug":3886,"tv":3887,"profess":3888,"due":3889,"details":3890,"dun":3891,"ju":3892,"$$$ec":3893,"relig":3894,"net":3895,"claire":3896,"gon":3897,"corrid":3898,"$$$ograph":3899,"clo":3900,"protest":3901,"somebody":3902,"dawn":3903,"oce":3904,"mission":3905,"kissing":3906,"pil":3907,"helping":3908,"clenched":3909,"fab":3910,"chat":3911,"doc":3912,"council":3913,"understanding":3914,"shift":3915,"page":3916,"suggested":3917,"wonderful":3918,"chief":3919,"refer":3920,"jac":3921,"cash":3922,"mentioned":3923,"percent":3924,"excitement":3925,"$$$ocking":3926,"drunk":3927,"$$$for":3928,"$$$pet":3929,"cole":3930,"intellig":3931,"swept":3932,"century":3933,"isnt":3934,"$$$roll":3935,"comment":3936,"belt":3937,"perform":3938,"winter":3939,"overw":3940,"unw":3941,"gift":3942,"society":3943,"pulls":3944,"tort":3945,"fault":3946,"dart":3947,"ep":3948,"weather":3949,"hesitated":3950,"plat":3951,"reasons":3952,"chuckled":3953,"drinking":3954,"reflect":3955,"cha":3956,"$$$nes":3957,"russ":3958,"events":3959,"$$$ata":3960,"$$$agg":3961,"custom":3962,"$$$issa":3963,"slip":3964,"saved":3965,"civil":3966,"particularly":3967,"received":3968,"emily":3969,"bay":3970,"$$$annah":3971,"$$$illing":3972,"rules":3973,"individ":3974,"wiped":3975,"boss":3976,"radio":3977,"welcome":3978,"crim":3979,"passion":3980,"$$$eral":3981,"$$$ura":3982,"blast":3983,"$$$iber":3984,"$$$iest":3985,"luke":3986,"flood":3987,"hungry":3988,"cave":3989,"mc":3990,"$$$ites":3991,"butt":3992,"logan":3993,"charlie":3994,"$$$anna":3995,"$$$00":3996,"emp":3997,"jeff":3998,"according":3999,"grate":4000,"moder":4001,"sucked":4002,"stream":4003,"plenty":4004,"curious":4005,"tang":4006,"$$$view":4007,"slee":4008,"whenever":4009,"kell":4010,"rail":4011,"merely":4012,"students":4013,"rested":4014,"teacher":4015,"scient":4016,"brand":4017,"stab":4018,"everybody":4019,"$$$agger":4020,"victim":4021,"ian":4022,"swear":4023,"heels":4024,"$$$ooked":4025,"$$$alk":4026,"facing":4027,"screw":4028,"practice":4029,"answers":4030,"poured":4031,"leader":4032,"bigger":4033,"$$$olution":4034,"confir":4035,"address":4036,"$$$ruction":4037,"dare":4038,"marriage":4039,"betr":4040,"orders":4041,"wrote":4042,"relaxed":4043,"fash":4044,"upper":4045,"aver":4046,"$$$ech":4047,"collect":4048,"ven":4049,"$$$ille":4050,"chick":4051,"satisf":4052,"stronger":4053,"theyre":4054,"$$$iley":4055,"reply":4056,"$$$antage":4057,"deg":4058,"$$$icip":4059,"considering":4060,"pace":4061,"anna":4062,"murm":4063,"connection":4064,"throwing":4065,"release":4066,"spring":4067,"flames":4068,"$$$lies":4069,"bitter":4070,"pause":4071,"hurry":4072,"liqu":4073,"domin":4074,"rapid":4075,"rule":4076,"init":4077,"$$$ole":4078,"$$$ette":4079,"$$$eter":4080,"fant":4081,"prim":4082,"badly":4083,"$$$abeth":4084,"nav":4085,"blanket":4086,"wes":4087,"$$$ases":4088,"$$$isters":4089,"staying":4090,"$$$iving":4091,"expecting":4092,"ens":4093,"compet":4094,"$$$hern":4095,"enjoyed":4096,"character":4097,"$$$uction":4098,"flowers":4099,"$$$rick":4100,"london":4101,"$$$itation":4102,"$$$unted":4103,"$$$ider":4104,"ank":4105,"sliding":4106,"starts":4107,"ya":4108,"united":4109,"$$$itched":4110,"height":4111,"castle":4112,"awake":4113,"$$$asc":4114,"struggled":4115,"fart":4116,"bone":4117,"yard":4118,"$$$af":4119,"elevator":4120,"twist":4121,"individual":4122,"sev":4123,"approach":4124,"guns":4125,"ryan":4126,"depe":4127,"ignore":4128,"dread":4129,"thrown":4130,"period":4131,"plastic":4132,"restaurant":4133,"german":4134,"repres":4135,"former":4136,"library":4137,"papers":4138,"based":4139,"guilt":4140,"thighs":4141,"mult":4142,"ber":4143,"fashion":4144,"$$$gie":4145,"concl":4146,"$$$sey":4147,"keys":4148,"hero":4149,"embr":4150,"stair":4151,"$$$rog":4152,"vide":4153,"pip":4154,"ninety":4155,"meat":4156,"powers":4157,"rif":4158,"groaned":4159,"nowhere":4160,"prove":4161,"buildings":4162,"glared":4163,"distant":4164,"spoken":4165,"throughout":4166,"national":4167,"ease":4168,"rear":4169,"$$$gu":4170,"swim":4171,"smir":4172,"tucked":4173,"fixed":4174,"shell":4175,"skirt":4176,"heavily":4177,"$$$eling":4178,"cott":4179,"bon":4180,"trad":4181,"cared":4182,"camera":4183,"obser":4184,"liz":4185,"ocean":4186,"vib":4187,"points":4188,"$$$vey":4189,"christmas":4190,"chain":4191,"$$$mon":4192,"till":4193,"prin":4194,"crit":4195,"hint":4196,"unif":4197,"$$$ram":4198,"backed":4199,"buzz":4200,"marry":4201,"$$$owled":4202,"pressing":4203,"benef":4204,"anticip":4205,"$$$iety":4206,"ram":4207,"mental":4208,"tension":4209,"manner":4210,"sexy":4211,"delight":4212,"colon":4213,"numbers":4214,"taught":4215,"$$$neath":4216,"isn":4217,"lightly":4218,"typ":4219,"overwhel":4220,"richard":4221,"honor":4222,"$$$kn":4223,"godd":4224,"porch":4225,"gripped":4226,"$$$ols":4227,"rever":4228,"cale":4229,"example":4230,"assumed":4231,"temple":4232,"$$$icing":4233,"egg":4234,"smelled":4235,"thus":4236,"briefly":4237,"fan":4238,"blame":4239,"pointing":4240,"youve":4241,"swift":4242,"ron":4243,"cele":4244,"worn":4245,"monster":4246,"ridic":4247,"choose":4248,"smaller":4249,"sed":4250,"convin":4251,"spar":4252,"haven":4253,"utter":4254,"formed":4255,"pregn":4256,"emer":4257,"ate":4258,"circum":4259,"issue":4260,"furn":4261,"larger":4262,"julian":4263,"confusion":4264,"$$$nie":4265,"kisses":4266,"impro":4267,"sank":4268,"$$$ront":4269,"america":4270,"$$$umps":4271,"occup":4272,"accepted":4273,"rick":4274,"tunnel":4275,"fier":4276,"underneath":4277,"parked":4278,"desce":4279,"$$$hew":4280,"convinced":4281,"stands":4282,"creatures":4283,"slide":4284,"elizabeth":4285,"clouds":4286,"houses":4287,"$$$hol":4288,"consum":4289,"$$$oll":4290,"inches":4291,"series":4292,"$$$uted":4293,"balance":4294,"opt":4295,"celebr":4296,"survive":4297,"abrupt":4298,"thousands":4299,"jamie":4300,"split":4301,"cream":4302,"damage":4303,"detail":4304,"research":4305,"uncomfortable":4306,"cigaret":4307,"teen":4308,"19":4309,"gabri":4310,"bitch":4311,"professor":4312,"cous":4313,"$$$iance":4314,"practically":4315,"instruct":4316,"emerg":4317,"cryst":4318,"orange":4319,"mail":4320,"$$$iently":4321,"luci":4322,"contr":4323,"ripped":4324,"annoy":4325,"chamber":4326,"$$$alous":4327,"$$$ero":4328,"irrit":4329,"bird":4330,"blew":4331,"cit":4332,"tender":4333,"task":4334,"$$$sequ":4335,"judge":4336,"$$$aper":4337,"ward":4338,"european":4339,"behav":4340,"profession":4341,"seventy":4342,"thunder":4343,"bru":4344,"painting":4345,"$$$acle":4346,"rust":4347,"excuse":4348,"$$$father":4349,"handsome":4350,"terms":4351,"startled":4352,"nightm":4353,"journey":4354,"swir":4355,"encou":4356,"condition":4357,"pile":4358,"witch":4359,"struct":4360,"$$$ante":4361,"recognize":4362,"nights":4363,"dug":4364,"gal":4365,"bunch":4366,"$$$mother":4367,"brush":4368,"ideas":4369,"myst":4370,"lily":4371,"ach":4372,"urge":4373,"progress":4374,"torn":4375,"widened":4376,"opin":4377,"fired":4378,"therefore":4379,"dancing":4380,"$$$pected":4381,"ack":4382,"$$$ability":4383,"intended":4384,"$$$ella":4385,"fate":4386,"$$$ule":4387,"pattern":4388,"hundreds":4389,"distur":4390,"freedom":4391,"innocent":4392,"$$$ception":4393,"relieved":4394,"normally":4395,"crime":4396,"washing":4397,"trade":4398,"dogs":4399,"silk":4400,"planning":4401,"eighty":4402,"$$$aks":4403,"mate":4404,"$$$ino":4405,"science":4406,"corridor":4407,"$$$ointed":4408,"design":4409,"acqu":4410,"shr":4411,"fellow":4412,"meal":4413,"begun":4414,"$$$elled":4415,"fer":4416,"explos":4417,"arrow":4418,"total":4419,"$$$can":4420,"perm":4421,"$$$book":4422,"modern":4423,"$$$ares":4424,"universe":4425,"surprising":4426,"rocks":4427,"chairs":4428,"hood":4429,"inner":4430,"map":4431,"eleven":4432,"create":4433,"stumbled":4434,"weeke":4435,"$$$ienced":4436,"horrible":4437,"$$$off":4438,"$$$kin":4439,"educ":4440,"ren":4441,"$$$phone":4442,"duty":4443,"purse":4444,"brick":4445,"$$$pir":4446,"enorm":4447,"damp":4448,"$$$ded":4449,"strang":4450,"contract":4451,"sensation":4452,"frag":4453,"pride":4454,"resc":4455,"purs":4456,"bord":4457,"agent":4458,"rode":4459,"stopping":4460,"aim":4461,"complex":4462,"tie":4463,"$$$oe":4464,"hip":4465,"display":4466,"settle":4467,"source":4468,"youll":4469,"$$$arsh":4470,"ted":4471,"$$$what":4472,"influ":4473,"served":4474,"$$$ora":4475,"exec":4476,"$$$rate":4477,"wealth":4478,"signs":4479,"tower":4480,"$$$osen":4481,"ug":4482,"estab":4483,"et":4484,"notes":4485,"connect":4486,"$$$ulf":4487,"reluct":4488,"property":4489,"pounding":4490,"$$$aine":4491,"boyf":4492,"lungs":4493,"sin":4494,"electric":4495,"clothing":4496,"advantage":4497,"sell":4498,"picking":4499,"unfortunately":4500,"avail":4501,"tempt":4502,"beating":4503,"spotted":4504,"oliv":4505,"constant":4506,"speech":4507,"crou":4508,"reass":4509,"$$$aker":4510,"seventeen":4511,"explod":4512,"$$$enger":4513,"flipped":4514,"fierce":4515,"skull":4516,"$$$icy":4517,"fists":4518,"style":4519,"backward":4520,"appearance":4521,"plus":4522,"fury":4523,"connected":4524,"knight":4525,"mountains":4526,"ting":4527,"spine":4528,"brill":4529,"camer":4530,"maint":4531,"beck":4532,"official":4533,"chosen":4534,"sniff":4535,"tells":4536,"ourselves":4537,"resting":4538,"$$$eg":4539,"$$$lla":4540,"plant":4541,"suspic":4542,"holy":4543,"$$$cast":4544,"$$$enth":4545,"$$$amped":4546,"$$$xic":4547,"conce":4548,"hamm":4549,"frozen":4550,"tex":4551,"grateful":4552,"sixteen":4553,"$$$ught":4554,"$$$angs":4555,"royal":4556,"vall":4557,"recently":4558,"suspected":4559,"indust":4560,"capable":4561,"$$$erson":4562,"$$$laimed":4563,"lots":4564,"waste":4565,"dick":4566,"prevent":4567,"upstairs":4568,"previous":4569,"apolog":4570,"$$$ris":4571,"$$$atory":4572,"$$$ault":4573,"shore":4574,"request":4575,"traff":4576,"rot":4577,"rights":4578,"chose":4579,"unex":4580,"commission":4581,"landing":4582,"froze":4583,"$$$ox":4584,"eve":4585,"cro":4586,"uniform":4587,"edd":4588,"acting":4589,"$$$ointment":4590,"plane":4591,"guil":4592,"sla":4593,"causing":4594,"price":4595,"$$$rif":4596,"firmly":4597,"explan":4598,"whir":4599,"letters":4600,"puzz":4601,"ult":4602,"trembling":4603,"breeze":4604,"existence":4605,"tables":4606,"noah":4607,"stranger":4608,"protection":4609,"community":4610,"breathed":4611,"retreat":4612,"bleed":4613,"hast":4614,"changing":4615,"collaps":4616,"ackn":4617,"chris":4618,"lined":4619,"muscle":4620,"bread":4621,"bastard":4622,"jose":4623,"$$$vision":4624,"wash":4625,"damned":4626,"circumst":4627,"original":4628,"haw":4629,"tony":4630,"peered":4631,"$$$ket":4632,"climb":4633,"escaped":4634,"cracked":4635,"sheet":4636,"autom":4637,"soldier":4638,"princ":4639,"tend":4640,"raise":4641,"chill":4642,"cris":4643,"farther":4644,"flut":4645,"robert":4646,"strike":4647,"jealous":4648,"$$$ales":4649,"hal":4650,"$$$isa":4651,"remaining":4652,"$$$ki":4653,"$$$aries":4654,"fasc":4655,"carol":4656,"lovely":4657,"elbow":4658,"washed":4659,"grave":4660,"der":4661,"actual":4662,"$$$iter":4663,"capital":4664,"anne":4665,"experienced":4666,"gesture":4667,"demons":4668,"diss":4669,"blaz":4670,"footst":4671,"spect":4672,"returning":4673,"jesus":4674,"guilty":4675,"lur":4676,"medical":4677,"stal":4678,"bags":4679,"encoun":4680,"snat":4681,"shooting":4682,"seb":4683,"lies":4684,"partner":4685,"tore":4686,"sexual":4687,"$$$top":4688,"$$$unched":4689,"killer":4690,"express":4691,"covering":4692,"wing":4693,"cel":4694,"painful":4695,"cheer":4696,"marsh":4697,"pist":4698,"desperately":4699,"$$$ocol":4700,"searched":4701,"images":4702,"rhy":4703,"olivia":4704,"$$$dding":4705,"closet":4706,"honey":4707,"lucas":4708,"$$$ka":4709,"$$$ppy":4710,"vast":4711,"$$$chan":4712,"alley":4713,"required":4714,"shakes":4715,"intent":4716,"$$$athy":4717,"wil":4718,"cannot":4719,"gazed":4720,"vul":4721,"$$$ford":4722,"$$$ological":4723,"awful":4724,"bond":4725,"insisted":4726,"$$$agon":4727,"nap":4728,"$$$ushes":4729,"muttered":4730,"$$$raw":4731,"$$$bey":4732,"gorge":4733,"scott":4734,"palace":4735,"alarm":4736,"riding":4737,"purple":4738,"tugged":4739,"somewhat":4740,"suspect":4741,"video":4742,"greg":4743,"inqu":4744,"shame":4745,"nods":4746,"shown":4747,"$$$otic":4748,"loving":4749,"$$$istan":4750,"destroyed":4751,"gear":4752,"frustration":4753,"dropping":4754,"$$$ishment":4755,"responded":4756,"occurred":4757,"raw":4758,"possibility":4759,"pissed":4760,"surre":4761,"hugged":4762,"tilted":4763,"confident":4764,"joke":4765,"regular":4766,"pillow":4767,"bran":4768,"butter":4769,"neighbor":4770,"soot":4771,"item":4772,"harsh":4773,"brian":4774,"walks":4775,"$$$lor":4776,"interview":4777,"$$$itional":4778,"challenge":4779,"attend":4780,"clay":4781,"popped":4782,"product":4783,"palms":4784,"asso":4785,"grandmother":4786,"painted":4787,"forces":4788,"copy":4789,"bullet":4790,"bowl":4791,"union":4792,"afford":4793,"$$$lished":4794,"matters":4795,"chew":4796,"arrest":4797,"role":4798,"groan":4799,"tatt":4800,"$$$met":4801,"loudly":4802,"whoever":4803,"ax":4804,"drifted":4805,"exhausted":4806,"sport":4807,"$$$ads":4808,"brows":4809,"jared":4810,"$$$uous":4811,"terrified":4812,"bench":4813,"rib":4814,"sebast":4815,"$$$case":4816,"agreement":4817,"associ":4818,"towel":4819,"dw":4820,"$$$bled":4821,"virg":4822,"vel":4823,"dang":4824,"stunned":4825,"$$$rier":4826,"pulse":4827,"shows":4828,"forgot":4829,"famil":4830,"holds":4831,"***":4832,"surrounding":4833,"dor":4834,"alco":4835,"$$$oop":4836,"girlf":4837,"mask":4838,"dull":4839,"boyfriend":4840,"warrior":4841,"closely":4842,"$$$vis":4843,"$$$nal":4844,"coast":4845,"enormous":4846,"data":4847,"nate":4848,"ships":4849,"ske":4850,"glowing":4851,"replaced":4852,"university":4853,"$$$uments":4854,"kar":4855,"suck":4856,"ros":4857,"fabric":4858,"andrew":4859,"bud":4860,"footsteps":4861,"filling":4862,"paying":4863,"career":4864,"interrupted":4865,"communic":4866,"section":4867,"$$$bel":4868,"medic":4869,"growled":4870,"enjoying":4871,"blake":4872,"ham":4873,"drown":4874,"kyl":4875,"trapped":4876,"confidence":4877,"vanished":4878,"mile":4879,"collar":4880,"$$$hem":4881,"span":4882,"oil":4883,"rope":4884,"attacked":4885,"credit":4886,"$$$atically":4887,"grabbing":4888,"charles":4889,"cutting":4890,"cliff":4891,"television":4892,"colour":4893,"$$$ients":4894,"moves":4895,"princip":4896,"org":4897,"$$$lection":4898,"remark":4899,"cooper":4900,"learning":4901,"sts":4902,"traffic":4903,"$$$reek":4904,"ratt":4905,"impact":4906,"pretend":4907,"$$$vering":4908,"symp":4909,"discuss":4910,"statement":4911,"neat":4912,"$$$uine":4913,"$$$und":4914,"$$$rous":4915,"sway":4916,"sisters":4917,"trained":4918,"lone":4919,"$$$omes":4920,"sebastian":4921,"rig":4922,"hunt":4923,"extremely":4924,"demo":4925,"$$$hetic":4926,"vehicle":4927,"caress":4928,"responsible":4929,"games":4930,"citiz":4931,"nurse":4932,"polite":4933,"admitted":4934,"devil":4935,"secrets":4936,"seeming":4937,"actions":4938,"decor":4939,"liquid":4940,"desert":4941,"packed":4942,"rubbing":4943,"$$$atively":4944,"invis":4945,"ignoring":4946,"grandfather":4947,"om":4948,"cloth":4949,"greater":4950,"isab":4951,"ridiculous":4952,"senses":4953,"nut":4954,"$$$umble":4955,"priest":4956,"princess":4957,"lifting":4958,"$$$umping":4959,"crap":4960,"anybody":4961,"$$$ira":4962,"raced":4963,"signific":4964,"flu":4965,"friendly":4966,"poison":4967,"tattoo":4968,"$$$wor":4969,"theory":4970,"snar":4971,"$$$__":4972,"british":4973,"kylie":4974,"downstairs":4975,"moan":4976,"families":4977,"fred":4978,".\"":4979,"$$$ieve":4980,"central":4981,"stock":4982,"unus":4983,"weekend":4984,"glancing":4985,"hunting":4986,"restr":4987,"yanked":4988,"visible":4989,"sunlight":4990,"department":4991,"ni":4992,"$$$ita":4993,"nathan":4994,"struggling":4995,"tray":4996,"fourth":4997,"echoed":4998,"link":4999,"$$$onscious":5000,"available":5001,"20":5002,"satur":5003,"smith":5004,"genuine":5005,"sem":5006,"$$$ulated":5007,"flow":5008,"sacrif":5009,"proceed":5010,"sofa":5011,"exposed":5012,"clearing":5013,"unexpected":5014,"alice":5015,"yards":5016,"$$$rete":5017,"expert":5018,"contain":5019,"garage":5020,"dining":5021,"gy":5022,"valley":5023,"drum":5024,"tapped":5025,"literally":5026,"billy":5027,"grant":5028,"murd":5029,"abandoned":5030,"exit":5031,"adult":5032,"impress":5033,"pros":5034,"admir":5035,"abruptly":5036,"blonde":5037,"vague":5038,"$$$ores":5039,"extended":5040,"fel":5041,"shade":5042,"sensed":5043,"foreign":5044,"dismiss":5045,"bob":5046,"whist":5047,"officers":5048,"$$$ago":5049,"provided":5050,"$$$iana":5051,"cad":5052,"changes":5053,"gap":5054,"enth":5055,"tap":5056,"purch":5057,"frightened":5058,"etern":5059,"satisfied":5060,"centuries":5061,"impat":5062,"arrange":5063,"arched":5064,"cassie":5065,"checking":5066,"intens":5067,"$$$ache":5068,"background":5069,"attached":5070,"ugly":5071,"withd":5072,"$$$ddy":5073,"$$$place":5074,"$$$icles":5075,"$$$arest":5076,"possess":5077,"remains":5078,"ze":5079,"sake":5080,"$$$asha":5081,"$$$eness":5082,"disgust":5083,"$$$ounce":5084,"file":5085,"sooner":5086,"sole":5087,"range":5088,"catching":5089,"stones":5090,"liam":5091,"gabriel":5092,"straightened":5093,"colored":5094,"vent":5095,"julia":5096,"dot":5097,"roman":5098,"$$$bbled":5099,"$$$ca":5100,"youth":5101,"aust":5102,"lightning":5103,"les":5104,"brad":5105,"content":5106,"appe":5107,"drank":5108,"ends":5109,"tank":5110,"$$$pan":5111,"$$$rant":5112,"champ":5113,"labor":5114,"claimed":5115,"opinion":5116,"glare":5117,"appreciate":5118,"mechan":5119,"emerged":5120,"heal":5121,"jun":5122,"leaders":5123,"keeps":5124,"curse":5125,"rip":5126,"idiot":5127,"potential":5128,"$$$iven":5129,"birds":5130,"lee":5131,"dumb":5132,"$$$imm":5133,"cher":5134,"explanation":5135,"$$$bl":5136,"lex":5137,"provide":5138,"happiness":5139,"$$$ode":5140,"trigg":5141,"diam":5142,"rate":5143,"stepping":5144,"symb":5145,"$$$ona":5146,"pow":5147,"halfway":5148,"$$$ulate":5149,"$$$isions":5150,"$$$stand":5151,"carl":5152,"march":5153,"chann":5154,"$$$eds":5155,"location":5156,"licked":5157,"convince":5158,"ment":5159,"$$$hold":5160,"ivy":5161,"code":5162,"nik":5163,"consequ":5164,"$$$bur":5165,"wise":5166,"horiz":5167,"recent":5168,"gorgeous":5169,"jay":5170,"tough":5171,"falls":5172,"hitting":5173,"complic":5174,"version":5175,"metho":5176,"guessed":5177,"punch":5178,"serve":5179,"$$$oms":5180,"fence":5181,"pra":5182,"sip":5183,"pleasant":5184,"$$$cell":5185,"circumstances":5186,"cere":5187,"$$$uded":5188,"paris":5189,"tense":5190,"fingert":5191,"trace":5192,"ladies":5193,"rat":5194,"minds":5195,"passage":5196,"revealed":5197,"sched":5198,"appl":5199,"scen":5200,"runs":5201,"ali":5202,"sean":5203,"dial":5204,"steve":5205,"thread":5206,"flame":5207,"slapped":5208,"vulner":5209,"scramb":5210,"balls":5211,"cigarette":5212,"bi":5213,"$$$han":5214,"hay":5215,"magaz":5216,"intim":5217,"paint":5218,"lust":5219,"kim":5220,"finan":5221,"$$$field":5222,"dean":5223,"argue":5224,"eased":5225,"value":5226,"honestly":5227,"afric":5228,"beard":5229,"urg":5230,"$$$inger":5231,"$$$anches":5232,"forcing":5233,"detective":5234,"famous":5235,"gestured":5236,"unkn":5237,"bri":5238,"birthday":5239,"concrete":5240,"depth":5241,"spending":5242,"threatened":5243,"$$$fl":5244,"snorted":5245,"allowing":5246,"intention":5247,"slowed":5248,"pockets":5249,"dise":5250,"grasp":5251,"$$$walk":5252,"hi":5253,"$$$time":5254,"laws":5255,"seated":5256,"connor":5257,"courage":5258,"amy":5259,"cage":5260,"violence":5261,"$$$ato":5262,"trent":5263,"casual":5264,"student":5265,"$$$vit":5266,"holly":5267,"rifle":5268,"newsp":5269,"$$$vet":5270,"studying":5271,"subst":5272,"pregnant":5273,"crystal":5274,"biggest":5275,"toes":5276,"chocol":5277,"tess":5278,"carpet":5279,"expensive":5280,"issues":5281,"feared":5282,"vio":5283,"loyal":5284,"$$$bly":5285,"$$$dle":5286,"strate":5287,"beam":5288,"argument":5289,"$$$rating":5290,"$$$jected":5291,"flin":5292,"curios":5293,"invisible":5294,"cruel":5295,"core":5296,"$$$sters":5297,"eddie":5298,"patted":5299,"driven":5300,"embarrassed":5301,"noted":5302,"danny":5303,"$$$ples":5304,"liber":5305,"deliber":5306,"contem":5307,"england":5308,"spear":5309,"cases":5310,"justice":5311,"mob":5312,"racing":5313,"nails":5314,"clar":5315,"frequ":5316,"centre":5317,"$$$erence":5318,"cousin":5319,"cursed":5320,"caut":5321,"warned":5322,"offering":5323,"myster":5324,"armed":5325,"democr":5326,"blink":5327,"$$$inkled":5328,"$$$iron":5329,"sunday":5330,"stroked":5331,"drugs":5332,"girlfriend":5333,"$$$vert":5334,"$$$coming":5335,"rab":5336,"veins":5337,"struggle":5338,"secure":5339,"fourteen":5340,"$$$orter":5341,"$$$rey":5342,"remembering":5343,"sout":5344,"$$$ension":5345,"clas":5346,"brilliant":5347,"approaching":5348,"marked":5349,"roland":5350,"$$$urally":5351,"$$$osop":5352,"kend":5353,"snap":5354,"sheets":5355,"corpor":5356,"gran":5357,"lam":5358,"$$$oops":5359,"ox":5360,"$$$ints":5361,"legal":5362,"$$$back":5363,"bowed":5364,"grief":5365,"bars":5366,"gown":5367,"sees":5368,"belonged":5369,"driveway":5370,"unp":5371,"basically":5372,"entert":5373,"gw":5374,"dece":5375,"unh":5376,"mont":5377,"precise":5378,"nest":5379,"wiz":5380,"uncertain":5381,"$$$itar":5382,"shaped":5383,"$$$hell":5384,"audience":5385,"guide":5386,"shining":5387,"$$$illa":5388,"habit":5389,"shy":5390,"marks":5391,"prior":5392,"insane":5393,"kay":5394,"$$$mit":5395,"accompl":5396,"teach":5397,"scru":5398,"riley":5399,"quarter":5400,"fairly":5401,"raising":5402,"sail":5403,"delicate":5404,"barn":5405,"pages":5406,"$$$aky":5407,"$$$aud":5408,"assume":5409,"$$$org":5410,"exclaimed":5411,"bothered":5412,"eyel":5413,"behavior":5414,"rhyth":5415,"nipp":5416,"groups":5417,"fake":5418,"swing":5419,"laz":5420,"hid":5421,"trusted":5422,"stall":5423,"mud":5424,"rapidly":5425,"advent":5426,"nerves":5427,"curiosity":5428,"philosop":5429,"intelligence":5430,"gasp":5431,"silly":5432,"overhead":5433,"$$$hest":5434,"strode":5435,"function":5436,"confront":5437,"mixed":5438,"rome":5439,"emotional":5440,"barb":5441,"forgive":5442,"bang":5443,"$$$urs":5444,"covers":5445,"popular":5446,"defend":5447,"separate":5448,"drinks":5449,"$$$olved":5450,"louder":5451,"ri":5452,"photograph":5453,"branches":5454,"parted":5455,"cord":5456,"claws":5457,"$$$cle":5458,"elder":5459,"collapsed":5460,"havent":5461,"$$$gen":5462,"lan":5463,"kingdom":5464,"$$$don":5465,"spinning":5466,"deserve":5467,"stops":5468,"$$$itches":5469,"haul":5470,"violet":5471,"$$$ran":5472,"$$$atherine":5473,"guests":5474,"$$$reg":5475,"maggie":5476,"dere":5477,"thirteen":5478,"lucy":5479,"scri":5480,"$$$lock":5481,"crown":5482,"marcus":5483,"$$$azz":5484,"shuff":5485,"craft":5486,"alcohol":5487,"tracks":5488,"$$$iture":5489,"crash":5490,"movements":5491,"pee":5492,"raven":5493,"serge":5494,"exchange":5495,"kinds":5496,"precious":5497,"brut":5498,"disbel":5499,"wrap":5500,"$$$usi":5501,"virt":5502,"trap":5503,"chem":5504,"doct":5505,"tub":5506,"$$$ait":5507,"skills":5508,"photo":5509,"boot":5510,"$$$inating":5511,"territ":5512,"increasing":5513,"specific":5514,"ja":5515,"$$$we":5516,"patient":5517,"passenger":5518,"jacob":5519,"represent":5520,"professional":5521,"treated":5522,"sharply":5523,"$$$fall":5524,"exer":5525,"random":5526,"drops":5527,"advice":5528,"feather":5529,"described":5530,"$$$umn":5531,"sid":5532,"hello":5533,"jace":5534,"fruit":5535,"equip":5536,"$$$ixt":5537,"aug":5538,"holiday":5539,"strip":5540,"zero":5541,"$$$sec":5542,"rushing":5543,"gathering":5544,"dealing":5545,"saturday":5546,"martin":5547,"motor":5548,"$$$asty":5549,"realizing":5550,"mall":5551,"novel":5552,"exploded":5553,"trunk":5554,"victoria":5555,"$$$ooped":5556,"distracted":5557,"guest":5558,"transl":5559,"$$$urance":5560,"reveal":5561,"susan":5562,"jean":5563,"chocolate":5564,"bomb":5565,"haired":5566,"$$$ordan":5567,"lux":5568,"scattered":5569,"warriors":5570,"robe":5571,"positive":5572,"tam":5573,"proof":5574,"wicked":5575,"assass":5576,"hunger":5577,"cards":5578,"squeeze":5579,"defense":5580,"basket":5581,"wren":5582,"$$$nat":5583,"pistol":5584,"stead":5585,"western":5586,"remote":5587,"impression":5588,"deserved":5589,"rhythm":5590,"invited":5591,"corners":5592,"slipping":5593,"saving":5594,"swallow":5595,"$$$eline":5596,"likes":5597,"diamond":5598,"shorts":5599,"enemies":5600,"environ":5601,"countries":5602,"squir":5603,"boxes":5604,"kal":5605,"trump":5606,"stol":5607,"$$$wol":5608,"crawled":5609,"grinning":5610,"amused":5611,"rod":5612,"$$$ta":5613,"jackson":5614,"announced":5615,"eaten":5616,"unknown":5617,"humor":5618,"blo":5619,"sara":5620,"loves":5621,"analy":5622,"midnight":5623,"shuddered":5624,"$$$ado":5625,"mans":5626,"daily":5627,"fog":5628,"embrace":5629,"colors":5630,"amuse":5631,"ripp":5632,"suc":5633,"charged":5634,"bleeding":5635,"$$$cra":5636,"equipment":5637,"singing":5638,"morgan":5639,"hook":5640,"$$$inate":5641,"enthusi":5642,"$$$riff":5643,"absor":5644,"jet":5645,"mum":5646,"journal":5647,"reaches":5648,"marg":5649,"$$$uary":5650,"theyd":5651,"weve":5652,"highly":5653,"handful":5654,"$$$ops":5655,"chlo":5656,"fund":5657,"violent":5658,"bored":5659,"bac":5660,"screams":5661,"milk":5662,"wrists":5663,"$$$gment":5664,"$$$uel":5665,"$$$do":5666,"abby":5667,"sits":5668,"begins":5669,"retrie":5670,"$$$etic":5671,"gain":5672,"wre":5673,"click":5674,"workers":5675,"hopefully":5676,"platform":5677,"stress":5678,"media":5679,"muff":5680,"$$$isy":5681,"johnny":5682,"belief":5683,"shouting":5684,"proved":5685,"figures":5686,"alien":5687,"revealing":5688,"constantly":5689,"seats":5690,"eu":5691,"arrive":5692,"consciousness":5693,"bust":5694,"greatest":5695,"disappointed":5696,"anxious":5697,"owned":5698,"structure":5699,"cute":5700,"scanned":5701,"puff":5702,"edges":5703,"roar":5704,"season":5705,"jail":5706,"jap":5707,"reven":5708,"commander":5709,"glit":5710,"$$$inese":5711,"knuck":5712,"wounds":5713,"sinc":5714,"instit":5715,"altern":5716,"film":5717,"$$$tery":5718,"assured":5719,"$$$ingly":5720,"shattered":5721,"unusual":5722,"clue":5723,",\"":5724,"$$$aren":5725,"incredible":5726,"$$$bi":5727,"flicked":5728,"derek":5729,"$$$awk":5730,"prompt":5731,"$$$stone":5732,"rene":5733,"knocking":5734,"unlo":5735,"$$$olas":5736,"laughs":5737,"$$$aph":5738,"virgin":5739,"digging":5740,"succeed":5741,"empire":5742,"$$$--":5743,"werent":5744,"treas":5745,"china":5746,"jere":5747,"histor":5748,"knot":5749,"fingertips":5750,"hollow":5751,"unconscious":5752,"excell":5753,"caleb":5754,"$$$ties":5755,"stretch":5756,"$$$osing":5757,"nearest":5758,"ache":5759,"circles":5760,"daddy":5761,"throne":5762,"useful":5763,"jobs":5764,"$$$ulted":5765,"illum":5766,"adjust":5767,"ruth":5768,"$$$idding":5769,"owner":5770,"friday":5771,"$$$otte":5772,"suffering":5773,"$$$ij":5774,"rarely":5775,"opens":5776,"switch":5777,"shivered":5778,"furniture":5779,"$$$atives":5780,"wink":5781,"admin":5782,"spare":5783,"successful":5784,"chinese":5785,"element":5786,"thorough":5787,"gav":5788,"knelt":5789,"fangs":5790,"aston":5791,"goal":5792,"nud":5793,"flushed":5794,"$$$nda":5795,"airport":5796,"false":5797,"hills":5798,"brave":5799,"stern":5800,"floating":5801,"perman":5802,"joseph":5803,"remove":5804,"rh":5805,"lace":5806,"financial":5807,"bart":5808,"betray":5809,"$$$erie":5810,"fields":5811,"$$$icient":5812,"satisfaction":5813,"crept":5814,"seek":5815,"efforts":5816,"$$$rees":5817,"option":5818,"upward":5819,"lawn":5820,"estate":5821,"puts":5822,"chloe":5823,"degree":5824,"distinct":5825,"matthew":5826,"pounds":5827,"lin":5828,"sought":5829,"helen":5830,"oak":5831,"survived":5832,"nervously":5833,"string":5834,"tempor":5835,"teasing":5836,"amber":5837,"maid":5838,"chic":5839,"tab":5840,"dried":5841,"murmured":5842,"ought":5843,"dod":5844,"alt":5845,"existed":5846,"results":5847,"answering":5848,"exerc":5849,"$$$epend":5850,"jol":5851,"homes":5852,"glances":5853,"dragging":5854,"lun":5855,"designed":5856,"$$$iated":5857,"measure":5858,"punched":5859,"gang":5860,"furious":5861,"duke":5862,"compared":5863,"steam":5864,"included":5865,"vic":5866,"$$$iable":5867,"directions":5868,"creep":5869,"alert":5870,"whit":5871,"reck":5872,"$$$ooks":5873,"bold":5874,"$$$ament":5875,"magical":5876,"sentence":5877,"deny":5878,"sleeve":5879,"tuck":5880,"authority":5881,"wolves":5882,"emergency":5883,"hyp":5884,"tasted":5885,"responsibility":5886,"model":5887,"micro":5888,"cops":5889,"ordinary":5890,"bee":5891,"jordan":5892,"resem":5893,"sheriff":5894,"mia":5895,"stolen":5896,"glimp":5897,"stagg":5898,"environment":5899,"ped":5900,"breaths":5901,"sandw":5902,"climbing":5903,"chicken":5904,"louis":5905,"stuffed":5906,"cloak":5907,"salt":5908,"sons":5909,"japan":5910,"$$$bble":5911,"chaos":5912,"$$$raged":5913,"fled":5914,"fet":5915,"glimpse":5916,"$$$isc":5917,"$$$over":5918,"nightmare":5919,"kelly":5920,"insist":5921,"moist":5922,"produced":5923,"apr":5924,"species":5925,"crowded":5926,"delicious":5927,"$$$ification":5928,"$$$gl":5929,"dagger":5930,"wounded":5931,"clutched":5932,"tristan":5933,"lawyer":5934,"$$$oot":5935,"snake":5936,"lover":5937,"bor":5938,"upright":5939,"corn":5940,"earn":5941,"independ":5942,"werewol":5943,"lamp":5944,"threatening":5945,"contained":5946,"hissed":5947,"$$$arch":5948,"gradu":5949,"population":5950,"ast":5951,"ribs":5952,"quality":5953,"saint":5954,"signal":5955,"hannah":5956,"trem":5957,"gates":5958,"recover":5959,"areas":5960,"kevin":5961,"horizon":5962,"closest":5963,"bike":5964,"shifting":5965,"citizens":5966,"flag":5967,"holes":5968,"technology":5969,"gage":5970,"patience":5971,"impressed":5972,"miser":5973,"$$$iah":5974,"waters":5975,"danced":5976,"pig":5977,"healthy":5978,"$$$inda":5979,"limbs":5980,"curve":5981,"dram":5982,"influence":5983,"shap":5984,"movies":5985,"$$$lights":5986,"shopping":5987,"lobby":5988,"football":5989,"acade":5990,"annoyed":5991,"$$$umph":5992,"breasts":5993,"evan":5994,"zomb":5995,"$$$ada":5996,"accent":5997,"developed":5998,"sidewalk":5999,"appears":6000,"mystery":6001,"imagination":6002,"attempted":6003,"ais":6004,"motioned":6005,"gul":6006,"$$$sp":6007,"asse":6008,"forms":6009,"$$$mber":6010,"foolish":6011,"$$$riate":6012,"classes":6013,"waving":6014,"pity":6015,"vulnerable":6016,"crashed":6017,"jewel":6018,"$$$rom":6019,"wire":6020,"sheer":6021,"deadly":6022,"signed":6023,"rescue":6024,"economic":6025,"wishing":6026,"sugar":6027,"vig":6028,"bubb":6029,"trailed":6030,"anti":6031,"10":6032,"panties":6033,"$$$beat":6034,"eleg":6035,"amusement":6036,"$$$vor":6037,"moaned":6038,"nodding":6039,"tape":6040,"mand":6041,"pear":6042,"arent":6043,"resour":6044,"$$$mar":6045,"$$$bre":6046,"coach":6047,"endless":6048,"shots":6049,"tipped":6050,"$$$rence":6051,"cheese":6052,"entry":6053,"disbelief":6054,"$$$ige":6055,"ending":6056,"ms":6057,"increased":6058,"diver":6059,"franc":6060,"cough":6061,"$$$lan":6062,"glor":6063,"whipped":6064,"becomes":6065,"revolution":6066,"kicking":6067,"mortal":6068,"immediate":6069,"calcul":6070,"$$$com":6071,"origin":6072,"$$$rap":6073,"immort":6074,"require":6075,"dow":6076,"surge":6077,"$$$iger":6078,"leans":6079,"ga":6080,"jenny":6081,"investigation":6082,"russian":6083,"possessed":6084,"arranged":6085,"sensitive":6086,"adop":6087,"overl":6088,"lic":6089,"lod":6090,"$$$oud":6091,"occasionally":6092,"isa":6093,"marble":6094,"lane":6095,"patch":6096,"colin":6097,"tighter":6098,"shrug":6099,"roared":6100,"carved":6101,"wandered":6102,"affect":6103,"incident":6104,"mothers":6105,"creating":6106,"incredibly":6107,"education":6108,"eggs":6109,"jonathan":6110,"affection":6111,"crossing":6112,"$$$ees":6113,"$$$bor":6114,"$$$oid":6115,"sharing":6116,"commit":6117,"$$$oul":6118,"jerk":6119,"$$$apping":6120,"angle":6121,"flex":6122,"erupt":6123,"underw":6124,"nan":6125,"myth":6126,"$$$tt":6127,"mattress":6128,"helpless":6129,"naturally":6130,"straw":6131,"flowing":6132,"trial":6133,"reser":6134,"shortly":6135,"$$$aze":6136,"religious":6137,"mam":6138,"anxiety":6139,"terr":6140,"twin":6141,"fifth":6142,"emper":6143,"calif":6144,"bun":6145,"suffer":6146,"mild":6147,"az":6148,"flower":6149,"anticipation":6150,"activity":6151,"$$$ville":6152,"suffered":6153,"captured":6154,"$$$oning":6155,"dollar":6156,"lied":6157,"$$$entially":6158,"france":6159,"uh":6160,"lands":6161,"quiver":6162,"$$$ylan":6163,"drawer":6164,"properly":6165,"lor":6166,"neighborhood":6167,"booth":6168,"arrival":6169,"trib":6170,"stroke":6171,"plants":6172,"shaft":6173,"charlotte":6174,"agony":6175,"doubted":6176,"stubb":6177,"ruin":6178,"southern":6179,"ec":6180,"$$$ifer":6181,"reflection":6182,"spite":6183,"ducked":6184,"kings":6185,"dave":6186,"delivered":6187,"jumping":6188,"crad":6189,"zach":6190,"branch":6191,"dwar":6192,"accompan":6193,"sheep":6194,"lev":6195,"armor":6196,"approp":6197,"folks":6198,"steal":6199,"$$$lim":6200,"items":6201,"souls":6202,"protected":6203,"policy":6204,"rag":6205,"childhood":6206,"crouched":6207,"acted":6208,"darted":6209,"$$$kins":6210,"winked":6211,"swiftly":6212,"campa":6213,"bits":6214,"photos":6215,"disease":6216,"disappointment":6217,"justin":6218,"frost":6219,"experi":6220,"choked":6221,"californ":6222,"$$$mond":6223,"servants":6224,"unit":6225,"backs":6226,"minor":6227,"blocks":6228,"blowing":6229,"$$$lings":6230,"supply":6231,"introduced":6232,"cheap":6233,"contempl":6234,"brushing":6235,"ruined":6236,"placing":6237,"attitude":6238,"plung":6239,"lately":6240,"intr":6241,"related":6242,"injured":6243,"fears":6244,"$$$iles":6245,"august":6246,"candle":6247,"dish":6248,"torture":6249,"exhaust":6250,"nation":6251,"cocked":6252,"international":6253,"fancy":6254,"contents":6255,"sadness":6256,"supplies":6257,"rings":6258,"$$$nn":6259,"alar":6260,"reported":6261,"atl":6262,"$$$ums":6263,"$$$pher":6264,"$$$ggy":6265,"decisions":6266,"$$$rowed":6267,"$$$ae":6268,"generally":6269,"$$$ost":6270,"suspicious":6271,"outf":6272,"culture":6273,"od":6274,"growl":6275,"alright":6276,"fathers":6277,"$$$azed":6278,"mack":6279,"physically":6280,"basic":6281,"carriage":6282,"$$$mend":6283,"frustrated":6284,"oblig":6285,"$$$ships":6286,"mattered":6287,"$$$elling":6288,"$$$alled":6289,"route":6290,"development":6291,"flung":6292,"multip":6293,"goddess":6294,"hurting":6295,"jax":6296,"washington":6297,"equally":6298,"goodby":6299,"amanda":6300,"backp":6301,"anton":6302,"sounding":6303,"$$$attering":6304,"standard":6305,"wherever":6306,"select":6307,"winced":6308,"bore":6309,"quit":6310,"$$$hawk":6311,"equal":6312,"$$$asper":6313,"py":6314,"dating":6315,"victory":6316,"$$$izes":6317,"ves":6318,"tips":6319,"complicated":6320,"ric":6321,"fleet":6322,"$$$arian":6323,"lege":6324,"wrapping":6325,"pilot":6326,"director":6327,"instr":6328,"alexander":6329,"lonely":6330,"parties":6331,"discussion":6332,"scrambled":6333,"transfer":6334,"$$$rection":6335,"sant":6336,"corp":6337,"ellie":6338,"slave":6339,"sideways":6340,"$$$itty":6341,"sophie":6342,"stack":6343,"expand":6344,"drake":6345,"seeking":6346,"$$$bles":6347,"device":6348,"tale":6349,"weakness":6350,"twisting":6351,"swinging":6352,"sets":6353,"$$$craft":6354,"$$$omp":6355,"dee":6356,"flashing":6357,"preferred":6358,"sergeant":6359,"reception":6360,"bolt":6361,"gif":6362,"rein":6363,"explosion":6364,"decent":6365,"pretending":6366,"$$$iev":6367,"cleaning":6368,"jesse":6369,"internet":6370,"chances":6371,"glob":6372,"$$$lers":6373,"california":6374,"mercy":6375,"informed":6376,"shone":6377,"egy":6378,"tyler":6379,"happily":6380,"engage":6381,"ded":6382,"troops":6383,"aching":6384,"cupped":6385,"$$$ailed":6386,"stained":6387,"jar":6388,"sneak":6389,"egypt":6390,"elbows":6391,"curved":6392,"intensity":6393,"finn":6394,"americans":6395,"makeup":6396,"shrie":6397,"friendship":6398,"cities":6399,"currently":6400,"nasty":6401,"laptop":6402,"pouring":6403,"$$$utions":6404,"healing":6405,"shove":6406,"excellent":6407,"loaded":6408,"pounded":6409,"directed":6410,"ragged":6411,"ath":6412,"forb":6413,"clicked":6414,"sore":6415,"clan":6416,"highway":6417,"overwhelming":6418,"reput":6419,"$$$rol":6420,"basement":6421,"halt":6422,"review":6423,"las":6424,"mexic":6425,"inevit":6426,"bald":6427,"inspect":6428,"monday":6429,"shiny":6430,"dylan":6431,"realm":6432,"$$$rison":6433,"$$$gun":6434,"border":6435,"snatched":6436,"grav":6437,"spray":6438,"sire":6439,"fond":6440,"lifet":6441,"visited":6442,"freak":6443,"alph":6444,"tug":6445,"nich":6446,"tay":6447,"separated":6448,"$$$abor":6449,"julie":6450,"accur":6451,"scow":6452,"melted":6453,"greeted":6454,"dante":6455,"swords":6456,"fairy":6457,"useless":6458,"levels":6459,"indian":6460,"boun":6461,"darkened":6462,"insp":6463,"interior":6464,"personally":6465,"$$$icted":6466,"spreading":6467,"limited":6468,"apple":6469,"prick":6470,"$$$zzy":6471,"$$$ila":6472,"scout":6473,"utterly":6474,"envel":6475,"dip":6476,"$$$umed":6477,"wow":6478,"alec":6479,"transport":6480,"stirred":6481,"conference":6482,"atm":6483,"brings":6484,"rim":6485,"bearing":6486,"operation":6487,"youd":6488,"bark":6489,"sucking":6490,"envelope":6491,"$$$fire":6492,"stubborn":6493,"tack":6494,"benefit":6495,"$$$emon":6496,"reports":6497,"decades":6498,"$$$nis":6499,"attractive":6500,"bind":6501,"crushed":6502,"oct":6503,"assault":6504,"cotton":6505,"negot":6506,"$$$olve":6507,"distr":6508,"permission":6509,"moonlight":6510,"records":6511,"spirits":6512,"ay":6513,"haz":6514,"$$$ibilities":6515,"transp":6516,"bye":6517,"clutching":6518,"laura":6519,"$$$iveness":6520,"$$$da":6521,"quarters":6522,"$$$imately":6523,"trembled":6524,"$$$ros":6525,"trash":6526,"senior":6527,"arth":6528,"committed":6529,"trigger":6530,"$$$andra":6531,"gym":6532,"grandp":6533,"aimed":6534,"anth":6535,"propos":6536,"obsc":6537,"nerve":6538,"cake":6539,"fox":6540,"ps":6541,"gavin":6542,"roger":6543,"prepare":6544,"$$$ua":6545,"stares":6546,"doctors":6547,"$$$rily":6548,"hopes":6549,"controlled":6550,"web":6551,"persu":6552,"$$$ula":6553,"magazine":6554,"waking":6555,"safely":6556,"messages":6557,"troll":6558,"emph":6559,"leapt":6560,"clung":6561,"symbol":6562,"campaign":6563,"$$$edy":6564,"lesson":6565,"collection":6566,"shimm":6567,"latest":6568,"confirmed":6569,"len":6570,"tries":6571,"$$$iar":6572,"leads":6573,"murdered":6574,"concept":6575,"reflected":6576,"preparing":6577,"devon":6578,"$$$win":6579,"chicago":6580,"surrender":6581,"assistant":6582,"swore":6583,"yelling":6584,"companion":6585,"conqu":6586,"$$$jo":6587,"unre":6588,"aven":6589,"beings":6590,"systems":6591,"cries":6592,"bron":6593,"$$$asses":6594,"territory":6595,"stool":6596,"method":6597,"assemb":6598,"jenn":6599,"edward":6600,"lect":6601,"stole":6602,"colonel":6603,"duck":6604,"veget":6605,"emperor":6606,"services":6607,"mason":6608,"annie":6609,"$$$acles":6610,"blocked":6611,"$$$li":6612,"spilled":6613,"exchanged":6614,"conduct":6615,"tooth":6616,"$$$iation":6617,"planted":6618,"excl":6619,"$$$va":6620,"smoot":6621,"$$$ban":6622,"pir":6623,"merc":6624,"newspaper":6625,"$$$idents":6626,"outer":6627,"backwards":6628,"agents":6629,"todd":6630,"region":6631,"spat":6632,"patrick":6633,"obey":6634,"hired":6635,"knuckles":6636,"terrif":6637,"landsc":6638,"romantic":6639,"jimmy":6640,"giggled":6641,"$$$rett":6642,"wildly":6643,"$$$ola":6644,"amel":6645,"icy":6646,"entering":6647,"huh":6648,"marie":6649,"backpack":6650,"$$$osphere":6651,"dal":6652,"sorts":6653,"mysterious":6654,"$$$ilet":6655,"heated":6656,"$$$ini":6657,"ara":6658,"ras":6659,"effects":6660,"soaked":6661,"biting":6662,"ital":6663,"companies":6664,"triumph":6665,"kyle":6666,"status":6667,"los":6668,"orgasm":6669,"dared":6670,"jeremy":6671,"jill":6672,"bend":6673,"$$$iring":6674,"writ":6675,"located":6676,"average":6677,"sang":6678,"rit":6679,"rack":6680,"describe":6681,"flee":6682,"manager":6683,"$$$erald":6684,"gentleman":6685,"scary":6686,"routine":6687,"$$$osure":6688,"jessica":6689,"muse":6690,"$$$ulty":6691,"curls":6692,"clever":6693,"combat":6694,"$$$lying":6695,"$$$mark":6696,"tact":6697,"cub":6698,"ai":6699,"grunted":6700,"keen":6701,"adrian":6702,"dripping":6703,"gig":6704,"prime":6705,"stephen":6706,"$$$ugging":6707,"staircase":6708,"$$$unting":6709,"buff":6710,"sorrow":6711,"$$$mate":6712,"engaged":6713,"qual":6714,"pinned":6715,"sup":6716,"dock":6717,"surprisingly":6718,"$$$tail":6719,"rounded":6720,"maria":6721,"fortune":6722,"$$$enced":6723,"meg":6724,"reward":6725,"courty":6726,"anch":6727,"aspect":6728,"kil":6729,"rav":6730,"teaching":6731,"gem":6732,"casually":6733,"schol":6734,"pitch":6735,"ringing":6736,"ree":6737,"exception":6738,"observ":6739,"sparhawk":6740,"facts":6741,"sophia":6742,"sticking":6743,"heartbeat":6744,"grind":6745,"$$$ques":6746,"traveled":6747,"transform":6748,"tearing":6749,"slumped":6750,"guar":6751,"heel":6752,"acknowled":6753,"$$$while":6754,"curtain":6755,"hind":6756,"defeat":6757,"manip":6758,"ached":6759,"madd":6760,"outs":6761,"title":6762,"millions":6763,"achieve":6764,"swoll":6765,"$$$ste":6766,"ton":6767,"charm":6768,"descended":6769,"underground":6770,"shelter":6771,"site":6772,"plates":6773,"occupied":6774,"$$$uish":6775,"dipped":6776,"hut":6777,"mane":6778,"victims":6779,"flowed":6780,"sust":6781,"bottles":6782,"criminal":6783,"blown":6784,"identity":6785,"$$$asant":6786,"brid":6787,"$$$ari":6788,"bom":6789,"$$$ested":6790,"solution":6791,"unique":6792,"clam":6793,"hatred":6794,"article":6795,"$$$idently":6796,"hesitation":6797,"swollen":6798,"gwen":6799,"striking":6800,"hearts":6801,"melissa":6802,"replace":6803,"reluctantly":6804,"tools":6805,"nu":6806,"$$$ublic":6807,"quinn":6808,"funeral":6809,"kane":6810,"$$$ware":6811,"loos":6812,"scree":6813,"$$$aid":6814,"stake":6815,"$$$hand":6816,"client":6817,"compound":6818,"grounds":6819,"steep":6820,"$$$enses":6821,"balc":6822,"recalled":6823,"um":6824,"instructions":6825,"toler":6826,"spraw":6827,"drained":6828,"memor":6829,"sized":6830,"prospect":6831,"begging":6832,"flor":6833,"prey":6834,"advanced":6835,"$$$rin":6836,"seized":6837,"reputation":6838,"outl":6839,"$$$encer":6840,"folk":6841,"counted":6842,"scale":6843,"switched":6844,"colt":6845,"aloud":6846,"traced":6847,"questioned":6848,"sty":6849,"$$$gue":6850,"finds":6851,"worlds":6852,"destruction":6853,"contrib":6854,"$$$iona":6855,"severe":6856,"$$$inity":6857,"arc":6858,"wipe":6859,"slim":6860,"strangely":6861,"gloves":6862,"indicated":6863,"pod":6864,"cleaned":6865,"ensure":6866,"republic":6867,"$$$lement":6868,"$$$mes":6869,"swimming":6870,"spider":6871,"confl":6872,"tin":6873,"load":6874,"$$$anor":6875,"rent":6876,"doz":6877,"$$$ivity":6878,"judgment":6879,"salv":6880,"floated":6881,"stretching":6882,"pony":6883,"stark":6884,"protective":6885,"astr":6886,"begged":6887,"$$$iate":6888,"religion":6889,"balcony":6890,"scarlet":6891,"unsure":6892,"lump":6893,"player":6894,"ware":6895,"$$$sect":6896,"administ":6897,"goodbye":6898,"initial":6899,"compass":6900,"$$$mod":6901,"yawn":6902,"$$$icide":6903,"rolls":6904,"protecting":6905,"noble":6906,"molly":6907,"rocked":6908,"alongside":6909,"$$$aron":6910,"fork":6911,"transf":6912,"consequences":6913,"gripping":6914,"declared":6915,"owen":6916,"ba":6917,"hank":6918,"shane":6919,"$$$iece":6920,"ankle":6921,"$$$ays":6922,"$$$usive":6923,"$$$opes":6924,"commer":6925,"failure":6926,"$$$atter":6927,"interp":6928,"servant":6929,"courtyard":6930,"jones":6931,"smoking":6932,"math":6933,"subtle":6934,"penet":6935,"significant":6936,"rude":6937,"$$$boy":6938,"cavern":6939,"$$$eenth":6940,"cos":6941,"hits":6942,"traveling":6943,"helic":6944,"online":6945,"tensed":6946,"trevor":6947,"conditions":6948,"twins":6949,"grabs":6950,"$$$natural":6951,"fever":6952,"examined":6953,"cush":6954,"receive":6955,"$$$unte":6956,"scot":6957,"lifetime":6958,"$$$rael":6959,"$$$aline":6960,"stiffened":6961,"chains":6962,"hunters":6963,"sab":6964,"leon":6965,"freaking":6966,"scowled":6967,"stated":6968,"india":6969,"mug":6970,"$$$agers":6971,"que":6972,"stan":6973,"spit":6974,"toe":6975,"cooking":6976,"continues":6977,"wizard":6978,"circled":6979,"$$$ulously":6980,"northern":6981,"duncan":6982,"barrel":6983,"toy":6984,"teased":6985,"ink":6986,"shelf":6987,"granted":6988,"neckl":6989,"secretary":6990,"divor":6991,"needing":6992,"$$$ucing":6993,"$$$rim":6994,"hammer":6995,"garion":6996,"crashing":6997,"minister":6998,"bounced":6999,"brandon":7000,"growth":7001,"nipple":7002,"limp":7003,"$$$ifying":7004,"sacrifice":7005,"bride":7006,"miranda":7007,"remo":7008,"cath":7009,"$$$force":7010,"revenge":7011,"lid":7012,"observed":7013,"impl":7014,"alb":7015,"helmet":7016,"monsters":7017,"sweater":7018,"refuse":7019,"slick":7020,"despair":7021,"prisoner":7022,"dwarf":7023,"goss":7024,"options":7025,"slo":7026,"squad":7027,"talent":7028,"nostr":7029,"june":7030,"addition":7031,"$$$esome":7032,"aged":7033,"dreamed":7034,"mentally":7035,"volunte":7036,"bullets":7037,"grasped":7038,"prayer":7039,"bless":7040,"frowning":7041,"intimate":7042,"lion":7043,"recon":7044,"hem":7045,"vessel":7046,"brace":7047,"atmosphere":7048,"concentrate":7049,"jung":7050,"crawl":7051,"swip":7052,"flickered":7053,"helicop":7054,"roughly":7055,"daemon":7056,"greek":7057,"buttons":7058,"pine":7059,"awa":7060,"lick":7061,"parl":7062,"heather":7063,"whispers":7064,"compre":7065,"cells":7066,"$$$oured":7067,"confirm":7068,"nina":7069,"root":7070,"privacy":7071,"babies":7072,"treatment":7073,"seemingly":7074,"slender":7075,"dorm":7076,"scare":7077,"punishment":7078,"avoiding":7079,"impul":7080,"pete":7081,"ador":7082,"$$$ika":7083,"miserable":7084,"$$$heart":7085,"$$$hens":7086,"stroking":7087,"viv":7088,"pretended":7089,"coinc":7090,"puzzled":7091,"horn":7092,"suspicion":7093,"conven":7094,"improve":7095,"shallow":7096,"$$$col":7097,"ladder":7098,"tangled":7099,"plot":7100,"$$$ended":7101,"illeg":7102,"strained":7103,"internal":7104,"subs":7105,"$$$acity":7106,"$$$bell":7107,"presented":7108,"ing":7109,"cabinet":7110,"$$$inge":7111,"minim":7112,"whispering":7113,"isol":7114,"repeat":7115,"$$$unate":7116,"$$$uge":7117,"selfish":7118,"$$$inged":7119,"ny":7120,"whim":7121,"oliver":7122,"shoe":7123,"pizz":7124,"raz":7125,"charming":7126,"$$$bow":7127,"impressive":7128,"combination":7129,"darling":7130,"occasional":7131,"$$$istered":7132,"arrog":7133,"marched":7134,"twent":7135,"ava":7136,"absence":7137,"ky":7138,"discip":7139,"grat":7140,"maintain":7141,"velvet":7142,"formal":7143,"phr":7144,"breed":7145,"$$$hole":7146,"launched":7147,"arthur":7148,"taller":7149,"panting":7150,"politics":7151,"dozens":7152,"appropriate":7153,"boring":7154,"fi":7155,"humanity":7156,"$$$vy":7157,"tool":7158,"ral":7159,"weren":7160,"resources":7161,"floors":7162,"$$$retched":7163,"calmly":7164,"$$$mony":7165,"sel":7166,"assign":7167,"dragons":7168,"deliberately":7169,"melo":7170,"partners":7171,"slamming":7172,"wagon":7173,"flip":7174,"stor":7175,"glowed":7176,"corpse":7177,"sanct":7178,"$$$iser":7179,"questioning":7180,"$$$uten":7181,"$$$resh":7182,"regardless":7183,"particip":7184,"ponder":7185,"continuing":7186,"francis":7187,"recom":7188,"$$$cel":7189,"avoided":7190,"scratched":7191,"forming":7192,"toilet":7193,"darker":7194,"$$$rial":7195,"blades":7196,"gau":7197,"amongst":7198,"roy":7199,"temperature":7200,"statue":7201,"scars":7202,"hooked":7203,"adding":7204,"determination":7205,"invitation":7206,"wan":7207,"$$$isk":7208,"superior":7209,"grimaced":7210,"screwed":7211,"curtains":7212,"basis":7213,"goddam":7214,"regarded":7215,"advance":7216,"kh":7217,"collected":7218,"flared":7219,"prayed":7220,"experiment":7221,"angels":7222,"bund":7223,"navy":7224,"lighting":7225,"griff":7226,"roads":7227,"feeding":7228,"vinc":7229,"limit":7230,"realization":7231,"leaped":7232,"taylor":7233,"channel":7234,"adjusted":7235,"chuckle":7236,"cameras":7237,"affair":7238,"songs":7239,"overt":7240,"cups":7241,"slap":7242,"spencer":7243,"stripped":7244,"fiction":7245,"dressing":7246,"spots":7247,"$$$ulations":7248,"schedule":7249,"miracle":7250,"$$$veled":7251,"afterward":7252,"cann":7253,"$$$idy":7254,"$$$ez":7255,"wy":7256,"earned":7257,"crisis":7258,"humili":7259,"fires":7260,"studies":7261,"produce":7262,"fantasy":7263,"$$$lv":7264,"laying":7265,"hudd":7266,"lisa":7267,"ned":7268,"$$$ulating":7269,"kin":7270,"$$$iments":7271,"scor":7272,"peaceful":7273,"email":7274,"muffled":7275,"syn":7276,"dash":7277,"tag":7278,"andy":7279,"choo":7280,"mounted":7281,"$$$umpled":7282,"ankles":7283,"resistance":7284,"maxim":7285,"performance":7286,"$$$rist":7287,"ridge":7288,"$$$inent":7289,"sinking":7290,"$$$agues":7291,"revel":7292,"thee":7293,"flooded":7294,"adren":7295,"soil":7296,"leaf":7297,"andre":7298,"survey":7299,"tomm":7300,"$$$ikes":7301,"awareness":7302,"ritual":7303,"$$$bal":7304,"daisy":7305,"cuts":7306,"winds":7307,"global":7308,"package":7309,"shirts":7310,"smashed":7311,"$$$uable":7312,"$$$alie":7313,"gradually":7314,"conver":7315,"intrig":7316,"wrest":7317,"thankfully":7318,"gay":7319,"precisely":7320,"$$$bon":7321,"crush":7322,"wigg":7323,"abilities":7324,"$$$ours":7325,"dusty":7326,"ginger":7327,"$$$phy":7328,"conflict":7329,"winning":7330,"$$$izzy":7331,"huff":7332,"italian":7333,"clasped":7334,"$$$mn":7335,"volume":7336,"tiss":7337,"exercise":7338,"buying":7339,"matched":7340,"$$$chers":7341,"tat":7342,"intently":7343,"sally":7344,"corps":7345,"dall":7346,"carter":7347,"construct":7348,"kidna":7349,"devast":7350,"demanding":7351,"ages":7352,"$$$rors":7353,"ramp":7354,"bobby":7355,"typical":7356,"nostrils":7357,"matching":7358,"organization":7359,"draped":7360,"contrast":7361,"tas":7362,"gn":7363,"gained":7364,"?\"":7365,"waitress":7366,"exhaled":7367,"vote":7368,"$$$isher":7369,"$$$ga":7370,"affected":7371,"aria":7372,"candy":7373,"elegant":7374,"katie":7375,"stable":7376,"$$$mates":7377,"revol":7378,"beaten":7379,"attacks":7380,"cler":7381,"$$$ida":7382,"flashlight":7383,"atop":7384,"$$$ria":7385,"warn":7386,"$$$antically":7387,"merch":7388,"$$$itors":7389,"dwell":7390,"sports":7391,"elena":7392,"obliv":7393,"pave":7394,"18":7395,"glim":7396,"constit":7397,"lieuten":7398,"economy":7399,"$$$esty":7400,"gide":7401,"cuff":7402,"encounter":7403,"serving":7404,"smirk":7405,"assess":7406,"cottage":7407,"lav":7408,"rocky":7409,"guitar":7410,"wiping":7411,"completed":7412,"moral":7413,"$$$inous":7414,"apologize":7415,"choices":7416,"eastern":7417,"layer":7418,"repair":7419,"electricity":7420,"toast":7421,"established":7422,"eternity":7423,"increase":7424,"squeezing":7425,"survival":7426,"paw":7427,"industry":7428,"mini":7429,"scratch":7430,"sack":7431,"escort":7432,"fbi":7433,"$$$ya":7434,"conversations":7435,"$$$itated":7436,"instinctively":7437,"$$$world":7438,"intimid":7439,"$$$aves":7440,"ours":7441,"kendra":7442,"medicine":7443,"selling":7444,"glory":7445,"$$$umes":7446,"ceremony":7447,"suitc":7448,"effective":7449,"escap":7450,"isaac":7451,"fishing":7452,"unlocked":7453,"consumed":7454,"$$$unks":7455,"sprang":7456,"majority":7457,"pup":7458,"morrow":7459,"mes":7460,"seal":7461,"dishes":7462,"schools":7463,"aaron":7464,"$$$arse":7465,"wrinkled":7466,"soap":7467,"femin":7468,"lyn":7469,"shouldnt":7470,"cautiously":7471,"lil":7472,"exciting":7473,"entertain":7474,"ez":7475,"pole":7476,"depths":7477,"subm":7478,"$$$encing":7479,"sadly":7480,"twitched":7481,"blinking":7482,"soothing":7483,"fulf":7484,"necklace":7485,"staggered":7486,"county":7487,"robin":7488,"downt":7489,"bushes":7490,"sib":7491,"bush":7492,"roots":7493,"towns":7494,"meanwhile":7495,"smirked":7496,"needle":7497,"awesome":7498,"syd":7499,"sarc":7500,"active":7501,"gene":7502,"suits":7503,"$$$wed":7504,"clin":7505,"scientific":7506,"grade":7507,"landscape":7508,"squinted":7509,"owe":7510,"wisdom":7511,"breaks":7512,"kir":7513,"fireplace":7514,"legend":7515,"flush":7516,"leo":7517,"twit":7518,"barrier":7519,"fuel":7520,"telephone":7521,"$$$umber":7522,"$$$arded":7523,"guided":7524,"$$$rose":7525,"$$$urd":7526,"production":7527,"alto":7528,"attempting":7529,"glaring":7530,"highest":7531,"gideon":7532,"worrying":7533,"clary":7534,"tessa":7535,"oddly":7536,"amazed":7537,"$$$****":7538,"spoon":7539,"newly":7540,"sung":7541,"rigid":7542,"lingering":7543,"poet":7544,"railing":7545,"$$$owledge":7546,"strangers":7547,"neatly":7548,"suite":7549,"firing":7550,"melan":7551,"ak":7552,"slightest":7553,"fest":7554,"settling":7555,"attracted":7556,"$$$ench":7557,"latter":7558,"pizza":7559,"$$$agne":7560,"emphas":7561,"depend":7562,"accompanied":7563,"$$$vas":7564,"$$$uf":7565,"orn":7566,"customers":7567,"smells":7568,"committ":7569,"wider":7570,"jab":7571,"tiger":7572,"$$$cest":7573,"scientists":7574,"rational":7575,"approval":7576,"mayor":7577,"compar":7578,"surroundings":7579,"embarrassment":7580,"$$$quis":7581,"betrayed":7582,"nicholas":7583,"tara":7584,"polished":7585,"sket":7586,"comforting":7587,"attor":7588,"mistress":7589,"therap":7590,"artist":7591,"personality":7592,"chasing":7593,"multiple":7594,"strict":7595,"files":7596,"12":7597,"sob":7598,"aidan":7599,"sandy":7600,"$$$keep":7601,"$$$amps":7602,"propped":7603,"$$$avier":7604,"arguing":7605,"theat":7606,"recovered":7607,"vest":7608,"torment":7609,"disgu":7610,"fade":7611,"11":7612,"candles":7613,"electron":7614,"sunsh":7615,"overwhelmed":7616,"robb":7617,"negative":7618,"establish":7619,"saddle":7620,"$$$mic":7621,"coal":7622,"juice":7623,"$$$otes":7624,"seam":7625,"discussed":7626,"acknowledge":7627,"noticing":7628,"numer":7629,"conclusion":7630,"gazing":7631,"$$$add":7632,"riv":7633,"gabe":7634,"brightly":7635,"possession":7636,"importance":7637,"peering":7638,"daylight":7639,"intellect":7640,"whirled":7641,"lighter":7642,"zoe":7643,"lore":7644,"kit":7645,"sympathy":7646,"preser":7647,"epis":7648,"garb":7649,"cancer":7650,"$$$uits":7651,"$$$berry":7652,"caring":7653,"rows":7654,"201":7655,"$$$icated":7656,"framed":7657,"prisoners":7658,"karen":7659,"brutal":7660,"sum":7661,"paran":7662,"tossing":7663,"wheels":7664,"blankets":7665,"neighbors":7666,"inhaled":7667,"neil":7668,"largest":7669,"underwear":7670,"boston":7671,"fading":7672,"monitor":7673,"mol":7674,"spy":7675,"$$$apers":7676,"painfully":7677,"companions":7678,"$$$ucked":7679,"published":7680,"extraord":7681,"generation":7682,"sealed":7683,"fran":7684,"$$$iating":7685,"goods":7686,"clust":7687,"gloom":7688,"swirling":7689,"$$$tes":7690,"slaves":7691,"document":7692,"campus":7693,"reject":7694,"sweeping":7695,"$$$ixture":7696,"strategy":7697,"lut":7698,"studio":7699,"pipe":7700,"ashamed":7701,"oppon":7702,"encourage":7703,"savage":7704,"vaguely":7705,"inher":7706,"panel":7707,"thy":7708,"$$$outs":7709,"blocking":7710,"ming":7711,"unse":7712,"construction":7713,"$$$chief":7714,"register":7715,"$$$ifically":7716,"elabor":7717,"ashe":7718,"aisle":7719,"machines":7720,"unfold":7721,"curl":7722,"complain":7723,"sher":7724,"script":7725,"demonstr":7726,"intelligent":7727,"steering":7728,"sept":7729,"shouts":7730,"sweep":7731,"pitched":7732,"stif":7733,"wandering":7734,"district":7735,"unhapp":7736,"rocking":7737,"permanent":7738,"jungle":7739,"$$$yard":7740,"involve":7741,"rank":7742,"haunted":7743,"imper":7744,"sniffed":7745,"garrett":7746,"ster":7747,"disaster":7748,"arrested":7749,"carp":7750,"mumbled":7751,"visiting":7752,"mansion":7753,"frantic":7754,"banks":7755,"shaky":7756,"gasping":7757,"frantically":7758,"poked":7759,"notion":7760,"$$$ulting":7761,"baseball":7762,"odds":7763,"mcc":7764,"weary":7765,"practical":7766,"spanish":7767,"neut":7768,"worthy":7769,"$$$enn":7770,"junior":7771,"hoo":7772,"graham":7773,"bliss":7774,"wreck":7775,"parad":7776,"$$$ician":7777,"grandma":7778,"debt":7779,"butterf":7780,"print":7781,"hatch":7782,"sandwich":7783,"outfit":7784,"sunshine":7785,"insult":7786,"tube":7787,"tel":7788,"dove":7789,"objects":7790,"mighty":7791,"communication":7792,"bry":7793,"$$$gic":7794,"vehicles":7795,"cats":7796,"dil":7797,"traditional":7798,"throbbing":7799,"$$$pective":7800,"counting":7801,"penc":7802,"testing":7803,"paced":7804,"$$$oses":7805,"ranch":7806,"purchase":7807,"dreaming":7808,"lucien":7809,"erection":7810,"$$$acious":7811,"momentarily":7812,"ancest":7813,"luckily":7814,"types":7815,"nause":7816,"zone":7817,"shoving":7818,"bills":7819,"divine":7820,"automatically":7821,"vincent":7822,"locks":7823,"gossip":7824,"bew":7825,"$$$ogue":7826,"nons":7827,"crimson":7828,"$$$ucle":7829,"$$$onic":7830,"aren":7831,"helps":7832,"wasted":7833,"eyelids":7834,"native":7835,"texas":7836,"prem":7837,"$$$ador":7838,"shred":7839,"sale":7840,"$$$rical":7841,"lieutenant":7842,"coin":7843,"cameron":7844,"announce":7845,"gh":7846,"hopped":7847,"thirst":7848,"stef":7849,"$$$ipper":7850,"africa":7851,"israel":7852,"federal":7853,"concentrated":7854,"owners":7855,"wishes":7856,"snapping":7857,"ralph":7858,"pushes":7859,"strands":7860,"network":7861,"brains":7862,"museum":7863,"gravity":7864,"jessie":7865,"favour":7866,"attempts":7867,"irritated":7868,"acce":7869,"blush":7870,"joining":7871,"zo":7872,"ribb":7873,"argued":7874,"$$$zer":7875,"surve":7876,"erin":7877,"locker":7878,"lashes":7879,"awe":7880,"uneasy":7881,"$$$nic":7882,"$$$oph":7883,"$$$teenth":7884,"crisp":7885,"diet":7886,"jerry":7887,"madame":7888,"whip":7889,"$$$sis":7890,"annoying":7891,"activities":7892,"deserted":7893,"$$$apse":7894,"nail":7895,"spiritual":7896,"combined":7897,"valuable":7898,"eag":7899,"15":7900,"include":7901,"cav":7902,"dump":7903,"caf":7904,"corrupt":7905,"surg":7906,"muscular":7907,"tumbled":7908,"nak":7909,"variety":7910,"$$$wort":7911,"glist":7912,"$$$down":7913,"pand":7914,"horrified":7915,"shouldn":7916,"obst":7917,"amid":7918,"braced":7919,"handing":7920,"fortunately":7921,"helicopter":7922,"stealing":7923,"skim":7924,"degrees":7925,"acceler":7926,"$$$jam":7927,"conserv":7928,"ticket":7929,"$$$istry":7930,"filth":7931,"concerns":7932,"holden":7933,"ire":7934,"nuts":7935,"$$$aying":7936,"ford":7937,"altogether":7938,"trous":7939,"noises":7940,"violently":7941,"$$$ifully":7942,"buddy":7943,"drifting":7944,"$$$cca":7945,"dex":7946,"beds":7947,"reasonable":7948,"additional":7949,"adrenaline":7950,"soup":7951,"pierce":7952,"interf":7953,"softened":7954,"deaf":7955,"gleaming":7956,"gifts":7957,"eh":7958,"unm":7959,"mouths":7960,"goo":7961,"jennifer":7962,"sting":7963,"income":7964,"$$$zes":7965,"$$$char":7966,"capture":7967,"arou":7968,"tradition":7969,"hurts":7970,"deaths":7971,"terrifying":7972,"bucket":7973,"mour":7974,"$$$ody":7975,"believing":7976,"nucle":7977,"$$$aneously":7978,"georg":7979,"mouse":7980,"chemical":7981,"nad":7982,"gravel":7983,"magnific":7984,"catherine":7985,"miller":7986,"flinched":7987,"$$$utton":7988,"overcome":7989,"withdrew":7990,"dallas":7991,"poo":7992,"$$$ctions":7993,"description":7994,"destination":7995,"$$$urned":7996,"cure":7997,"ignor":7998,"sipped":7999,"authorities":8000,"$$$olic":8001,"thoroughly":8002,"regarding":8003,"hovering":8004,"treasure":8005,"$$$ainted":8006,"budd":8007,"mim":8008,"oxy":8009,"$$$apt":8010,"desperation":8011,"rebe":8012,"lingered":8013,"piercing":8014,"ghosts":8015,"fee":8016,"$$$quar":8017,"crawling":8018,"kidding":8019,"$$$agn":8020,"distraction":8021,"flaw":8022,"teachers":8023,"bish":8024,"parliam":8025,"caroline":8026,"stalked":8027,"critical":8028,"daughters":8029,"predict":8030,"clapped":8031,"torch":8032,"unple":8033,"prize":8034,"amelia":8035,"identify":8036,"execut":8037,"scul":8038,"$$$po":8039,"shelves":8040,"concentration":8041,"overs":8042,"potato":8043,"$$$bone":8044,"exasper":8045,"snarled":8046,"dumped":8047,"vital":8048,"$$$omet":8049,"alpha":8050,"webs":8051,"$$$gas":8052,"debate":8053,"trot":8054,"werewolf":8055,"tugging":8056,"reminding":8057,"$$$ounded":8058,"cer":8059,"witnessed":8060,"plunged":8061,"aggress":8062,"lessons":8063,"lunged":8064,"thorn":8065,"germany":8066,"thanked":8067,"inclined":8068,"$$$ipher":8069,"unl":8070,"$$$bling":8071,"mant":8072,"hesitate":8073,"interests":8074,"fitting":8075,"$$$pes":8076,"curiously":8077,"wander":8078,"monk":8079,"mik":8080,"fluttered":8081,"fount":8082,"troubled":8083,"smear":8084,"wool":8085,"$$$very":8086,"longing":8087,"mars":8088,"$$$agan":8089,"suicide":8090,"conspir":8091,"angrily":8092,"$$$ills":8093,"disappearing":8094,"recru":8095,"hardened":8096,"hyster":8097,"speaks":8098,"sculpt":8099,"carm":8100,"$$$box":8101,"lauren":8102,"clients":8103,"charges":8104,"tempted":8105,"harv":8106,"lon":8107,"stabbed":8108,"temporary":8109,"noon":8110,"sales":8111,"applied":8112,"burden":8113,"knights":8114,"japanese":8115,"$$$engers":8116,"ideal":8117,"feast":8118,"pecul":8119,"erupted":8120,"$$$acking":8121,"blushed":8122,"topic":8123,"unin":8124,"proc":8125,"temples":8126,"misery":8127,"bubble":8128,"sleeves":8129,"clip":8130,"instincts":8131,"shudder":8132,"$$$iders":8133,"touches":8134,"guardian":8135,"$$$ishes":8136,"shri":8137,"fragile":8138,"$$$oting":8139,"mister":8140,"goose":8141,"mae":8142,"adventure":8143,"pac":8144,"overhe":8145,"sped":8146,"sacred":8147,"$$$och":8148,"mama":8149,"dies":8150,"slope":8151,"storage":8152,"$$$hi":8153,"$$$udge":8154,"$$$usions":8155,"$$$theless":8156,"panicked":8157,"trim":8158,"$$$bits":8159,"bould":8160,"pavement":8161,"logic":8162,"$$$wing":8163,"suggestion":8164,"inex":8165,"jude":8166,"ker":8167,"nevertheless":8168,"discovery":8169,"relatively":8170,"$$$anging":8171,"curling":8172,"tests":8173,"fridge":8174,"edged":8175,"thumbs":8176,"dude":8177,"profile":8178,"$$$____":8179,"employees":8180,"compassion":8181,"creek":8182,"vacation":8183,"pent":8184,"vicious":8185,"maneu":8186,"owed":8187,"30":8188,"burns":8189,"liv":8190,"axe":8191,"pacing":8192,"instance":8193,"breathless":8194,"sydney":8195,"pus":8196,"explaining":8197,"ryder":8198,"inevitable":8199,"assuming":8200,"danc":8201,"$$$agging":8202,"tommy":8203,"sixth":8204,"elements":8205,"acts":8206,"melt":8207,"$$$var":8208,"giggle":8209,"numerous":8210,"imagining":8211,"tob":8212,"tops":8213,"hanna":8214,"bern":8215,"hovered":8216,"smash":8217,"destiny":8218,"$$$oard":8219,"parliament":8220,"motiv":8221,"gentlemen":8222,"prepar":8223,"blows":8224,"$$$low":8225,"$$$iano":8226,"wallet":8227,"specifically":8228,"lazy":8229,"pron":8230,"experiences":8231,"mitch":8232,"lifts":8233,"limits":8234,"candid":8235,"judging":8236,"governor":8237,"urged":8238,"competition":8239,"implic":8240,"boats":8241,"$$$kind":8242,"$$$nders":8243,"wars":8244,"quant":8245,"johnson":8246,"champagne":8247,"ripping":8248,"spike":8249,"partly":8250,"committee":8251,"mock":8252,"$$$ishly":8253,"robot":8254,"differently":8255,"fashioned":8256,"toby":8257,"imperial":8258,"stefan":8259,"$$$ester":8260,"billion":8261,"facility":8262,"$$$lle":8263,"relationships":8264,"illegal":8265,"wax":8266,"dign":8267,"downtown":8268,"$$$omi":8269,"$$$ico":8270,"immortal":8271,"piled":8272,"drama":8273,"$$$zzie":8274,"positions":8275,"sliced":8276,"gree":8277,"sequ":8278,"talks":8279,"lasted":8280,"vivid":8281,"$$$ugged":8282,"trailer":8283,"april":8284,"perspective":8285,"$$$away":8286,"reassuring":8287,"madness":8288,"smug":8289,"organized":8290,"disag":8291,"midst":8292,"beasts":8293,"$$$ouch":8294,"score":8295,"column":8296,"difficulty":8297,"sincere":8298,"enthusiasm":8299,"mered":8300,"$$$encies":8301,"$$$rik":8302,"hawk":8303,"realised":8304,"depos":8305,"marshall":8306,"penny":8307,"terribly":8308,"torso":8309,"vigor":8310,"coughed":8311,"forearm":8312,"strap":8313,"generous":8314,"smoothed":8315,"skinny":8316,"goodness":8317,"clinging":8318,"joint":8319,"agency":8320,"healed":8321,"knives":8322,"lind":8323,"hauled":8324,"sche":8325,"reminder":8326,"accus":8327,"$$$herent":8328,"immense":8329,"$$$ji":8330,"collapse":8331,"passes":8332,"visitors":8333,"valent":8334,"philip":8335,"dealt":8336,"uses":8337,"perched":8338,"magnus":8339,"tended":8340,"shapes":8341,"seed":8342,"$$$cript":8343,"linked":8344,"simpl":8345,"mistakes":8346,"roses":8347,"boom":8348,"ultimately":8349,"jeep":8350,"steadily":8351,"$$$antha":8352,"damon":8353,"elsewhere":8354,"players":8355,"appointment":8356,"dizzy":8357,"thrilled":8358,"tales":8359,"$$$shit":8360,"pump":8361,"sull":8362,"decorated":8363,"meetings":8364,"inhab":8365,"invent":8366,"barked":8367,"commanded":8368,"portion":8369,"refuge":8370,"frightening":8371,"abandon":8372,"essential":8373,"squat":8374,"$$$olo":8375,"beloved":8376,"assigned":8377,"mig":8378,"scarce":8379,"russia":8380,"oo":8381,"slice":8382,"bunk":8383,"$$$gers":8384,"indul":8385,"assure":8386,"patterns":8387,"disturbing":8388,"$$$nels":8389,"unlikely":8390,"independent":8391,"injuries":8392,"shay":8393,"langdon":8394,"meredith":8395,"warehouse":8396,"strongly":8397,"psychic":8398,"navig":8399,"$$$uts":8400,"suv":8401,"warmed":8402,"savannah":8403,"$$$gra":8404,"deer":8405,"$$$hers":8406,"refusing":8407,"manif":8408,"pillows":8409,"vom":8410,"$$$utes":8411,"obt":8412,"injury":8413,"$$$zie":8414,"$$$ani":8415,"instructed":8416,"profit":8417,"swell":8418,"chip":8419,"increasingly":8420,"shotgun":8421,"demands":8422,"curb":8423,"dresser":8424,"coward":8425,"via":8426,"insect":8427,"monica":8428,"gary":8429,"appreciated":8430,"pic":8431,"mixture":8432,"insurance":8433,"joshua":8434,"hart":8435,"session":8436,"$$$estic":8437,"explode":8438,"industrial":8439,"linc":8440,"drain":8441,"solemn":8442,"clit":8443,"aboard":8444,"$$$icians":8445,"stephan":8446,"snort":8447,"della":8448,"tapping":8449,"jealousy":8450,"$$$isl":8451,"walker":8452,"haze":8453,"aiden":8454,"praying":8455,"$$$lands":8456,"recognition":8457,"tate":8458,"freezing":8459,"mead":8460,"joking":8461,"offices":8462,"inward":8463,"$$$ieth":8464,"damien":8465,"extent":8466,"damaged":8467,"headache":8468,"ruby":8469,"witches":8470,"returns":8471,"$$$arre":8472,"greeting":8473,"marty":8474,"$$$erted":8475,"$$$oma":8476,"$$$ighed":8477,"rattled":8478,"$$$aughter":8479,"sticks":8480,"$$$grat":8481,"irish":8482,"$$$za":8483,"wary":8484,"loyalty":8485,"$$$ethe":8486,"characters":8487,"sparks":8488,"accused":8489,"creation":8490,"pinched":8491,"hopeless":8492,"foul":8493,"$$$istent":8494,"dismissed":8495,"delighted":8496,"rebecca":8497,"unpleasant":8498,"abb":8499,"$$$stick":8500,"arrows":8501,"genius":8502,"$$$ember":8503,"dur":8504,"cain":8505,"gust":8506,"$$$hin":8507,"nudged":8508,"lantern":8509,"solve":8510,"loop":8511,"clamped":8512,"bour":8513,"bouncing":8514,"$$$uk":8515,"alle":8516,"deput":8517,"$$$resp":8518,"licking":8519,"$$$orters":8520,"crooked":8521,"$$$point":8522,"rubber":8523,"$$$alf":8524,"cran":8525,"exhaustion":8526,"powder":8527,"retreated":8528,"addressed":8529,"speaker":8530,"dashed":8531,"oxygen":8532,"alan":8533,"peak":8534,"warren":8535,"reporter":8536,"hack":8537,"spilling":8538,"individuals":8539,"nightmares":8540,"dna":8541,"resent":8542,"wea":8543,"jasm":8544,"casting":8545,"$$$lets":8546,"supported":8547,"philosophy":8548,"streaming":8549,"thud":8550,"afterwards":8551,"shorter":8552,"pathetic":8553,"nonsense":8554,"scanning":8555,"suitcase":8556,"flav":8557,"bury":8558,"assistance":8559,"dangling":8560,"bin":8561,"$$$unken":8562,"backing":8563,"grins":8564,"academy":8565,"trousers":8566,"flicker":8567,"tide":8568,"socks":8569,"integr":8570,"lords":8571,"swirled":8572,"resolve":8573,"discussing":8574,"painter":8575,"intentions":8576,"archit":8577,"elim":8578,"$$$shot":8579,"proceeded":8580,"fiery":8581,"follows":8582,"sighs":8583,"virus":8584,"intend":8585,"blazing":8586,"tires":8587,"rus":8588,"disturbed":8589,"finishing":8590,"dyn":8591,"wealthy":8592,"$$$akers":8593,"encl":8594,"shades":8595,"interrog":8596,"dale":8597,"ashley":8598,"deciding":8599,"recip":8600,"thrill":8601,"mold":8602,"slipp":8603,"$$$ocr":8604,"dy":8605,"strain":8606,"cargo":8607,"$$$uled":8608,"gregor":8609,"decade":8610,"attorney":8611,"spur":8612,"notebook":8613,"evidently":8614,"tortured":8615,"margaret":8616,"han":8617,"tro":8618,"unst":8619,"chased":8620,"bending":8621,"$$$rad":8622,"thoughtful":8623,"oldest":8624,"barg":8625,"perce":8626,"flir":8627,"jenks":8628,"hugging":8629,"crushing":8630,"$$$athed":8631,"license":8632,"ambul":8633,"nuclear":8634,"suspe":8635,"explore":8636,"encountered":8637,"profound":8638,"repeatedly":8639,"tribe":8640,"focusing":8641,"avenue":8642,"bothering":8643,"$$$armed":8644,"tire":8645,"architect":8646,"league":8647,"archer":8648,"nep":8649,"gil":8650,"bryn":8651,"curves":8652,"heap":8653,"ultimate":8654,"visual":8655,"insides":8656,"plays":8657,"slides":8658,"pierre":8659,"$$$ndry":8660,"grie":8661,"sham":8662,"discon":8663,"anthony":8664,"consci":8665,"watches":8666,"comments":8667,"bump":8668,"$$$oped":8669,"gloss":8670,"$$$rep":8671,"rusty":8672,"picks":8673,"$$$ppers":8674,"stunning":8675,"flour":8676,"politely":8677,"impatient":8678,"$$$bbling":8679,"shuffled":8680,"apply":8681,"$$$see":8682,"extract":8683,"proced":8684,"originally":8685,"samuel":8686,"$$$tor":8687,"bug":8688,"spaces":8689,"arist":8690,"shivering":8691,"blouse":8692,"wrath":8693,"trailing":8694,"leth":8695,"hmm":8696,"possibilities":8697,"enh":8698,"tune":8699,"$$$aware":8700,"scal":8701,"$$$ooping":8702,"taxi":8703,"junk":8704,"denied":8705,"launch":8706,"july":8707,"arriving":8708,"caution":8709,"handled":8710,"peeked":8711,"$$$inder":8712,"$$$ulsion":8713,"spells":8714,"dome":8715,"charity":8716,"hastily":8717,"secured":8718,"$$$igan":8719,"peculiar":8720,"absorbed":8721,"accounts":8722,"household":8723,"delic":8724,"toll":8725,"$$$berg":8726,"$$$ologist":8727,"dense":8728,"examine":8729,"portal":8730,"sober":8731,"albert":8732,"determine":8733,"kneeling":8734,"brass":8735,"illusion":8736,"dict":8737,"mast":8738,"simult":8739,"pleading":8740,"fare":8741,"males":8742,"necessarily":8743,"alike":8744,"rabbit":8745,"smacked":8746,"withdraw":8747,"minded":8748,"$$$zzle":8749,"shaken":8750,"fluid":8751,"capacity":8752,"guarded":8753,"carn":8754,"unbel":8755,"management":8756,"garbage":8757,"$$$unts":8758,"peer":8759,"mah":8760,"apology":8761,"sov":8762,"katherine":8763,"scenar":8764,"$$$akable":8765,"arab":8766,"weigh":8767,"strolled":8768,"genuinely":8769,"$$$ustomed":8770,"prophe":8771,"os":8772,"ella":8773,"ecst":8774,"bure":8775,"$$$amic":8776,"offers":8777,"critic":8778,"dominic":8779,"$$$lasses":8780,"african":8781,"assassin":8782,"congress":8783,"foundation":8784,"attraction":8785,"clad":8786,"somed":8787,"views":8788,"shrugs":8789,"rocket":8790,"comprom":8791,"fid":8792,"applic":8793,"urgent":8794,"winding":8795,"rounds":8796,"zack":8797,"distress":8798,"bishop":8799,"celest":8800,"someday":8801,"humming":8802,"heaved":8803,"sworn":8804,"sparkling":8805,"jenna":8806,"chewed":8807,"yo":8808,"biz":8809,"pel":8810,"samantha":8811,"naz":8812,"crumpled":8813,"stores":8814,"echoing":8815,"divorce":8816,"stove":8817,"privile":8818,"$$$asions":8819,"partially":8820,"fingern":8821,"$$$esy":8822,"tucker":8823,"$$$riger":8824,"scur":8825,"waiter":8826,"ally":8827,"dub":8828,"freely":8829,"mascul":8830,"ties":8831,"downward":8832,"exited":8833,"kel":8834,"registered":8835,"refriger":8836,"joan":8837,"advert":8838,"neutral":8839,"$$$ciously":8840,"countless":8841,"$$$ndy":8842,"huddled":8843,"$$$laim":8844,"extraordinary":8845,"infinite":8846,"investment":8847,"snugg":8848,"reluctant":8849,"adults":8850,"mexico":8851,"bible":8852,"officially":8853,"expressions":8854,"$$$urg":8855,"freeze":8856,"$$$angle":8857,"eagerly":8858,"elaborate":8859,"invite":8860,"doubts":8861,"fans":8862,"restless":8863,"$$$osition":8864,"dol":8865,"welc":8866,"rafe":8867,"causes":8868,"jagged":8869,"nicole":8870,"succeeded":8871,"$$$ortion":8872,"confess":8873,"dramatic":8874,"rays":8875,"$$$nge":8876,"bullshit":8877,"$$$amm":8878,"reed":8879,"hunched":8880,"chart":8881,"misty":8882,"duties":8883,"essentially":8884,"cane":8885,"envelop":8886,"magnificent":8887,"reform":8888,"$$$ota":8889,"$$$orse":8890,"seventh":8891,"index":8892,"nove":8893,"blessed":8894,"jewelry":8895,"descend":8896,"$$$power":8897,"sylv":8898,"performed":8899,"bruises":8900,"eli":8901,"identical":8902,"melody":8903,"masters":8904,"distrib":8905,"sco":8906,"flickering":8907,"feminine":8908,"previously":8909,"writer":8910,"documents":8911,"nations":8912,"summoned":8913,"exagger":8914,"steven":8915,"sunglasses":8916,"$$$oen":8917,"brim":8918,"appet":8919,"safer":8920,"shops":8921,"annoyance":8922,"affairs":8923,"lew":8924,"twir":8925,"appeal":8926,"hugh":8927,"defeated":8928,"natalie":8929,"$$$rons":8930,"splin":8931,"jonas":8932,"britain":8933,"teams":8934,"josie":8935,"absurd":8936,"bou":8937,"factory":8938,"pond":8939,"portra":8940,"essence":8941,"pry":8942,"$$$lar":8943,"phill":8944,"relent":8945,"mobile":8946,"travis":8947,"strings":8948,"frequently":8949,"tunnels":8950,"debr":8951,"pierced":8952,"sunset":8953,"scoff":8954,"visions":8955,"vice":8956,"removing":8957,"coord":8958,"austral":8959,"desired":8960,"disappro":8961,"$$$imeter":8962,"evident":8963,"$$$apor":8964,"patrol":8965,"claims":8966,"catches":8967,"pills":8968,"swam":8969,"glorious":8970,"cul":8971,"canvas":8972,"drivers":8973,"render":8974,"congrat":8975,"$$$irm":8976,"theyll":8977,"colleagues":8978,"razor":8979,"upd":8980,"senator":8981,"messy":8982,"choking":8983,"tested":8984,"$$$vant":8985,"teddy":8986,"lexi":8987,"robes":8988,"heavens":8989,"sweaty":8990,"joey":8991,"$$$iper":8992,"bewild":8993,"defin":8994,"election":8995,"destro":8996,"pencil":8997,"kira":8998,"void":8999,"ked":9000,"$$$inkling":9001,"crest":9002,"cem":9003,"mage":9004,"telep":9005,"whiskey":9006,"scowl":9007,"mos":9008,"nin":9009,"attended":9010,"phrase":9011,"tanner":9012,"jasmine":9013,"mck":9014,"$$$amental":9015,"ade":9016,"attacking":9017,"kent":9018,"brun":9019,"introduce":9020,"----":9021,"flashes":9022,"rats":9023,"stung":9024,"elise":9025,"$$$uman":9026,"logical":9027,"yield":9028,"recorded":9029,"$$$quet":9030,"pearl":9031,"$$$chair":9032,"frances":9033,"promises":9034,"threats":9035,"lever":9036,"awoke":9037,"whistle":9038,"circling":9039,"blackness":9040,"surviv":9041,"supper":9042,"ori":9043,"standards":9044,"stew":9045,"sofia":9046,"releasing":9047,"genes":9048,"computers":9049,"$$$wind":9050,"commercial":9051,"counsel":9052,"worries":9053,"reference":9054,"$$$lex":9055,"awkwardly":9056,"clerk":9057,"elderly":9058,"unhappy":9059,"mound":9060,"chips":9061,"reduced":9062,"disin":9063,"sunny":9064,"aly":9065,"tad":9066,"$$$aste":9067,"solar":9068,"slung":9069,"avery":9070,"$$$hered":9071,"bid":9072,"griffin":9073,"guarant":9074,"$$$uding":9075,"resort":9076,"swayed":9077,"juliet":9078,"yel":9079,"$$$amples":9080,"poem":9081,"battered":9082,"$$$rum":9083,"alternative":9084,"conj":9085,"sometime":9086,"whos":9087,"delay":9088,"surged":9089,"presum":9090,"grain":9091,"thankful":9092,"civilization":9093,"tissue":9094,"$$$atell":9095,"bruised":9096,"$$$lord":9097,"beef":9098,"retire":9099,"strapped":9100,"stem":9101,"drunken":9102,"sensual":9103,"copper":9104,"patiently":9105,"italy":9106,"passengers":9107,"$$$yers":9108,"bulk":9109,"tiff":9110,"aint":9111,"ponytail":9112,"bureau":9113,"compliment":9114,"protested":9115,"shrieked":9116,"$$$keeper":9117,"fighter":9118,"cracks":9119,"$$$ito":9120,"nora":9121,"autumn":9122,"$$$ex":9123,"$$$greg":9124,"$$$adin":9125,"sobbing":9126,"crimes":9127,"slash":9128,"phones":9129,"sweating":9130,"irre":9131,"isabella":9132,"piano":9133,"$$$unching":9134,"arts":9135,"semi":9136,"dane":9137,"$$$ober":9138,"adopted":9139,"amaze":9140,"$$$ici":9141,"ruff":9142,"lounge":9143,"soviet":9144,"jokes":9145,"aircraft":9146,"faintly":9147,"kur":9148,"feathers":9149,"believes":9150,"fiona":9151,"mush":9152,"gardens":9153,"$$$ufact":9154,"retired":9155,"encouraged":9156,"outrage":9157,"voc":9158,"reserved":9159,"bizarre":9160,"$$$onym":9161,"creepy":9162,"jews":9163,"zombie":9164,"evolution":9165,"smoothly":9166,"drowned":9167,"prosec":9168,"shocking":9169,"fantastic":9170,"outst":9171,"jade":9172,"guarantee":9173,"ropes":9174,"foyer":9175,"paintings":9176,"altar":9177,"carr":9178,"reacted":9179,"folds":9180,"$$$ender":9181,"baron":9182,"mistaken":9183,"inviting":9184,"$$$helle":9185,"episode":9186,"sage":9187,"manufact":9188,"perpet":9189,"dus":9190,"$$$ko":9191,"$$$sole":9192,"bik":9193,"draft":9194,"$$$zo":9195,"january":9196,"$$$works":9197,"tracking":9198,"pictured":9199,"accepting":9200,"ceased":9201,"spill":9202,"$$$hh":9203,"mode":9204,"infant":9205,"guessing":9206,"eternal":9207,"october":9208,"barre":9209,"plas":9210,"era":9211,"$$$hend":9212,"kindness":9213,"teenager":9214,"resisted":9215,"sympat":9216,"optim":9217,"cate":9218,"sock":9219,"dele":9220,"$$$uffed":9221,"cracking":9222,"vain":9223,"september":9224,"raises":9225,"irritation":9226,"accommod":9227,"absent":9228,"hopeful":9229,"cursing":9230,"$$$guard":9231,"tues":9232,"earnest":9233,"lizzie":9234,"cade":9235,"ruins":9236,"apoll":9237,"positioned":9238,"glittering":9239,"primary":9240,"outward":9241,"motorcy":9242,"ruled":9243,"pussy":9244,"brady":9245,"persons":9246,"circular":9247,"lance":9248,"thresh":9249,"choosing":9250,"ambulance":9251,"$$$oman":9252,"secretly":9253,"females":9254,"bolted":9255,"hazel":9256,"defined":9257,"punct":9258,"$$$ala":9259,"upside":9260,"weighed":9261,"shine":9262,"$$$lad":9263,"appearing":9264,"associated":9265,"admired":9266,"transm":9267,"transformed":9268,"delivery":9269,"felix":9270,"hav":9271,"dimension":9272,"thump":9273,"motionless":9274,"$$$xed":9275,"mole":9276,"remarkable":9277,"christop":9278,"engines":9279,"excess":9280,"pout":9281,"grandpa":9282,"sprawled":9283,"measures":9284,"venge":9285,"coins":9286,"condem":9287,"respected":9288,"buzzing":9289,"helpful":9290,"fascinated":9291,"$$$rell":9292,"acid":9293,"shack":9294,"suited":9295,"shark":9296,"receiving":9297,"exter":9298,"$$$quisite":9299,"luxury":9300,"$$$icial":9301,"parker":9302,"failing":9303,"flies":9304,"skipped":9305,"disting":9306,"presses":9307,"roaring":9308,"closes":9309,"identified":9310,"hairs":9311,"oblivious":9312,"convinc":9313,"$$$iner":9314,"goddamn":9315,"skept":9316,"$$$foot":9317,"accustomed":9318,"dresses":9319,"casey":9320,"packing":9321,"aj":9322,"alter":9323,"megan":9324,"bloss":9325,"welcomed":9326,"$$$len":9327,"golf":9328,"debris":9329,"sphere":9330,"abd":9331,"gallery":9332,"offended":9333,"cares":9334,"$$$oons":9335,"traum":9336,"twitch":9337,"fountain":9338,"layers":9339,"unle":9340,"sighing":9341,"$$$amiliar":9342,"scooped":9343,"sticky":9344,"$$$udes":9345,"groom":9346,"roo":9347,"slack":9348,"tremble":9349,"scarf":9350,"$$$anting":9351,"bumped":9352,"theirs":9353,"thurs":9354,"shifts":9355,"defensive":9356,"$$$arn":9357,"$$$cery":9358,"encoura":9359,"elf":9360,"prol":9361,"maintained":9362,"trucks":9363,"races":9364,"hyd":9365,"patients":9366,"jumps":9367,"relative":9368,"threshold":9369,"larry":9370,"dazed":9371,"preston":9372,"ka":9373,"folding":9374,"zombies":9375,"emerald":9376,"worship":9377,"arrangement":9378,"phoen":9379,"rumors":9380,"tightening":9381,"blinding":9382,"dani":9383,"technically":9384,"startling":9385,"blunt":9386,"eva":9387,"perry":9388,"classroom":9389,"paths":9390,"temp":9391,"$$$uls":9392,"$$$rak":9393,"$$$uated":9394,"complained":9395,"stance":9396,"corporate":9397,"17":9398,"products":9399,"brisk":9400,"displayed":9401,"$$$quarters":9402,"pudd":9403,"stain":9404,"asce":9405,"$$$alt":9406,"unfamiliar":9407,"budget":9408,"krist":9409,"willow":9410,"shutting":9411,"assignment":9412,"dated":9413,"$$$oles":9414,"callum":9415,"aura":9416,"tomb":9417,"$$$alls":9418,"cemet":9419,"$$$hou":9420,"thursday":9421,"$$$essa":9422,"burnt":9423,"$$$arked":9424,"rect":9425,"rug":9426,"situations":9427,"stumbling":9428,"laundry":9429,"tut":9430,"horrif":9431,"phen":9432,"motions":9433,"romance":9434,"stim":9435,"sanctuary":9436,"$$$eped":9437,"fiercely":9438,"twe":9439,"carson":9440,"heck":9441,"generations":9442,"$$$ras":9443,"brighter":9444,"tuesday":9445,"daring":9446,"photographs":9447,"paraly":9448,"dates":9449,"contempt":9450,"creeping":9451,"luther":9452,"pauses":9453,"gross":9454,"sunk":9455,"behavi":9456,"conscience":9457,"$$$ela":9458,"divided":9459,"cemetery":9460,"towers":9461,"benefits":9462,"$$$iac":9463,"smelling":9464,"catal":9465,"impatiently":9466,"operations":9467,"accidentally":9468,"seld":9469,"snick":9470,"betrayal":9471,"gratitude":9472,"$$$inations":9473,"perfection":9474,"fantas":9475,"cherry":9476,"innocence":9477,"majesty":9478,"forgetting":9479,"crowds":9480,"locking":9481,"$$$atch":9482,"$$$ba":9483,"ledge":9484,"embarrassing":9485,"concluded":9486,"uncont":9487,"disgusted":9488,"blurred":9489,"illuminated":9490,"$$$ouring":9491,"blasted":9492,"disturb":9493,"outcome":9494,"13":9495,"laced":9496,"accurate":9497,"uk":9498,"$$$uished":9499,"cautious":9500,"legit":9501,"cattle":9502,"lowering":9503,"lecture":9504,"stride":9505,"mainly":9506,"mocking":9507,"metall":9508,"discomfort":9509,"vin":9510,"lovers":9511,"brist":9512,"malcol":9513,"beams":9514,"proven":9515,"hire":9516,"unaware":9517,"dipl":9518,"halls":9519,"scalp":9520,"principle":9521,"frankly":9522,"brook":9523,"simultaneously":9524,"scraped":9525,"fried":9526,"furiously":9527,"gritted":9528,"buzzed":9529,"meals":9530,"creative":9531,"artific":9532,"bacon":9533,"claud":9534,"stirring":9535,"pend":9536,"menu":9537,"officials":9538,"$$$inkle":9539,"scrut":9540,"pose":9541,"scenes":9542,"$$$onom":9543,"commitment":9544,"$$$sell":9545,"$$$reen":9546,"bella":9547,"stacked":9548,"$$$amble":9549,"cafe":9550,"bronze":9551,"supernatural":9552,"communicate":9553,"printed":9554,"throws":9555,"guid":9556,"$$$arms":9557,"calvin":9558,"pall":9559,"rey":9560,"abuse":9561,"composed":9562,"exped":9563,"proposal":9564,"costs":9565,"$$$rolled":9566,"resumed":9567,"climate":9568,"oun":9569,"bites":9570,"$$$itri":9571,"refrigerator":9572,"fights":9573,"$$$uch":9574,"filthy":9575,"flan":9576,"cara":9577,"$$$isha":9578,"$$$no":9579,"bedside":9580,"vik":9581,"$$$avi":9582,"battles":9583,"unbeliev":9584,"pumping":9585,"scand":9586,"terry":9587,"represented":9588,"meantime":9589,"flatt":9590,"shifter":9591,"sufficient":9592,"ego":9593,"error":9594,"drowning":9595,"tremend":9596,"$$$ray":9597,"kenned":9598,"historical":9599,"whimper":9600,"dive":9601,"sensing":9602,"$$$eland":9603,"anchor":9604,"diana":9605,"paperwork":9606,"classic":9607,"expressed":9608,"occasions":9609,"retrieved":9610,"convention":9611,"$$$leton":9612,"exquisite":9613,"stray":9614,"thorne":9615,"jaws":9616,"becky":9617,"$$$imated":9618,"indiff":9619,"lincol":9620,"imprison":9621,"residence":9622,"coincidence":9623,"$$$inals":9624,"thoughtfully":9625,"hound":9626,"cycle":9627,"germ":9628,"eyeing":9629,"scholars":9630,"$$$ader":9631,"malcolm":9632,"garr":9633,"traged":9634,"$$$ressing":9635,"chunk":9636,"vegas":9637,"awh":9638,"fortress":9639,"bears":9640,"clint":9641,"flipping":9642,"obed":9643,"caressed":9644,"recommend":9645,"furrowed":9646,"puzzle":9647,"$$$ijah":9648,"catholic":9649,"$$$burg":9650,"fen":9651,"strand":9652,"lurched":9653,"masculine":9654,"gram":9655,"moss":9656,"pepper":9657,"infected":9658,"fae":9659,"ench":9660,"pausing":9661,"arrogant":9662,"14":9663,"foster":9664,"knob":9665,"$$$icia":9666,"retrieve":9667,"og":9668,"$$$itious":9669,"strokes":9670,"rises":9671,"phenom":9672,"subjects":9673,"differences":9674,"compart":9675,"punish":9676,"$$$hire":9677,"quote":9678,"greatly":9679,"supreme":9680,"erect":9681,"$$$rations":9682,"cellar":9683,"stilled":9684,"silky":9685,"gaping":9686,"impe":9687,"purchased":9688,"headquarters":9689,"exhib":9690,"$$$iva":9691,"digital":9692,"bruce":9693,"unfortunate":9694,"legisl":9695,"trey":9696,"$$$bted":9697,"veil":9698,"$$$wr":9699,"referred":9700,"december":9701,"$$$robe":9702,"elijah":9703,"sobs":9704,"$$$bra":9705,"priests":9706,"considerable":9707,"surgery":9708,"michelle":9709,"indign":9710,"deme":9711,"kor":9712,"glimps":9713,"pursed":9714,"olive":9715,"concealed":9716,"chewing":9717,"wield":9718,"chad":9719,"!\"":9720,"peeled":9721,"melting":9722,"guts":9723,"$$$fold":9724,"phoenix":9725,"bells":9726,"$$$rus":9727,"rebu":9728,"rumble":9729,"ranks":9730,"$$$road":9731,"straining":9732,"agon":9733,"claiming":9734,"accomplished":9735,"parall":9736,"examining":9737,"$$$isms":9738,"reserv":9739,"illness":9740,"eleanor":9741,"accomplish":9742,"enforce":9743,"pam":9744,"florida":9745,"certainty":9746,"cudd":9747,"murderer":9748,"lawyers":9749,"reverse":9750,"outline":9751,"inspir":9752,"engagement":9753,"latin":9754,"meters":9755,"referring":9756,"november":9757,"wednes":9758,"providing":9759,"grinding":9760,"jewish":9761,"eagle":9762,"wilder":9763,"interact":9764,"swaying":9765,"lincoln":9766,"outstretched":9767,"investigate":9768,"$$$icity":9769,"stella":9770,"allie":9771,"$$$kers":9772,"concert":9773,"$$$ceded":9774,"santa":9775,"leah":9776,"grunt":9777,"$$$uttered":9778,"$$$py":9779,"sleepy":9780,"lac":9781,"roast":9782,"chim":9783,"patri":9784,"oath":9785,"$$$ilst":9786,"brood":9787,"messed":9788,"$$$akened":9789,"interpret":9790,"16":9791,"dripped":9792,"veron":9793,"yog":9794,"salad":9795,"flare":9796,"lining":9797,"$$$stein":9798,"ups":9799,"teenage":9800,"tipto":9801,"escaping":9802,"suspended":9803,"wry":9804,"dimin":9805,"comparison":9806,"wednesday":9807,"supporting":9808,"kennedy":9809,"$$$occ":9810,"nephew":9811,"tricks":9812,"recording":9813,"$$$icit":9814,"$$$gor":9815,"doug":9816,"opponent":9817,"allies":9818,"stormed":9819,"administration":9820,"$$$bag":9821,"purposes":9822,"intellectual":9823,"$$$ppled":9824,"glove":9825,"openly":9826,"$$$reet":9827,"$$$hension":9828,"selected":9829,"$$$net":9830,"automatic":9831,"foo":9832,"rebell":9833,"ki":9834,"substant":9835,"pyram":9836,"tiffany":9837,"bic":9838,"eighth":9839,"starving":9840,"pregnancy":9841,"swallowing":9842,"cookies":9843,"backyard":9844,"grows":9845,"modest":9846,"coffin":9847,"$$$going":9848,"raging":9849,"awhile":9850,"arous":9851,"$$$put":9852,"convincing":9853,"cheerful":9854,"connections":9855,"cue":9856,"naomi":9857,"beamed":9858,"orb":9859,"$$$pit":9860,"correctly":9861,"vine":9862,"cushion":9863,"sleek":9864,"unwilling":9865,"acknowledged":9866,"madison":9867,"stench":9868,"cooked":9869,"substance":9870,"peoples":9871,"depression":9872,"gord":9873,"tones":9874,"hunted":9875,"cousins":9876,"loft":9877,"pleaded":9878,"destroying":9879,"muslim":9880,"bout":9881,"$$$hea":9882,"plum":9883,"effectively":9884,"$$$mie":9885,"$$$bour":9886,"lush":9887,"roth":9888,"$$$anne":9889,"mathem":9890,"murphy":9891,"principal":9892,"hoarse":9893,"fumbled":9894,"$$$aire":9895,"proposed":9896,"napkin":9897,"arousal":9898,"scientist":9899,"embraced":9900,"sends":9901,"cement":9902,"drives":9903,"sly":9904,"float":9905,"tripped":9906,"unne":9907,"$$$ssa":9908,"dialed":9909,"muddy":9910,"nancy":9911,"plo":9912,"bartender":9913,"hiss":9914,"fascinating":9915,"intact":9916,"islands":9917,"nurses":9918,"indication":9919,"pursuit":9920,"000":9921,"forbidden":9922,"produc":9923,"halted":9924,"passionate":9925,"$$$die":9926,"puppy":9927,"yep":9928,"yea":9929,"sauce":9930,"horns":9931,"$$$bar":9932,"terminal":9933,"defence":9934,"reapp":9935,"slips":9936,"cringed":9937,"ark":9938,"rogue":9939,"dunge":9940,"console":9941,"liking":9942,"piper":9943,"$$$standing":9944,"monst":9945,"abdom":9946,"fatig":9947,"alf":9948,"levi":9949,"$$$uctive":9950,"bands":9951,"impulse":9952,"duff":9953,"aliens":9954,"tease":9955,"unset":9956,"$$$uation":9957,"allison":9958,"jewels":9959,"gamb":9960,"plucked":9961,"ul":9962,"nearer":9963,"instrument":9964,"silhou":9965,"exposing":9966,"marc":9967,"shaw":9968,"supposedly":9969,"values":9970,"redd":9971,"thief":9972,"slit":9973,"dat":9974,"undert":9975,"happier":9976,"feroc":9977,"calmed":9978,"ira":9979,"celebrate":9980,"subd":9981,"papa":9982,"kara":9983,"controls":9984,"aer":9985,"disagree":9986,"penn":9987,"poll":9988,"funds":9989,"anticipated":9990,"amazement":9991,"perfume":9992,"theatre":9993,"metallic":9994,"opposed":9995,"mab":9996,"$$$istics":9997,"timing":9998},"merges":["$$$h $$$e","t $$$he","$$$i $$$n","$$$e $$$r","$$$e $$$d","$$$n $$$d","$$$o $$$u","$$$in $$$g","$$$a $$$t","t $$$o","$$$r $$$e","a $$$nd","t $$$h","$$$i $$$s","$$$e $$$n","$$$a $$$s","$$$o $$$n","$$$a $$$r","$$$o $$$r","$$$a $$$n","$$$e $$$s","$$$l $$$l","o $$$f","h $$$e","i $$$n","$$$i $$$t","$$$o $$$m","h $$$a","b $$$e","$$$o $$$w","w $$$as","$$$u $$$t","h $$$er","$$$l $$$e","i $$$t","$$$l $$$d","$$$o $$$t","$$$a $$$c","o $$$n","$$$i $$$d","$$$g $$$h","s $$$t","$$$e $$$t","y $$$ou","h $$$is","th $$$at","$$$i $$$c","s $$$he","$$$l $$$y","$$$s $$$t","$$$i $$$m","$$$v $$$e","$$$a $$$y","$$$a $$$l","a $$$s","w $$$h","$$$s $$$e","r $$$e","$$$a $$$d","$$$v $$$er","$$$en $$$t","$$$i $$$r","m $$$y","$$$gh $$$t","$$$u $$$r","$$$o $$$o","f $$$or","$$$it $$$h","$$$ou $$$ld","w $$$ith","$$$i $$$on","m $$$e","ha $$$d","a $$$n","a $$$t","l $$$i","$$$k $$$e","$$$a $$$m","s $$$h","b $$$ut","f $$$r","$$$a $$$ll","$$$he $$$r","w $$$e","s $$$e","h $$$im","d $$$o","$$$t $$$er","$$$r $$$o","$$$i $$$ght","$$$k $$$ed","$$$p $$$p","$$$a $$$in","$$$c $$$e","n $$$ot","$$$c $$$h","n $$$e","$$$i $$$l","s $$$o","$$$ac $$$k","' $$$'","$$$i $$$ll","i $$$s","$$$o $$$re","$$$an $$$t","o $$$ut","$$$e $$$l","the $$$y","$$$r $$$i","$$$r $$$ou","u $$$p","$$$c $$$t","w $$$he","k $$$n","$$$ou $$$t","$$$u $$$st","fr $$$om","$$$om $$$e","$$$ar $$$d","c $$$h","$$$u $$$s","s $$$a","ha $$$ve","th $$$is","d $$$e","$$$u $$$n","$$$r $$$a","$$$er $$$e","l $$$e","a $$$b","a $$$ll","$$$h $$$ing","a $$$l","wh $$$at","w $$$ere","$$$k $$$ing","n $$$o","g $$$o","$$$in $$$d","in $$$t","$$$g $$$e","c $$$ould","$$$i $$$e","w $$$ould","s $$$u","$$$es $$$t","on $$$e","$$$es $$$s","d $$$id","$$$n $$$t","li $$$ke","$$$ar $$$t","c $$$on","$$$on $$$e","l $$$oo","f $$$e","$$$he $$$d","b $$$ack","the $$$re","$$$ow $$$n","$$$er $$$s","s $$$p","c $$$l","i $$$f","$$$s $$$s","e $$$x","$$$u $$$l","$$$o $$$p","$$$a $$$b","o $$$r","int $$$o","w $$$or","$$$a $$$nd","$$$as $$$t","whe $$$n","$$$oo $$$d","$$$u $$$m","$$$id $$$e","a $$$g","r $$$o","$$$ac $$$e","$$$c $$$k","$$$is $$$t","$$$all $$$y","the $$$m","j $$$ust","$$$e $$$p","b $$$l","t $$$r","$$$at $$$ion","$$$o $$$l","ab $$$out","$$$at $$$e","ha $$$nd","$$$a $$$u","o $$$ver","$$$v $$$en","$$$on $$$g","the $$$n","se $$$e","be $$$en","$$$a $$$ke","$$$w $$$ay","$$$i $$$g","$$$a $$$p","c $$$om","t $$$e","p $$$l","m $$$o","b $$$y","t $$$im","$$$i $$$f","an $$$y","kn $$$ow","$$$l $$$f","e $$$y","$$$ou $$$s","s $$$ome","a $$$re","s $$$m","sa $$$id","d $$$own","e $$$ver","$$$am $$$e","m $$$an","wh $$$o","a $$$r","l $$$o","w $$$ant","b $$$o","$$$ur $$$n","g $$$et","$$$i $$$ve","$$$a $$$re","$$$a $$$g","to $$$o","$$$or $$$t","ag $$$ain","f $$$l","b $$$r","$$$rou $$$nd","c $$$o","of $$$f","you $$$r","m $$$ore","the $$$ir","t $$$w","$$$o $$$s","tim $$$e","e $$$n","$$$e $$$ct","th $$$ou","$$$t $$$her","$$$ic $$$e","n $$$ow","u $$$n","$$$in $$$e","$$$ou $$$r","u $$$s","ey $$$es","c $$$an","s $$$c","q $$$u","$$$u $$$ll","h $$$ow","s $$$l","p $$$ro","$$$ic $$$k","he $$$ad","$$$ou $$$nd","$$$a $$$k","$$$in $$$k","i $$$m","$$$u $$$re","$$$v $$$ed","$$$nd $$$er","$$$r $$$y","$$$pp $$$ed","e $$$ven","a $$$f","$$$ot $$$her","$$$it $$$t","$$$se $$$lf","w $$$ay","p $$$re","p $$$o","$$$t $$$h","o $$$ther","$$$i $$$le","th $$$an","$$$i $$$re","$$$f $$$t","$$$f $$$ore","$$$as $$$s","ever $$$y","$$$re $$$at","$$$l $$$ed","be $$$fore","be $$$c","g $$$r","$$$e $$$ar","a $$$round","$$$it $$$y","$$$ad $$$e","$$$d $$$d","$$$v $$$ing","$$$i $$$es","$$$i $$$p","$$$rou $$$gh","w $$$ill","th $$$rough","$$$m $$$ent","on $$$ly","p $$$e","p $$$r","$$$u $$$e","$$$ac $$$t","s $$$om","$$$it $$$e","t $$$urn","$$$o $$$se","g $$$l","som $$$et","$$$p $$$t","th $$$ing","$$$w $$$ard","loo $$$ked","$$$ic $$$h","a $$$m","a $$$c","ex $$$p","$$$i $$$z","af $$$ter","r $$$ight","$$$f $$$f","go $$$ing","s $$$w","thou $$$ght","$$$re $$$e","$$$au $$$se","$$$ab $$$le","a $$$way","st $$$ill","$$$an $$$g","tw $$$o","sh $$$ould","f $$$ace","$$$b $$$le","$$$ac $$$h","do $$$or","$$$is $$$s","th $$$ink","kn $$$e","m $$$u","ne $$$ed","l $$$ong","$$$d $$$y","loo $$$k","w $$$at","$$$at $$$ed","$$$an $$$ce","$$$on $$$t","f $$$o","$$$w $$$n","somet $$$hing","g $$$u","her $$$e","$$$ar $$$k","l $$$et","s $$$ay","$$$er $$$ed","d $$$is","c $$$ar","be $$$t","$$$t $$$e","$$$a $$$ge","$$$m $$$ed","$$$en $$$ed","o $$$ur","f $$$ir","o $$$p","$$$t $$$hing","m $$$ade","ne $$$ver","c $$$r","whe $$$re","$$$f $$$e","$$$i $$$ous","$$$t $$$ing","c $$$he","fe $$$el","$$$en $$$ce","d $$$ay","bec $$$ause","$$$e $$$ll","$$$c $$$hed","w $$$a","$$$at $$$h","u $$$nder","ar $$$m","g $$$ot","it $$$s","as $$$ked","$$$at $$$her","mu $$$ch","$$$c $$$o","$$$er $$$y","re $$$m","g $$$ood","$$$itt $$$le","ro $$$om","$$$an $$$s","$$$n $$$ing","wh $$$ich","e $$$m","com $$$p","l $$$ittle","pe $$$op","$$$re $$$ss","$$$t $$$ed","$$$ou $$$gh","con $$$t","we $$$ll","peop $$$le","h $$$o","$$$a $$$ve","$$$a $$$king","kne $$$w","$$$v $$$es","fir $$$st","$$$b $$$er","$$$t $$$y","st $$$r","$$$g $$$g","m $$$ake","$$$el $$$t","k $$$e","p $$$er","a $$$pp","$$$a $$$ir","$$$u $$$d","m $$$om","$$$ad $$$y","j $$$o","$$$ri $$$ed","$$$e $$$m","$$$q $$$u","w $$$al","$$$s $$$ide","r $$$es","d $$$es","$$$k $$$s","p $$$art","m $$$ay","$$$i $$$ld","f $$$elt","$$$as $$$e","st $$$art","t $$$ake","too $$$k","h $$$as","c $$$all","$$$e $$$en","$$$ion $$$s","$$$y $$$ing","hand $$$s","c $$$ome","ha $$$pp","v $$$e","$$$i $$$ed","$$$i $$$a","turn $$$ed","te $$$ll","c $$$ou","$$$ar $$$ed","$$$ot $$$h","a $$$d","$$$l $$$ing","p $$$ull","s $$$k","$$$p $$$s","again $$$st","want $$$ed","m $$$ar","$$$i $$$ly","$$$en $$$s","ne $$$w","$$$u $$$ck","y $$$ear","he $$$l","$$$b $$$e","n $$$ight","wh $$$y","v $$$ery","s $$$ur",". $$$.","e $$$l","$$$c $$$ed","re $$$al","t $$$al","$$$is $$$h",".. $$$.","v $$$o","li $$$fe","$$$l $$$es","c $$$ame","be $$$h","an $$$other","$$$is $$$e","$$$ro $$$ss","le $$$ft","$$$a $$$v","be $$$l","re $$$ally","$$$ow $$$ed","$$$d $$$s","h $$$ard","sp $$$e","o $$$wn","be $$$ing","s $$$ide","l $$$l","p $$$ut","wh $$$ile","$$$f $$$ul","f $$$in","$$$he $$$s","w $$$om","$$$c $$$i","bo $$$dy","$$$b $$$b","$$$oo $$$k","su $$$re","l $$$ast","p $$$h","fe $$$w","d $$$r","w $$$ar","mom $$$ent","$$$n $$$ed","$$$a $$$z","im $$$p","a $$$ct","$$$x $$$t","g $$$ra","li $$$ght","$$$i $$$gh","$$$g $$$et","w $$$ent","o $$$ld","u $$$nt","m $$$ight","mo $$$st","$$$ou $$$se","$$$a $$$il","f $$$ind","th $$$ose","beh $$$ind","$$$ar $$$s","hel $$$p","m $$$at","re $$$p","b $$$u","to $$$ward","$$$if $$$f","st $$$e","$$$or $$$m","w $$$r","$$$or $$$d","s $$$n","$$$p $$$er","$$$n $$$ess","be $$$g","e $$$nd","thing $$$s","sa $$$w","c $$$le","en $$$ough","i $$$d","d $$$ark","s $$$et","$$$in $$$t","thou $$$gh","vo $$$ice","w $$$o","$$$m $$$o","ke $$$ep","$$$i $$$an","not $$$hing","wa $$$it","ha $$$ir","$$$n $$$g","$$$or $$$y","b $$$reat","$$$on $$$s","unt $$$il","$$$am $$$p","$$$ar $$$y","l $$$au","m $$$ind","any $$$thing","c $$$a","$$$out $$$h","b $$$ed","cl $$$os","op $$$en","$$$way $$$s","h $$$u","$$$r $$$ed","at $$$t","st $$$re","$$$ow $$$er","on $$$ce","$$$ar $$$ing","$$$ch $$$ing","in $$$ter","re $$$l","to $$$ld","f $$$ound","b $$$oth","$$$oo $$$l","in $$$st","$$$y $$$s","f $$$ing","$$$in $$$ce","de $$$c","s $$$ound","$$$n $$$er","$$$at $$$ing","$$$r $$$u","c $$$ur","m $$$in","h $$$ouse","pl $$$ace","$$$s $$$o","wor $$$k","ne $$$xt","loo $$$king","$$$i $$$v","$$$a $$$h","s $$$at","do $$$es","$$$a $$$w","the $$$se","$$$n $$$e","s $$$il","$$$i $$$x","th $$$ree","fr $$$ont","$$$l $$$ess","g $$$ir","s $$$ame","al $$$ways","s $$$er","$$$ie $$$nd","$$$u $$$ally","with $$$out","$$$c $$$ked","c $$$are","him $$$self","g $$$re","r $$$un","fr $$$iend","$$$w $$$een","sm $$$all","bet $$$ween","he $$$art","c $$$or","$$$r $$$ow","st $$$and","in $$$side","ho $$$ld","year $$$s","r $$$est","$$$or $$$s","e $$$ach","$$$er $$$t","wor $$$ld","$$$ic $$$al","bl $$$ack","f $$$ar","m $$$outh","g $$$i","r $$$et","$$$ic $$$t","w $$$ind","as $$$s","see $$$med","b $$$re","$$$co $$$nd","fl $$$o","lo $$$ve","p $$$ass","sh $$$o","$$$un $$$g","h $$$ome","$$$re $$$am","may $$$be","$$$an $$$ge","$$$ar $$$ly","gir $$$l","d $$$ra","m $$$en","sm $$$il","ac $$$ross","se $$$cond","$$$i $$$er","wom $$$an","$$$dd $$$ed","f $$$am","$$$ing $$$s","$$$i $$$ble","o $$$b","de $$$ep","every $$$thing","in $$$c","$$$is $$$ed","man $$$y","k $$$ill","com $$$m","a $$$ir","$$$mo $$$st","bl $$$ood","arm $$$s","pull $$$ed","$$$um $$$p","$$$e $$$ver","$$$an $$$k","k $$$ind","$$$iz $$$ed","e $$$v","al $$$so","h $$$op","h $$$um","$$$ab $$$ly","d $$$iff","$$$s $$$h","p $$$ain","tr $$$ying","con $$$s","al $$$most","w $$$all","$$$ac $$$hed","b $$$it","d $$$ri","fo $$$ll","m $$$ust","s $$$ince","he $$$ard","f $$$ather","c $$$our","p $$$ers","$$$au $$$ght","m $$$on","$$$u $$$b","$$$us $$$ed","st $$$o","an $$$g","st $$$ood","$$$ul $$$t","b $$$ig","g $$$ave","bet $$$ter","m $$$other","m $$$or","$$$pp $$$ing","start $$$ed","ac $$$c","t $$$ra","g $$$ive","$$$ig $$$n","$$$re $$$ady","$$$i $$$ver","al $$$ready","my $$$self","qu $$$ick","d $$$ro","$$$en $$$se","i $$$nd","$$$get $$$her","g $$$reat","m $$$et","sm $$$ile","bel $$$ie","p $$$le","$$$p $$$le","y $$$et","$$$p $$$h","$$$an $$$c","st $$$u","d $$$on","$$$ot $$$t","fe $$$et","$$$at $$$er","$$$re $$$n","$$$ter $$$ed","$$$as $$$h","e $$$nt","$$$i $$$b","t $$$ried","$$$i $$$al","$$$ow $$$s","k $$$iss","d $$$one","$$$um $$$b","me $$$an","s $$$le","some $$$one","$$$re $$$w","s $$$im","p $$$a","to $$$gether","b $$$ar","su $$$pp","breat $$$h","cl $$$ose","$$$ain $$$ed","$$$s $$$w","con $$$f","l $$$ot","he $$$ld","le $$$g","se $$$en","wal $$$ked","wor $$$ds","in $$$v","$$$ow $$$ing","rem $$$em","$$$it $$$ion","r $$$a","el $$$se","d $$$ist","wat $$$er","e $$$d","r $$$ed","$$$us $$$hed","$$$ve $$$l","t $$$er","$$$ent $$$ly","$$$d $$$er","y $$$es","pl $$$ay","su $$$ch","$$$ct $$$ion","qu $$$est","$$$ull $$$y","ch $$$ar","wo $$$nder","$$$u $$$al","$$$ir $$$t","li $$$ps","d $$$ont","$$$ce $$$pt","an $$$sw","min $$$ut","t $$$ou","$$$ent $$$ion","m $$$a","sl $$$ow","h $$$ur","$$$as $$$on","$$$ect $$$ed","t $$$re","$$$an $$$e","$$$p $$$r","st $$$op","$$$is $$$hed","mo $$$ve","under $$$st","ha $$$lf","$$$ak $$$es","$$$it $$$her","flo $$$or","$$$m $$$s","$$$o $$$g","do $$$ing","$$$en $$$e","h $$$igh","h $$$our","$$$g $$$n","$$$in $$$ed","st $$$ep","no $$$dded","$$$b $$$o","st $$$ay","$$$ic $$$ked","m $$$iss","t $$$able","$$$ac $$$ed","al $$$ong","pers $$$on","e $$$as","$$$o $$$nd","in $$$f","th $$$in","her $$$self","p $$$ast","beg $$$an","f $$$our","exp $$$l","p $$$ol","ch $$$ild","id $$$e","b $$$us","$$$ate $$$ly","c $$$ol","$$$he $$$re","wh $$$ite","$$$i $$$et","a $$$w","f $$$ore","need $$$ed","$$$ep $$$t","g $$$one","po $$$ss","did $$$nt","re $$$c","fing $$$ers","$$$ation $$$s","pro $$$b","p $$$at","$$$e $$$k","b $$$ro","f $$$all","diff $$$er","$$$u $$$c","f $$$re","m $$$r","che $$$st","f $$$act","po $$$int","$$$dd $$$en","call $$$ed","$$$p $$$e","$$$ent $$$y","$$$gg $$$ed","res $$$p","so $$$on","$$$c $$$c","b $$$ad","pre $$$s","$$$g $$$ed","$$$ur $$$ed","he $$$ar","$$$er $$$ing","$$$ent $$$s","su $$$dden","e $$$s","l $$$ar","re $$$g","smil $$$ed","$$$n $$$y","p $$$ower","ret $$$urn","b $$$est","d $$$ire","f $$$ire","le $$$ast","get $$$ting","$$$ter $$$s","us $$$ed","mo $$$ved","n $$$ame","re $$$ached","prob $$$ably","c $$$ap","st $$$ra","re $$$f","$$$ri $$$e","$$$us $$$h","ey $$$e","m $$$aking","you $$$ng","$$$i $$$pped","$$$ou $$$nt","$$$id $$$d","cont $$$in","pre $$$ss","h $$$or","l $$$ater","sh $$$ook","se $$$c","de $$$ad","$$$in $$$s","$$$id $$$ed","com $$$ing","re $$$ad","$$$t $$$o","le $$$ave","e $$$ar","tal $$$k","r $$$an","f $$$ive","c $$$ra","g $$$round","fin $$$ally","sk $$$in","p $$$ar","o $$$h","sw $$$e","e $$$le","comp $$$le","co $$$ver","con $$$c","op $$$ened","s $$$y","v $$$is","le $$$an","$$$itt $$$ing","go $$$d","j $$$e","$$$ak $$$en","g $$$az","co $$$ll","m $$$ag","d $$$am","s $$$it","c $$$at","$$$ic $$$ally","$$$bb $$$ed","$$$re $$$t","fam $$$ily","l $$$ist","s $$$ix","$$$d $$$ay","day $$$s","to $$$p","u $$$se","$$$in $$$ess","feel $$$ing","$$$p $$$l","f $$$ight","me $$$m","sto $$$pped","pl $$$an","in $$$s","$$$et $$$s","d $$$et","$$$are $$$nt","for $$$ward","t $$$ight","de $$$m","k $$$ept","he $$$ll","$$$en $$$ing","d $$$el","$$$ap $$$s","cour $$$se","$$$m $$$an","h $$$ar","pr $$$ot","$$$he $$$n","sur $$$pr","$$$at $$$es","per $$$f","ide $$$a","a $$$p","$$$iz $$$e","$$$ut $$$h","f $$$ull","so $$$ft","ab $$$le","$$$an $$$ced","s $$$ch","g $$$en","$$$al $$$s","$$$f $$$ully","happ $$$ened","cou $$$nt","ph $$$one","h $$$ot","underst $$$and","$$$ious $$$ly","t $$$ri","j $$$ack","ha $$$ving","th $$$ir","ne $$$ck","c $$$ut","$$$ert $$$ain","b $$$es","should $$$er","l $$$and","fe $$$ll","ro $$$ll","belie $$$ve","$$$n $$$a","mor $$$ning","$$$o $$$ke","c $$$ent","$$$it $$$ed","$$$ure $$$s","r $$$u","t $$$aking","s $$$un","$$$o $$$c","m $$$us","bo $$$y","$$$ro $$$om","me $$$et","app $$$ear","$$$o $$$ck","p $$$ur","who $$$le","quick $$$ly","as $$$k","$$$he $$$ad","remem $$$ber","br $$$other","f $$$ill","sle $$$ep","ex $$$c","le $$$a","$$$u $$$ed","$$$as $$$ed","differ $$$ent","tim $$$es","$$$a $$$ut","$$$ur $$$ing","$$$o $$$y","act $$$ually","$$$i $$$o","bu $$$ild","$$$en $$$c","$$$f $$$ort","$$$t $$$en","clos $$$ed","su $$$b","ne $$$ar","$$$one $$$y","d $$$ou","slow $$$ly","f $$$ig","out $$$side","$$$e $$$ad","wat $$$ched","de $$$ath","d $$$ress","f $$$ree","$$$air $$$s","sh $$$ort","$$$g $$$er","h $$$it","quest $$$ion","co $$$ld","i $$$ll","b $$$ur","did $$$n","l $$$ess","tr $$$y","se $$$ver","st $$$ared","every $$$one","hum $$$an","gl $$$ass","gu $$$y","$$$a $$$pp","$$$t $$$on","hu $$$nd","li $$$ft","e $$$ither","hund $$$red","c $$$al","de $$$f","al $$$one","$$$at $$$t","o $$$k","ha $$$ll","$$$r $$$ic","f $$$ur","thin $$$king","$$$ip $$$s","* $$$*","re $$$ason","lau $$$gh","sudden $$$ly","bl $$$ue","$$$w $$$here","c $$$ertain","minut $$$es","l $$$ow","t $$$aken","$$$if $$$e","lo $$$st","tw $$$enty","$$$u $$$p","th $$$ro","$$$l $$$and","$$$ver $$$s","un $$$c","l $$$ay","$$$q $$$ue","l $$$ou","stand $$$ing","lar $$$ge","fo $$$ot","other $$$s","im $$$ag","$$$id $$$es","on $$$to","$$$u $$$g","wor $$$d","any $$$one","le $$$ad","$$$it $$$c","for $$$m","$$$ard $$$s","$$$a $$$x","e $$$ight","sch $$$ool","t $$$y","comple $$$te","s $$$ign","cont $$$ro","pre $$$t","$$$is $$$ter","inst $$$ead","mat $$$ter","$$$os $$$ed","be $$$aut","$$$ie $$$ld","$$$rou $$$ght","sh $$$ow","$$$ir $$$ed","m $$$ine","c $$$aught","$$$o $$$ve","tal $$$king","en $$$g","$$$g $$$hed","gaz $$$e","$$$am $$$es","$$$j $$$ect","str $$$ong","e $$$ff","k $$$ing","$$$in $$$es","qu $$$iet","$$$in $$$ted","t $$$en","re $$$ady","$$$ant $$$s","$$$et $$$h","s $$$ent","sh $$$ot","$$$p $$$ed","bre $$$ak","war $$$m","b $$$rought","$$$t $$$s","k $$$id","wal $$$k","$$$it $$$s","$$$k $$$en","wr $$$ong","$$$c $$$us","$$$m $$$m","g $$$un","$$$or $$$ed","hop $$$e","wind $$$ow","s $$$ense","say $$$s","leg $$$s","wait $$$ing","$$$e $$$e","ch $$$r","$$$i $$$ke","friend $$$s","$$$c $$$ess","pr $$$om","$$$id $$$ing","pret $$$ty","b $$$urn","$$$nd $$$ed","$$$il $$$ity","$$$se $$$l","ch $$$ap","ex $$$act","m $$$oney","$$$a $$$le","ag $$$o","p $$$ri","n $$$at","$$$ac $$$es","$$$ci $$$al","sever $$$al","$$$b $$$r","ent $$$ire","c $$$ross","h $$$es","lau $$$ghed","$$$nd $$$ing","sc $$$ream","$$$ac $$$ked","$$$ress $$$ion","wh $$$is","d $$$ad","le $$$ar","inter $$$est","l $$$ine","stra $$$ight","b $$$are","w $$$ood","$$$l $$$ic","l $$$a","me $$$ant","app $$$ro","br $$$ing","y $$$e","s $$$ing","$$$e $$$ks","gl $$$anced","$$$ie $$$w","ok $$$ay","qu $$$ite","f $$$un","b $$$ott","$$$ap $$$e","m $$$il","s $$$or","real $$$ized","answ $$$er","sh $$$irt","$$$as $$$ter","perf $$$ect","thro $$$at","$$$i $$$ence","$$$id $$$ent","$$$re $$$ad","$$$el $$$s","m $$$ess","mon $$$th","cons $$$id","hur $$$t","foll $$$owed","$$$ir $$$c","$$$or $$$n","th $$$r","ste $$$pped","s $$$itting","ch $$$air","$$$ot $$$ion","s $$$ort","jo $$$b","i $$$r","$$$is $$$on","$$$ang $$$ed","gi $$$ven","what $$$ever","w $$$in","fe $$$ar","hour $$$s","$$$r $$$act","b $$$ra","$$$ist $$$s","gr $$$in","$$$it $$$ies","a $$$dd","d $$$ream","dis $$$app","c $$$ase","hold $$$ing","wom $$$en","$$$ang $$$er","$$$m $$$ing","att $$$ention","wat $$$ching","c $$$reat","$$$ment $$$s","f $$$if","run $$$ning","se $$$at","c $$$ity","look $$$s","ad $$$m","b $$$ene","s $$$us","$$$ul $$$ar","contro $$$l","th $$$ous","thous $$$and","he $$$av","$$$art $$$h","re $$$co","long $$$er","$$$ic $$$ed","p $$$ap","li $$$ving","$$$ain $$$s","te $$$m","wat $$$ch","se $$$x","s $$$qu","c $$$irc","$$$bo $$$dy","c $$$ry","an $$$n","$$$b $$$ed","chap $$$ter","kn $$$own","up $$$on","$$$z $$$e","$$$op $$$e","de $$$al","cle $$$ar","$$$g $$$an","$$$ag $$$ed","c $$$re","h $$$un","sh $$$ut","cl $$$ot","to $$$wn","p $$$ushed","ab $$$ove","a $$$v","ro $$$ad","lean $$$ed","$$$r $$$or","ex $$$t","dire $$$ct","s $$$ens","p $$$al","tr $$$ans","$$$d $$$e","b $$$ag","de $$$v","p $$$ie","$$$z $$$y","rep $$$l","y $$$ell","$$$in $$$a","$$$ol $$$og","$$$h $$$aps","bus $$$iness","pro $$$ble","m $$$ur","gu $$$ess","b $$$ook","per $$$haps","gra $$$bbed","a $$$le","bes $$$ide","$$$ain $$$ing","$$$if $$$ul","tou $$$ch","v $$$amp","clos $$$er","$$$b $$$y","stre $$$et","exact $$$ly","with $$$in","$$$ot $$$s","b $$$ab","gre $$$en","should $$$ers","ch $$$ange","ro $$$ck","sh $$$ad","ap $$$art","sl $$$ight","tr $$$ue","$$$on $$$es","f $$$ast","gen $$$er","h $$$ung","ch $$$ance","w $$$ra","spe $$$ak","happ $$$y","$$$im $$$es","$$$is $$$ing","off $$$ice","o $$$pp","li $$$ve","m $$$ark","to $$$m","exp $$$er","p $$$os","$$$im $$$e","ro $$$se","ad $$$v","mo $$$ving","gra $$$nd","pass $$$ed","$$$er $$$g","$$$ist $$$ed","$$$ie $$$f","sh $$$if","cou $$$ple","m $$$ad","sk $$$y","$$$ant $$$ly","contin $$$ued","$$$in $$$et","r $$$ather","$$$u $$$gg","wor $$$king","st $$$ud","dou $$$b","dro $$$pped","to $$$r","de $$$p","o $$$cc","k $$$itc","ar $$$ri","dec $$$ided","kitc $$$hen","imp $$$ort","g $$$rou","st $$$om","sh $$$ru","$$$i $$$ent","beaut $$$iful","$$$as $$$hed","fill $$$ed","$$$in $$$y","$$$ter $$$n","prot $$$ect","g $$$ri","p $$$ay","vamp $$$ire","$$$ut $$$e","d $$$in","$$$on $$$y","s $$$ig","es $$$c","te $$$ars","st $$$ory","bec $$$ome","$$$i $$$k","$$$h $$$o","$$$u $$$ct","jo $$$h","n $$$um","l $$$aw","cou $$$n","f $$$ood","j $$$ump","go $$$ld","p $$$et","sm $$$ell","p $$$arent","s $$$am","lo $$$ved","ple $$$ase","$$$st $$$er","s $$$ou","beg $$$in","say $$$ing","$$$at $$$ive","$$$te $$$en","sa $$$fe","$$$ar $$$r","$$$med $$$i","$$$a $$$pped","m $$$ed","i $$$gn","ra $$$ised","$$$sel $$$ves","you $$$re","$$$er $$$v","br $$$ight","$$$s $$$on","ch $$$o","f $$$ine","con $$$n","$$$ou $$$n","build $$$ing","tr $$$uth","ab $$$s","at $$$te","im $$$medi","e $$$arth","$$$c $$$hes","c $$$e","cor $$$ner","$$$n $$$ight","d $$$uring","s $$$ight","so $$$l","$$$p $$$ly","fing $$$er","complete $$$ly","ar $$$t","lea $$$ving","s $$$on","w $$$ide","st $$$ate","toward $$$s","p $$$ict","$$$ain $$$t","tr $$$ust","sor $$$ry","cl $$$ass","ob $$$v","sh $$$ar","$$$an $$$y","chr $$$ist","h $$$on","joh $$$n","cr $$$ow","em $$$pt","$$$ic $$$es","sec $$$ret","poss $$$ible","$$$c $$$es","m $$$ir","$$$l $$$ight","ed $$$ge","cap $$$t","child $$$ren","sp $$$oke","r $$$ound","$$$at $$$or","exp $$$ression","$$$un $$$ch","or $$$der","lo $$$c","lift $$$ed","bo $$$x","ye $$$ah","ne $$$arly","$$$ll $$$y","see $$$ing","sil $$$ence","d $$$est","af $$$f","$$$idd $$$le","was $$$nt","$$$am $$$ed","$$$u $$$es","$$$or $$$ies","g $$$as","$$$ac $$$ing","$$$g $$$ing","that $$$s","$$$il $$$t","$$$if $$$ic","s $$$al","we $$$ek","$$$m $$$a","stom $$$ach","$$$b $$$s","l $$$ed","n $$$ice","con $$$vers","stu $$$ff","t $$$rou","$$$ud $$$e","m $$$akes","n $$$orm","cl $$$im","d $$$a","$$$it $$$al","how $$$ever","bec $$$ame","$$$a $$$ked","l $$$ate","than $$$k","wal $$$king","n $$$inet","l $$$u","$$$an $$$n","p $$$icked","$$$ic $$$s","$$$l $$$er","dra $$$w","ex $$$cept","cl $$$a","co $$$ff","s $$$ister","th $$$ick","pro $$$f","se $$$ar","num $$$ber","st $$$aring","b $$$ill","m $$$ill","bene $$$ath","gu $$$ard","$$$le $$$y","parent $$$s","f $$$le","wor $$$ked","return $$$ed","h $$$ang","$$$v $$$ent","m $$$iddle","$$$ru $$$pt","somet $$$imes","know $$$ing","$$$il $$$i","ple $$$as","to $$$ng","s $$$que","sp $$$ace","$$$l $$$o","$$$er $$$n","$$$us $$$hing","swe $$$et","cle $$$an","ale $$$x","b $$$ir","sh $$$out","sp $$$ot","st $$$ri","d $$$anger","kill $$$ed","thought $$$s","new $$$s","dr $$$ink","str $$$ange","c $$$am","b $$$all","d $$$an","see $$$m","l $$$it","te $$$eth","fig $$$ure","$$$u $$$ff","m $$$er","en $$$j","not $$$iced","$$$m $$$e","$$$z $$$z","g $$$ar","inf $$$orm","$$$th $$$ough","appear $$$ed","l $$$im","for $$$g","st $$$one","clot $$$hes","fr $$$own","e $$$at","al $$$though","m $$$ist","wait $$$ed","$$$in $$$c","set $$$t","b $$$en","$$$rie $$$f","$$$anc $$$es","$$$it $$$ing","$$$al $$$ed","gr $$$ow","po $$$ck","$$$he $$$l","exp $$$ect","j $$$er","gi $$$ving","con $$$st","$$$or $$$k","import $$$ant","w $$$ife","g $$$ro","immedi $$$ately","press $$$ed","happ $$$en","do $$$g","dam $$$n","d $$$ie","sp $$$r","st $$$ro","grou $$$p","empt $$$y","v $$$iew","eas $$$y","$$$er $$$ic","$$$is $$$ion","$$$g $$$r","$$$ci $$$ally","heav $$$y","to $$$day","roll $$$ed","com $$$fort","wonder $$$ed","$$$o $$$on","s $$$ad","cover $$$ed","month $$$s","dri $$$ve","for $$$ce","sm $$$o","$$$it $$$ch","supp $$$osed","des $$$k","b $$$as","$$$ver $$$n","$$$un $$$t","$$$m $$$pt","sus $$$p","p $$$ub","$$$un $$$k","girl $$$s","des $$$p","crow $$$d","s $$$ar","$$$m $$$b","ter $$$ri","$$$ag $$$es","turn $$$ing","lou $$$d","m $$$ount","any $$$way","sh $$$it","tong $$$ue","bab $$$y","so $$$ld","p $$$an","f $$$a","sing $$$le","bare $$$ly","att $$$ack","part $$$ic","c $$$ast","inc $$$l","$$$s $$$ing","am $$$eric","off $$$ic","$$$ad $$$ed","gr $$$ay","reco $$$gn","c $$$ant","v $$$ict","$$$sh $$$ip","pr $$$act","proble $$$m","p $$$ick","sig $$$hed","of $$$ten","coff $$$ee","or $$$d","d $$$ied","v $$$al","sim $$$ply","pap $$$er","disapp $$$ear","no $$$se","po $$$inted","be $$$y","se $$$lf","convers $$$ation","step $$$s","ch $$$anged","$$$i $$$or","re $$$le","kiss $$$ed","$$$in $$$ation","could $$$nt","b $$$oo","pol $$$ice","bey $$$ond","$$$is $$$m","sp $$$ent","$$$ic $$$king","sa $$$nd","co $$$nd","thir $$$ty","whe $$$ther","e $$$arly","sl $$$id","e $$$r","f $$$air","t $$$all","es $$$pe","p $$$ack","tell $$$ing","m $$$ass","$$$ut $$$ion","gu $$$ys","br $$$own","$$$h $$$ow","con $$$v","$$$ot $$$e","g $$$e","surpr $$$ised","$$$at $$$s","che $$$ek","espe $$$cially","$$$s $$$ed","w $$$ild","$$$ra $$$id","j $$$ul","minut $$$e","we $$$aring","dire $$$ction","$$$s $$$y","wor $$$ry","$$$e $$$y","rem $$$ind","$$$al $$$th","shru $$$gged","know $$$s","are $$$a","c $$$ell","af $$$raid","ser $$$v","an $$$im","$$$b $$$ered","su $$$mm","inform $$$ation","f $$$ly","$$$il $$$ing","was $$$n","c $$$as","sit $$$u","b $$$ath","th $$$row","mus $$$c","com $$$es","b $$$le","l $$$uck","n $$$one","$$$il $$$ed","$$$ou $$$ght","ac $$$cept","$$$l $$$a","hu $$$ge","d $$$en","dis $$$c","kne $$$es","an $$$t","$$$ne $$$y","p $$$ath","$$$u $$$se","sh $$$ip","slight $$$ly","u $$$r","th $$$reat","$$$ct $$$or","them $$$selves","li $$$ked","b $$$att","en $$$c","r $$$ing","re $$$ach","$$$st $$$em","se $$$ven","on $$$es","pre $$$p","$$$le $$$t","r $$$ich","t $$$iny","$$$ter $$$ing","ear $$$l","doub $$$t","d $$$aught","your $$$self","wall $$$s","$$$ail $$$s","$$$c $$$king","am $$$ong","her $$$s","some $$$how","we $$$ap","whis $$$p","$$$p $$$id","tre $$$es","$$$nd $$$s","$$$co $$$ver","$$$ur $$$al","pri $$$v","me $$$l","sou $$$l","sy $$$stem","le $$$vel","d $$$rew","pos $$$ition","$$$c $$$ious","me $$$ans","ev $$$ent","to $$$w","r $$$is","$$$ac $$$hing","to $$$night","head $$$ed","$$$id $$$ence","he $$$at","c $$$ool","l $$$uc","car $$$ry","foll $$$ow","h $$$us","f $$$ut","bro $$$ken","r $$$id","we $$$eks","$$$re $$$s","m $$$ain","count $$$ry","t $$$ast","$$$m $$$y","che $$$ck","v $$$i","pro $$$v","sound $$$ed","$$$er $$$m","door $$$s","pro $$$d","sp $$$read","dark $$$ness","t $$$ree","$$$b $$$and","pull $$$ing","ar $$$g","v $$$an","fur $$$ther","stre $$$t","c $$$amp","c $$$op","re $$$qu","dist $$$ance","pl $$$aced","sh $$$all","remem $$$bered","$$$in $$$ing","su $$$per","bed $$$room","his $$$t","comm $$$and","st $$$airs","a $$$head","l $$$ady","part $$$y","$$$o $$$ss","tou $$$ched","exp $$$ected","$$$en $$$g","$$$oo $$$f","t $$$est","wor $$$se","l $$$ord","f $$$av","c $$$ab","it $$$self","e $$$qu","second $$$s","dem $$$and","$$$i $$$pp","$$$ect $$$ion","see $$$ms","h $$$ed","$$$umb $$$led","kid $$$s","$$$i $$$am","al $$$ive","$$$h $$$a","$$$ib $$$ly","sp $$$l","t $$$u","some $$$where","$$$os $$$p","cal $$$m","$$$ous $$$ly","sc $$$r","quest $$$ions","surpr $$$ise","n $$$ort","r $$$ad","fin $$$ished","$$$c $$$ri","man $$$aged","wra $$$pped","$$$bb $$$ing","b $$$rief","g $$$ather","us $$$ing","g $$$ame","w $$$ol","stu $$$pid","$$$ort $$$ed","shar $$$p","$$$itt $$$ed","be $$$at","str $$$ugg","$$$or $$$ing","re $$$act","th $$$rew","p $$$en","f $$$ield","repl $$$ied","w $$$ound","ob $$$s","sil $$$ent","te $$$am","sp $$$ir","s $$$ir","pie $$$ce","mag $$$ic","ang $$$er","cle $$$arly","pock $$$et","atte $$$mpt","t $$$ar","su $$$gg","$$$i $$$en","a $$$ge","comm $$$un","sugg $$$est","p $$$op","$$$ap $$$ed","we $$$ak","b $$$ull","sur $$$round","$$$ri $$$es","bro $$$ke","r $$$ain","$$$m $$$ore","m $$$ention","$$$i $$$ans","pres $$$ent","en $$$erg","sw $$$all","ph $$$ys","br $$$ain","mr $$$s","bott $$$om","$$$ation $$$al","for $$$ced","bel $$$ow","p $$$ot","n $$$or","st $$$ar","dra $$$g","cra $$$zy","enj $$$oy","stre $$$ng","m $$$is","li $$$ved","sque $$$e","$$$om $$$ing","$$$ive $$$ly","$$$et $$$y","su $$$ff","fr $$$o","$$$in $$$ite","$$$if $$$t","$$$i $$$ves","go $$$vern","j $$$ud","li $$$e","daught $$$er","s $$$ick","situ $$$ation","trou $$$ble","to $$$t","$$$al $$$ing","p $$$ort","- $$$-","$$$ac $$$y","f $$$ail","din $$$ner","$$$f $$$er","inv $$$ol","e $$$st","sur $$$v","st $$$are","hes $$$it","$$$ri $$$g","t $$$akes","meet $$$ing","se $$$a","sil $$$ver","g $$$ent","ang $$$ry","fut $$$ure","wor $$$th","$$$k $$$y","cat $$$ch","g $$$ently","$$$z $$$ed","for $$$get","p $$$ound","l $$$ab","p $$$un","bo $$$d","$$$ili $$$ar","as $$$h","mus $$$ic","comp $$$any","d $$$av","dis $$$cover","b $$$al","w $$$ish","app $$$arent","li $$$p","hus $$$band","pro $$$per","$$$es $$$h","sh $$$owed","$$$i $$$ved","$$$is $$$hing","b $$$ow","des $$$per","sl $$$am","bl $$$ank","eff $$$ect","$$$c $$$y","$$$in $$$king","do $$$ll","j $$$aw","arri $$$ved","r $$$iver","to $$$ne","l $$$ying","$$$ess $$$ion","b $$$and","energ $$$y","$$$im $$$ed","pro $$$p","ke $$$y","$$$i $$$pping","$$$ur $$$y","s $$$igh","h $$$ide","wa $$$ist","earl $$$ier","desp $$$ite","pa $$$used","gre $$$w","w $$$et","$$$o $$$b","n $$$ine","want $$$s","eff $$$ort","cl $$$ou","whisp $$$ered","aw $$$are","diff $$$ic","inv $$$est","$$$o $$$d","d $$$im","lo $$$ck","i $$$ce","v $$$ar","m $$$id","wor $$$ried","u $$$nd","even $$$ing","be $$$ll","$$$g $$$es","got $$$ten","we $$$ight","sound $$$s","ser $$$ious","keep $$$ing","w $$$ed","rel $$$ation","$$$ig $$$g","$$$at $$$ic","mat $$$t","a $$$h","i $$$ve","certain $$$ly","t $$$reat","li $$$ves","thir $$$d","$$$y $$$l","in $$$n","tr $$$ack","$$$ag $$$er","n $$$ick","$$$ress $$$ed","sa $$$ve","streng $$$th","rem $$$ained","cross $$$ed","b $$$ase","em $$$b","f $$$u","ninet $$$een","sl $$$ipped","m $$$as","ass $$$um","e $$$ars","$$$z $$$en","light $$$s","could $$$n","sw $$$ord","play $$$ing","pub $$$lic","f $$$il","n $$$erv","sh $$$aking","imag $$$ine","o $$$dd","batt $$$le","sc $$$re","to $$$ss","ch $$$in","person $$$al","eye $$$b","norm $$$al","fo $$$ld","c $$$oo","pict $$$ure","po $$$or","av $$$o","ch $$$uck","all $$$owed","l $$$ower","$$$a $$$el","begin $$$ning","spe $$$c","re $$$v","am $$$az","$$$us $$$ion","p $$$air","vis $$$it","ma $$$j","spe $$$cial","$$$re $$$nt","sn $$$ow","us $$$ually","en $$$tered","p $$$u","h $$$at","cont $$$act","sur $$$f","hand $$$ed","bo $$$ys","care $$$fully","re $$$ve","fo $$$cus","lo $$$cked","$$$r $$$ation","obv $$$iously","answ $$$ered","$$$er $$$a","$$$as $$$ing","$$$le $$$ct","$$$o $$$ld","dress $$$ed","resp $$$ond","$$$ow $$$ers","$$$in $$$ct","re $$$ce","fl $$$at","pleas $$$ure","l $$$ap","su $$$cc","j $$$en","tr $$$uck","$$$iz $$$ing","ele $$$ct","gl $$$ad","$$$idd $$$en","incl $$$ud","fre $$$sh","po $$$st","for $$$t","mo $$$on","cour $$$t","rel $$$ax","eas $$$ily","hop $$$ed","t $$$un","d $$$u","met $$$al","any $$$more","foll $$$owing","ph $$$ot","ma $$$x","hor $$$se","coun $$$ter","vi $$$ol","ind $$$e","not $$$ice","jump $$$ed","$$$ch $$$o","$$$us $$$ing","mem $$$ory","d $$$ar","m $$$ut","apart $$$ment","ag $$$ree","$$$is $$$es","d $$$om","m $$$al","t $$$ired","h $$$ill","gl $$$ance","$$$ust $$$ed","tal $$$ked","$$$l $$$ine","w $$$ore","do $$$ctor","help $$$ed","dem $$$on","$$$i $$$ers","smil $$$ing","$$$ur $$$ity","$$$f $$$ied","$$$pp $$$er","che $$$eks","gent $$$le","$$$enc $$$y","she $$$d","f $$$ix","$$$vel $$$op","$$$or $$$row","fam $$$iliar","lo $$$se","a $$$dded","boo $$$ks","$$$ro $$$y","$$$c $$$on","fif $$$ty","sim $$$ple","w $$$id","$$$p $$$ect","real $$$ize","like $$$ly","$$$anc $$$ing","breat $$$hing","not $$$e","c $$$and","go $$$es","$$$if $$$ied","gr $$$ace","c $$$up","$$$or $$$ge","m $$$aster","exper $$$ience","m $$$otion","cho $$$ice","col $$$or","cent $$$er","fight $$$ing","lear $$$ned","w $$$ip","stu $$$dy","des $$$ire","fe $$$m","def $$$inite","$$$k $$$es","h $$$osp","sho $$$ot","cr $$$ack","d $$$ry","un $$$iver","way $$$s","let $$$ting","te $$$ch","h $$$y","eyeb $$$row","h $$$ol","bath $$$room","list $$$en","car $$$ried","pro $$$cess","$$$p $$$ing","r $$$om","$$$l $$$s","p $$$ill","$$$en $$$a","un $$$e","$$$b $$$ers","$$$a $$$ff","spe $$$ed","b $$$at","b $$$other","em $$$otion","$$$s $$$et","supp $$$ort","ne $$$ither","sc $$$ar","$$$ay $$$ed","pa $$$le","$$$id $$$ge","m $$$ot","pol $$$it","st $$$ore","pe $$$ace","det $$$erm","as $$$ide","$$$enc $$$es","e $$$ll","is $$$s","ro $$$b","grin $$$ned","n $$$ar","$$$in $$$al","e $$$ur","$$$u $$$ly","r $$$y","gener $$$al","get $$$s","laugh $$$ing","than $$$ks","p $$$in","qu $$$een","stay $$$ed","st $$$ick","as $$$king","frown $$$ed","te $$$le","$$$led $$$ge","kn $$$ife","$$$il $$$s","dis $$$cus","diffic $$$ult","old $$$er","fir $$$m","nort $$$h","su $$$it","j $$$ames","bur $$$st","$$$ri $$$an","hist $$$ory","fl $$$esh","f $$$it","g $$$est","f $$$uck","off $$$ered","$$$r $$$it","p $$$ush","$$$y $$$n","shad $$$ow","n $$$a","fav $$$or","w $$$on","fall $$$ing","apparent $$$ly","sho $$$ck","power $$$ful","l $$$ad","after $$$n","p $$$ark","$$$gg $$$ing","lear $$$n","hop $$$ing","fore $$$head","$$$g $$$o","sec $$$urity","moment $$$s","scre $$$en","will $$$ing","comp $$$ut","v $$$er","$$$ent $$$al","$$$re $$$ed","p $$$our","c $$$ried","$$$st $$$r","capt $$$ain","$$$p $$$ar","$$$itt $$$en","dav $$$id","h $$$en","des $$$er","swe $$$at","se $$$nd","o $$$l","ang $$$el","hon $$$est","expl $$$ain","en $$$em","l $$$ang","$$$c $$$ent","rep $$$e","definite $$$ly","wind $$$ows","hosp $$$ital","e $$$th","for $$$ty","rep $$$ort","bod $$$ies","m $$$ich","ch $$$ur","dro $$$ve","$$$on $$$ed","hand $$$le","h $$$ate","$$$ar $$$a","$$$it $$$ive","$$$ol $$$ute","im $$$m","$$$in $$$ked","d $$$iv","$$$ir $$$d","fore $$$st","$$$c $$$ing","v $$$ill","aftern $$$oon","underst $$$ood","open $$$ing","$$$y $$$le","turn $$$s","dro $$$p","s $$$outh","en $$$ter","wol $$$f","$$$s $$$es","m $$$ach","$$$d $$$ing","need $$$s","quiet $$$ly","$$$an $$$a","shout $$$ed","end $$$ed","$$$m $$$en","$$$ast $$$ic","r $$$ac","sh $$$are","ex $$$ist","coll $$$e","ne $$$cess","imp $$$oss","$$$ent $$$ed","tom $$$orrow","event $$$ually","he $$$a","consid $$$er","pl $$$aces","put $$$ting","rel $$$ief","$$$iss $$$ion","d $$$ig","sett $$$led","$$$v $$$al","gr $$$owing","no $$$ise","$$$st $$$on","prom $$$ise","$$$ro $$$d","mo $$$v","who $$$se","u $$$t","pur $$$p","un $$$f","de $$$fe","w $$$est","st $$$ation","$$$j $$$a","mil $$$es","consid $$$ered","$$$an $$$ed","$$$on $$$se","esc $$$ape","a $$$uth","c $$$ause","r $$$ul","$$$u $$$ce","$$$l $$$ike","$$$l $$$ish","$$$ad $$$ing","$$$as $$$hing","d $$$ust","mess $$$age","l $$$at","relation $$$ship","st $$$uck","hang $$$ing","h $$$ated","c $$$ard","des $$$cri","$$$c $$$ome","b $$$ent","comm $$$on","pr $$$ison","j $$$ake","we $$$l","bes $$$ides","fr $$$ank","pre $$$te","m $$$ere","$$$l $$$in","$$$r $$$ight","start $$$ing","a $$$ud","$$$ru $$$ct","a $$$ut","sn $$$apped","la $$$id","char $$$l","$$$ad $$$es","l $$$eng","sat $$$is","de $$$velop","$$$i $$$el","eur $$$ope","v $$$ol","danger $$$ous","$$$r $$$al","bl $$$ond","$$$as $$$ion","bott $$$le","app $$$re","fin $$$al","$$$or $$$ds","ent $$$r","summ $$$er","th $$$igh","$$$o $$$ved","bo $$$ard","would $$$nt","$$$am $$$ing","ag $$$reed","$$$ib $$$ility","chur $$$ch","dest $$$roy","abs $$$olute","govern $$$ment","sh $$$ake","priv $$$ate","fl $$$ash","tech $$$n","disappear $$$ed","$$$am $$$b","ar $$$r","cou $$$ch","opp $$$os","sm $$$oke","for $$$th","soft $$$ly","be $$$ar","ad $$$am","as $$$ks","is $$$land","o $$$w","pa $$$ul","$$$at $$$tered","com $$$b","resp $$$onse","shif $$$ted","je $$$ans","r $$$ap","or $$$gan","$$$uc $$$king","resp $$$ect","sh $$$op","read $$$ing","pres $$$ence","int $$$e","t $$$ens","ho $$$le","bl $$$ock","$$$olog $$$y","$$$c $$$her","mar $$$ried","$$$n $$$ers","belie $$$ved","$$$ll $$$ed","p $$$ink","succ $$$ess","bl $$$ind","$$$u $$$dd","sc $$$ared","$$$s $$$ion","surf $$$ace","gri $$$p","bel $$$ong","$$$m $$$er","mur $$$der","j $$$am","inc $$$re","h $$$ig","fore $$$ver","id $$$ent","$$$i $$$us","le $$$ather","we $$$ar","$$$ill $$$ed","$$$ac $$$her","h $$$ips","$$$o $$$cked","want $$$ing","$$$he $$$t","op $$$er","g $$$ard","gu $$$ards","$$$ic $$$a","mir $$$ror","cl $$$ub","$$$id $$$s","ext $$$ra","j $$$our","gr $$$ass","fif $$$teen","n $$$umb","t $$$a","direct $$$ly","nar $$$row","us $$$ual","happ $$$ening","s $$$ong","find $$$ing","e $$$cho","$$$p $$$or","$$$h $$$ood","$$$h $$$y","$$$er $$$ial","f $$$ool","off $$$er","wonder $$$ing","$$$r $$$id","$$$l $$$t","co $$$st","$$$i $$$um","mar $$$y","miss $$$ed","$$$u $$$ced","arm $$$y","leng $$$th","gr $$$im","p $$$ul","play $$$ed","sc $$$ent","tr $$$uly","st $$$orm","maj $$$or","bus $$$y","resp $$$ons","scream $$$ed","all $$$ow","hor $$$ri","m $$$art","comp $$$l","inter $$$n","vis $$$ion","burn $$$ing","$$$a $$$ly","acc $$$om","ch $$$ang","$$$p $$$ort","th $$$umb","w $$$ine","hum $$$ans","un $$$s","tw $$$isted","bu $$$ilt","b $$$ound","miss $$$ing","spe $$$nd","m $$$ort","sub $$$ject","$$$ar $$$m","$$$ant $$$ed","spe $$$aking","c $$$ass","call $$$ing","burn $$$ed","sa $$$v","cur $$$rent","auth $$$or","un $$$less","b $$$an","nerv $$$ous","fre $$$y","imposs $$$ible","$$$r $$$on","h $$$idden","$$$as $$$m","so $$$cial","hard $$$er","$$$ber $$$t","s $$$ides","co $$$ck","$$$st $$$airs","yell $$$ow","ne $$$igh","r $$$ough","tast $$$e","we $$$ird","$$$ump $$$ed","ob $$$ject","s $$$ize","$$$y $$$al","$$$ra $$$ge","mich $$$ael","sh $$$ower","$$$b $$$ing","f $$$at","feel $$$ings","conc $$$er","$$$re $$$ct","neigh $$$b","f $$$aces","$$$us $$$s","r $$$ide","$$$g $$$ress","j $$$on","hall $$$way","fe $$$at","move $$$ment","$$$ri $$$age","$$$b $$$all","$$$ott $$$en","dri $$$ft","m $$$ike","cra $$$w","fall $$$en","w $$$and","obv $$$ious","sh $$$iver","americ $$$an","ir $$$on","hot $$$el","o $$$rig","$$$bb $$$y","smo $$$oth","shad $$$ows","$$$pt $$$ion","whe $$$el","does $$$n","conc $$$ern","p $$$ushing","st $$$ates","he $$$alth","tri $$$p","spir $$$it","b $$$orn","$$$a $$$ld","b $$$uck","$$$in $$$ting","p $$$ants","bro $$$ad","know $$$ledge","nat $$$ure","$$$ic $$$ious","$$$i $$$ally","g $$$ab","$$$r $$$ing","f $$$ully","sold $$$iers","p $$$sy","fig $$$ured","$$$et $$$t","comput $$$er","invol $$$ved","je $$$w","head $$$s","$$$or $$$med","bir $$$th","wa $$$ved","pal $$$m","wa $$$ve","pet $$$er","n $$$on","$$$o $$$v","d $$$ance","r $$$ub","list $$$ening","se $$$par","no $$$body","str $$$uck","$$$rie $$$nd","p $$$ier","let $$$s","entr $$$ance","co $$$at","contin $$$ue","$$$oo $$$se","j $$$os","mo $$$d","f $$$aint","would $$$n","loo $$$se","rec $$$ord","ar $$$ch","unc $$$le","reg $$$ard","$$$ort $$$un","$$$le $$$ep","th $$$om","$$$nd $$$on","$$$a $$$ur","pa $$$id","gra $$$b","$$$il $$$ar","am $$$b","im $$$age","f $$$ren","there $$$s","k $$$at","$$$re $$$st","$$$u $$$it","$$$pl $$$oy","cr $$$u","opp $$$ortun","m $$$ic","as $$$leep","l $$$ines","w $$$ake","clim $$$bed","$$$iz $$$ation","de $$$b","pres $$$ident","inde $$$ed","$$$ce $$$ed","$$$it $$$ary","j $$$im","$$$g $$$s","d $$$ate","f $$$ought","swall $$$owed","sp $$$o","tr $$$ick","s $$$our","mill $$$ion","sleep $$$ing","de $$$ar","dec $$$ision","jack $$$et","g $$$ate","w $$$ished","fr $$$ust","ph $$$il","sp $$$ell","$$$r $$$ated","ev $$$il","dist $$$ract","whis $$$per","qu $$$ar","expl $$$ained","$$$rou $$$d","acc $$$ount","bu $$$y","appro $$$ached","purp $$$ose","$$$w $$$ise","frey $$$ja","p $$$or","att $$$ract","ris $$$k","$$$el $$$ess","sho $$$es","$$$ing $$$ing","eng $$$ine","dr $$$ug","conf $$$used","$$$ell $$$e","circ $$$le","$$$ab $$$les","no $$$d","cl $$$ock","fo $$$c","sc $$$ene","ce $$$iling","cl $$$en","n $$$arr","thr $$$ust","jo $$$y","$$$w $$$ork","$$$om $$$b","most $$$ly","tr $$$ain","res $$$ult","$$$ag $$$ue","p $$$ant","ch $$$all","bre $$$ast","j $$$es","$$$un $$$e","door $$$way","int $$$ell","he $$$aring","cl $$$ut","j $$$ason","del $$$iver","hun $$$ter","har $$$ry","te $$$a","st $$$at","dri $$$ving","vampire $$$s","$$$w $$$h","d $$$ut","care $$$ful","$$$less $$$ly","feel $$$s","any $$$where","am $$$ount","musc $$$les","hard $$$ly","un $$$able","does $$$nt","n $$$ur","te $$$xt","$$$ward $$$s","bl $$$inked","perfect $$$ly","in $$$j","inc $$$red","foc $$$used","bo $$$at","f $$$aster","tw $$$el","act $$$ion","el $$$b","weap $$$on","adm $$$it","$$$arr $$$ass","fe $$$ed","lau $$$ght","mem $$$ories","terri $$$ble","appre $$$ci","tra $$$il","fl $$$ick","anim $$$al","$$$ess $$$ed","loc $$$al","p $$$ool","$$$ig $$$ned","emb $$$arrass","g $$$er","$$$re $$$me","be $$$ast","poss $$$ibly","lang $$$u","pie $$$ces","f $$$ist","lean $$$ing","t $$$ip","$$$c $$$ul","ru $$$bbed","t $$$ur","ty $$$pe","$$$n $$$s","nat $$$ural","ma $$$le","eth $$$an","$$$ic $$$le","$$$ens $$$ive","she $$$s","sar $$$ah","$$$om $$$fort","ex $$$am","l $$$ung","had $$$nt","b $$$ank","st $$$ories","bl $$$ow","h $$$om","$$$og $$$ra","wh $$$om","$$$bo $$$ard","laught $$$er","r $$$oof","$$$n $$$el","oppos $$$ite","fly $$$ing","sho $$$ved","c $$$u","dep $$$art","fle $$$w","an $$$ci","let $$$ter","interest $$$ed","lea $$$ves","mem $$$bers","jo $$$ined","occ $$$asion","$$$ho $$$st","tw $$$ice","$$$as $$$k","squ $$$are","$$$it $$$ions","pre $$$v","se $$$vent","war $$$ri","wood $$$en","$$$g $$$round","bl $$$ade","low $$$ered","gold $$$en","$$$om $$$ed","slam $$$med","toss $$$ed","$$$i $$$ot","tra $$$ve","includ $$$ing","$$$ar $$$ily","g $$$host","r $$$ising","$$$e $$$nd","f $$$aced","sp $$$ark","$$$o $$$int","real $$$ity","sc $$$ra","an $$$x","gr $$$as","$$$oun $$$ced","p $$$it","ca $$$used","ne $$$g","brother $$$s","$$$g $$$y","sh $$$ape","so $$$ph","vict $$$or","i $$$v","$$$iv $$$id","yell $$$ed","$$$h $$$ip","interest $$$ing","n $$$aked","jo $$$in","st $$$age","remind $$$ed","sh $$$a","r $$$ush","l $$$unch","sw $$$ung","n $$$er","war $$$ning","$$$est $$$s","$$$um $$$ent","concer $$$ned","fr $$$ight","dis $$$g","a $$$unt","$$$c $$$er","tre $$$mb","a $$$id","invest $$$ig","stret $$$ched","but $$$ton","sear $$$ch","t $$$ent","re $$$aching","$$$ul $$$arly","forg $$$otten","k $$$icked","cla $$$im","inst $$$antly","sure $$$ly","st $$$iff","cry $$$ing","comfort $$$able","ev $$$idence","tot $$$ally","be $$$er","w $$$it","a $$$ri","d $$$ir","r $$$ay","inn $$$oc","$$$it $$$ude","y $$$ork","che $$$cked","fun $$$ny","$$$w $$$ell","conc $$$ent","m $$$ac","$$$al $$$ity","so $$$f","$$$ic $$$ate","amaz $$$ing","luck $$$y","gre $$$y","wr $$$ist","dri $$$ver","t $$$il","twel $$$ve","pan $$$ic","partic $$$ular","fl $$$ight","pr $$$ed","inst $$$inct","wor $$$st","e $$$ast","comp $$$an","so $$$ci","r $$$ushed","e $$$ating","j $$$ess","kill $$$ing","s $$$an","demand $$$ed","$$$ent $$$ial","cle $$$ared","sa $$$f","fem $$$ale","$$$es $$$e","$$$g $$$ar","$$$c $$$il","ele $$$v","$$$um $$$e","sm $$$art","$$$ck $$$s","wr $$$itten","$$$are $$$t","pre $$$c","f $$$al","breat $$$he","go $$$ds","creat $$$ure","l $$$ake","recogn $$$ized","anci $$$ent","tra $$$vel","ad $$$j","r $$$ang","ho $$$st","p $$$ad","what $$$s","c $$$ust","stud $$$ied","$$$d $$$om","d $$$i","$$$f $$$ast","$$$gr $$$am","m $$$ix","prep $$$ared","avo $$$id","mag $$$n","be $$$th","gi $$$ant","ey $$$ed","$$$ath $$$an","$$$v $$$in","list $$$ened","b $$$ite","l $$$ack","har $$$m","st $$$aff","char $$$ac","m $$$ood","pl $$$ate","entire $$$ly","had $$$n","rele $$$ased","serv $$$ice","g $$$ut","carry $$$ing","$$$d $$$en","$$$ll $$$ing","hen $$$ry","bo $$$ots","br $$$ushed","c $$$rew","w $$$ont","$$$and $$$a","squee $$$zed","ign $$$ored","occ $$$ur","p $$$roud","$$$ot $$$ions","pr $$$ay","weap $$$ons","$$$n $$$ot","h $$$iding","jo $$$e","sol $$$id","react $$$ion","mean $$$ing","gr $$$own","ex $$$ha","dis $$$m","hig $$$her","be $$$ach","$$$u $$$ing","$$$anc $$$y","phys $$$ical","c $$$iv","z $$$ane","$$$b $$$it","$$$ep $$$s","h $$$ous","sn $$$e","colle $$$ge","exc $$$ited","cl $$$aw","eight $$$een","ste $$$el","v $$$ir","mount $$$ain","s $$$ac","r $$$are","$$$ag $$$ged","$$$z $$$ing","wood $$$s","b $$$ast","$$$u $$$nder","dec $$$l","deep $$$er","thom $$$as","r $$$and","$$$h $$$am","b $$$ones","pro $$$ject","con $$$te","ste $$$ady","dou $$$ble","rac $$$hel","r $$$ise","$$$i $$$que","$$$ul $$$ation","em $$$otions","$$$ul $$$ous","b $$$ol","ter $$$m","$$$ist $$$ic","t $$$ick","bre $$$aking","un $$$b","mat $$$erial","rem $$$oved","$$$ant $$$ic","$$$am $$$a","eng $$$lish","head $$$ing","acc $$$ord","$$$ict $$$ion","sh $$$ared","mil $$$itary","ref $$$used","$$$ke $$$y","lead $$$ing","d $$$irt","k $$$ick","inst $$$ant","gather $$$ed","ter $$$ror","car $$$s","opportun $$$ity","proble $$$ms","in $$$h","sh $$$ield","par $$$king","necess $$$ary","inter $$$rupt","reg $$$ret","eas $$$ier","$$$h $$$ouse","doll $$$ars","sc $$$an","r $$$um","dream $$$s","gi $$$ves","ch $$$am","st $$$ars","$$$id $$$ay","$$$ri $$$b","$$$in $$$ated","ex $$$ch","n $$$ic","p $$$ure","dra $$$wn","absolute $$$ly","f $$$ol","tight $$$ly","dis $$$p","hea $$$ven","enem $$$y","chall $$$en","wor $$$ks","kne $$$e","br $$$ow","lo $$$sing","break $$$fast","r $$$ow","$$$con $$$om","every $$$where","dis $$$pl","supp $$$ose","th $$$or","pl $$$ain","c $$$ow","discover $$$ed","em $$$ploy","$$$re $$$l","scream $$$ing","ser $$$iously","fl $$$ashed","cur $$$t","do $$$zen","$$$ot $$$ed","li $$$br","fin $$$ish","act $$$iv","pre $$$fer","rem $$$ain","pr $$$ince","pl $$$ans","$$$k $$$er","cur $$$led","land $$$ed","fren $$$ch","$$$s $$$c","press $$$ure","she $$$l","psy $$$ch","sh $$$owing","tr $$$aining","st $$$un","me $$$as","g $$$igg","res $$$ear","br $$$idge","$$$as $$$y","will $$$iam","kn $$$ock","$$$il $$$ities","$$$c $$$r","christ $$$ian","deep $$$ly","h $$$ors","$$$ire $$$s","cons $$$cious","e $$$conom","s $$$en","tar $$$get","$$$as $$$ons","$$$un $$$ately","t $$$ail","ab $$$ility","t $$$our","lit $$$er","sim $$$ilar","f $$$ed","gard $$$en","sh $$$udd","happ $$$ens","w $$$ings","in $$$ch","c $$$ult","char $$$ge","mov $$$ie","ch $$$ase","ord $$$ered","$$$at $$$ure","$$$m $$$p","bring $$$ing","clou $$$d","he $$$y","$$$it $$$or","g $$$all","em $$$ma","$$$in $$$ary","other $$$wise","p $$$iss","stre $$$ets","pro $$$gram","f $$$ac","st $$$ir","cor $$$rect","int $$$rod","lo $$$ss","$$$im $$$ate","jer $$$ked","b $$$ought","$$$o $$$ying","$$$i $$$os","s $$$ink","res $$$ist","$$$iv $$$al","sp $$$in","hur $$$ried","inf $$$l","c $$$art","re $$$b","en $$$v","rest $$$aur","$$$im $$$p","n $$$amed","$$$ill $$$y","fre $$$ed","$$$nd $$$ay","your $$$s","c $$$y","n $$$ames","b $$$ree","$$$ac $$$hes","e $$$ld","$$$y $$$er","un $$$like","acc $$$ident","determ $$$ined","t $$$ax","$$$t $$$le","desper $$$ate","d $$$ying","repe $$$ated","scr $$$at","$$$i $$$as","fa $$$ith","gas $$$ped","dan $$$iel","wed $$$ding","g $$$le","$$$umb $$$ling","blood $$$y","de $$$ck","ge $$$orge","sle $$$pt","$$$f $$$orm","$$$iz $$$z","prom $$$ised","surround $$$ed","cab $$$in","int $$$ense","sk $$$ill","ho $$$ll","pass $$$ing","b $$$ul","$$$if $$$y","$$$c $$$he","ext $$$reme","c $$$ig","beaut $$$y","$$$c $$$l","plan $$$ned","$$$w $$$ood","sp $$$un","hor $$$ror","mach $$$ine","e $$$ager","k $$$en","ab $$$and","kn $$$ocked","dra $$$gged","plan $$$et","se $$$nding","yes $$$ter","$$$ep $$$ing","gre $$$et","f $$$ucking","e $$$ric","imag $$$ined","be $$$lly","det $$$ect","sear $$$ching","bl $$$ur","dec $$$ide","creat $$$ed","$$$at $$$ors","ex $$$te","$$$e $$$ke","$$$g $$$est","room $$$s","l $$$ing","unc $$$omfort","$$$amp $$$le","r $$$out","v $$$ers","acc $$$ess","hors $$$es","wr $$$ite","gl $$$o","r $$$ace","t $$$an","dir $$$ty","bur $$$ied","narr $$$owed","$$$m $$$as","drag $$$on","mass $$$ive","$$$and $$$er","offic $$$er","gl $$$ow","smil $$$es","$$$ly $$$n","part $$$s","wit $$$ness","tou $$$ching","te $$$ar","f $$$ish","wr $$$iting","wa $$$ves","pict $$$ures","young $$$er","$$$ie $$$ved","l $$$y","warm $$$th","favor $$$ite","fail $$$ed","yester $$$day","r $$$age","w $$$is","br $$$it","w $$$er","per $$$io","sim $$$on","rec $$$all","el $$$iz","near $$$by","roll $$$ing","tight $$$ened","think $$$s","mem $$$ber","e $$$ss","in $$$e","set $$$h","cr $$$ed","draw $$$ing","$$$ro $$$p","sho $$$cked","$$$ag $$$ing","$$$i $$$ant","$$$el $$$ed","aw $$$k","mist $$$ake","li $$$f","un $$$fort","eyebrow $$$s","v $$$ac","ve $$$h","j $$$ane","var $$$ious","vill $$$age","y $$$an","mat $$$ch","gr $$$ad","ob $$$l","lo $$$g","vo $$$ices","ind $$$ic","tem $$$per","$$$a $$$i","glass $$$es","$$$us $$$es","exc $$$ite","bec $$$oming","$$$act $$$ion","j $$$an","mark $$$et","awk $$$ward","$$$ack $$$s","six $$$ty","k $$$ate","$$$in $$$n","fr $$$ame","up $$$set","jos $$$h","anim $$$als","langu $$$age","$$$im $$$ent","$$$ver $$$ed","feat $$$ures","clos $$$ing","set $$$ting","differ $$$ence","ass $$$ist","sil $$$ently","c $$$ook","far $$$m","man $$$age","$$$t $$$he","ple $$$ased","ex $$$h","saf $$$ety","univer $$$s","$$$as $$$hes","t $$$ied","le $$$ap","wo $$$ke","f $$$aded","fold $$$ed","$$$ur $$$ies","call $$$s","$$$* $$$*","t $$$it","polit $$$ical","hu $$$g","t $$$v","prof $$$ess","d $$$ue","det $$$ails","d $$$un","j $$$u","$$$e $$$c","rel $$$ig","n $$$et","cla $$$ire","g $$$on","cor $$$rid","$$$ogra $$$ph","cl $$$o","prot $$$est","some $$$body","da $$$wn","o $$$ce","miss $$$ion","kiss $$$ing","p $$$il","help $$$ing","clen $$$ched","f $$$ab","ch $$$at","do $$$c","coun $$$cil","understand $$$ing","shif $$$t","p $$$age","suggest $$$ed","wonder $$$ful","ch $$$ief","ref $$$er","j $$$ac","c $$$ash","mention $$$ed","per $$$cent","excite $$$ment","$$$oc $$$king","dr $$$unk","$$$f $$$or","$$$p $$$et","co $$$le","intell $$$ig","sw $$$ept","cent $$$ury","is $$$nt","$$$ro $$$ll","com $$$ment","bel $$$t","perf $$$orm","win $$$ter","over $$$w","un $$$w","g $$$ift","soci $$$ety","pull $$$s","tor $$$t","fa $$$ult","d $$$art","e $$$p","we $$$ather","hesit $$$ated","pl $$$at","re $$$asons","chuck $$$led","dr $$$inking","ref $$$lect","ch $$$a","$$$n $$$es","r $$$uss","ev $$$ents","$$$at $$$a","$$$ag $$$g","cust $$$om","$$$iss $$$a","sl $$$ip","sa $$$ved","civ $$$il","partic $$$ularly","rece $$$ived","em $$$ily","b $$$ay","$$$ann $$$ah","$$$ill $$$ing","rul $$$es","ind $$$ivid","wip $$$ed","bo $$$ss","rad $$$io","wel $$$come","cr $$$im","pass $$$ion","$$$er $$$al","$$$ur $$$a","bl $$$ast","$$$i $$$ber","$$$i $$$est","lu $$$ke","fl $$$ood","hung $$$ry","c $$$ave","m $$$c","$$$it $$$es","but $$$t","lo $$$gan","charl $$$ie","$$$an $$$na","$$$0 $$$0","em $$$p","je $$$ff","accord $$$ing","gr $$$ate","mo $$$der","su $$$cked","stre $$$am","pl $$$enty","cur $$$ious","t $$$ang","$$$v $$$iew","sle $$$e","when $$$ever","k $$$ell","r $$$ail","mere $$$ly","stud $$$ents","rest $$$ed","te $$$acher","sc $$$ient","bra $$$nd","st $$$ab","every $$$body","$$$ag $$$ger","vict $$$im","i $$$an","sw $$$ear","he $$$els","$$$oo $$$ked","$$$al $$$k","f $$$acing","sc $$$rew","pract $$$ice","answ $$$ers","pour $$$ed","lead $$$er","big $$$ger","$$$ol $$$ution","conf $$$ir","add $$$ress","$$$ru $$$ction","d $$$are","mar $$$riage","bet $$$r","ord $$$ers","wr $$$ote","relax $$$ed","f $$$ash","u $$$pper","a $$$ver","$$$e $$$ch","coll $$$ect","v $$$en","$$$ill $$$e","ch $$$ick","satis $$$f","strong $$$er","they $$$re","$$$ile $$$y","rep $$$ly","$$$ant $$$age","de $$$g","$$$ic $$$ip","consid $$$ering","p $$$ace","an $$$na","mur $$$m","conn $$$ection","throw $$$ing","rele $$$ase","spr $$$ing","fl $$$ames","$$$l $$$ies","bit $$$ter","p $$$ause","hur $$$ry","li $$$qu","dom $$$in","rap $$$id","ru $$$le","in $$$it","$$$o $$$le","$$$et $$$te","$$$et $$$er","f $$$ant","pr $$$im","bad $$$ly","$$$ab $$$eth","n $$$av","blank $$$et","w $$$es","$$$as $$$es","$$$is $$$ters","stay $$$ing","$$$i $$$ving","expect $$$ing","en $$$s","comp $$$et","$$$her $$$n","enjoy $$$ed","charac $$$ter","$$$u $$$ction","fl $$$owers","$$$r $$$ick","lo $$$ndon","$$$it $$$ation","$$$un $$$ted","$$$id $$$er","an $$$k","sl $$$iding","start $$$s","y $$$a","un $$$ited","$$$it $$$ched","he $$$ight","cast $$$le","aw $$$ake","$$$as $$$c","strugg $$$led","f $$$art","b $$$one","y $$$ard","$$$a $$$f","elev $$$ator","tw $$$ist","individ $$$ual","se $$$v","appro $$$ach","gun $$$s","ry $$$an","de $$$pe","ign $$$ore","d $$$read","thr $$$own","perio $$$d","pl $$$astic","restaur $$$ant","ger $$$man","rep $$$res","form $$$er","libr $$$ary","pap $$$ers","b $$$ased","gu $$$ilt","thigh $$$s","m $$$ult","b $$$er","fash $$$ion","$$$g $$$ie","conc $$$l","$$$se $$$y","ke $$$ys","her $$$o","em $$$br","st $$$air","$$$ro $$$g","v $$$ide","p $$$ip","ninet $$$y","me $$$at","p $$$owers","r $$$if","gro $$$aned","now $$$here","pro $$$ve","build $$$ings","gl $$$ared","dist $$$ant","spo $$$ken","through $$$out","n $$$ational","e $$$ase","re $$$ar","$$$g $$$u","sw $$$im","sm $$$ir","tu $$$cked","fix $$$ed","she $$$ll","sk $$$irt","heav $$$ily","$$$el $$$ing","c $$$ott","b $$$on","tr $$$ad","car $$$ed","cam $$$era","obs $$$er","li $$$z","oce $$$an","v $$$ib","point $$$s","$$$ve $$$y","christ $$$mas","ch $$$ain","$$$m $$$on","t $$$ill","pr $$$in","cr $$$it","h $$$int","un $$$if","$$$r $$$am","b $$$acked","bu $$$zz","mar $$$ry","$$$ow $$$led","press $$$ing","bene $$$f","ant $$$icip","$$$iet $$$y","r $$$am","m $$$ental","tens $$$ion","man $$$ner","sex $$$y","del $$$ight","col $$$on","numb $$$ers","t $$$aught","$$$ne $$$ath","is $$$n","light $$$ly","ty $$$p","overw $$$hel","rich $$$ard","hon $$$or","$$$k $$$n","go $$$dd","por $$$ch","gri $$$pped","$$$ol $$$s","re $$$ver","ca $$$le","ex $$$ample","assum $$$ed","tem $$$ple","$$$ic $$$ing","e $$$gg","smell $$$ed","th $$$us","brief $$$ly","f $$$an","bl $$$ame","po $$$inting","you $$$ve","sw $$$ift","r $$$on","ce $$$le","wor $$$n","mon $$$ster","rid $$$ic","ch $$$oose","small $$$er","s $$$ed","conv $$$in","sp $$$ar","ha $$$ven","ut $$$ter","for $$$med","pre $$$gn","em $$$er","at $$$e","circ $$$um","iss $$$ue","f $$$urn","lar $$$ger","jul $$$ian","conf $$$usion","$$$n $$$ie","kiss $$$es","imp $$$ro","s $$$ank","$$$r $$$ont","americ $$$a","$$$um $$$ps","occ $$$up","accept $$$ed","r $$$ick","tun $$$nel","f $$$ier","under $$$neath","par $$$ked","des $$$ce","$$$he $$$w","convin $$$ced","stand $$$s","creat $$$ures","sl $$$ide","eliz $$$abeth","clou $$$ds","hous $$$es","$$$h $$$ol","cons $$$um","$$$o $$$ll","inc $$$hes","ser $$$ies","$$$ut $$$ed","bal $$$ance","o $$$pt","cele $$$br","surv $$$ive","ab $$$rupt","thousand $$$s","jam $$$ie","spl $$$it","c $$$ream","dam $$$age","det $$$ail","resear $$$ch","uncomfort $$$able","cig $$$aret","te $$$en","1 $$$9","gab $$$ri","bit $$$ch","profess $$$or","c $$$ous","$$$i $$$ance","pract $$$ically","inst $$$ruct","em $$$erg","cry $$$st","or $$$ange","m $$$ail","$$$i $$$ently","lu $$$ci","cont $$$r","r $$$ipped","ann $$$oy","cham $$$ber","$$$al $$$ous","$$$er $$$o","ir $$$rit","bir $$$d","ble $$$w","c $$$it","te $$$nder","t $$$ask","$$$se $$$qu","jud $$$ge","$$$ap $$$er","w $$$ard","europe $$$an","beh $$$av","prof $$$ession","sev $$$enty","th $$$under","br $$$u","pain $$$ting","$$$ac $$$le","r $$$ust","exc $$$use","$$$f $$$ather","hands $$$ome","ter $$$ms","start $$$led","night $$$m","jour $$$ney","sw $$$ir","enc $$$ou","cond $$$ition","p $$$ile","w $$$itch","str $$$uct","$$$ant $$$e","recogn $$$ize","night $$$s","d $$$ug","g $$$al","b $$$unch","$$$m $$$other","br $$$ush","ide $$$as","my $$$st","li $$$ly","a $$$ch","ur $$$ge","pro $$$gress","tor $$$n","wid $$$ened","op $$$in","fir $$$ed","there $$$fore","d $$$ancing","$$$p $$$ected","a $$$ck","$$$ab $$$ility","inte $$$nded","$$$ell $$$a","f $$$ate","$$$u $$$le","pat $$$tern","hundred $$$s","dist $$$ur","freed $$$om","innoc $$$ent","$$$cept $$$ion","rel $$$ieved","norm $$$ally","cr $$$ime","was $$$hing","tr $$$ade","dog $$$s","sil $$$k","plan $$$ning","eight $$$y","$$$ak $$$s","m $$$ate","$$$in $$$o","sc $$$ience","corrid $$$or","$$$o $$$inted","des $$$ign","ac $$$qu","sh $$$r","fell $$$ow","me $$$al","beg $$$un","$$$ell $$$ed","f $$$er","expl $$$os","ar $$$row","tot $$$al","$$$c $$$an","per $$$m","$$$b $$$ook","moder $$$n","$$$are $$$s","univer $$$se","surpr $$$ising","rock $$$s","ch $$$airs","h $$$ood","in $$$ner","m $$$ap","ele $$$ven","cre $$$ate","st $$$umbled","we $$$eke","$$$ien $$$ced","horri $$$ble","$$$o $$$ff","$$$k $$$in","ed $$$uc","r $$$en","$$$ph $$$one","dut $$$y","pur $$$se","br $$$ick","$$$p $$$ir","en $$$orm","d $$$amp","$$$d $$$ed","str $$$ang","cont $$$ract","sens $$$ation","fr $$$ag","pr $$$ide","res $$$c","pur $$$s","b $$$ord","ag $$$ent","ro $$$de","sto $$$pping","a $$$im","comple $$$x","t $$$ie","$$$o $$$e","h $$$ip","displ $$$ay","sett $$$le","sour $$$ce","you $$$ll","$$$ars $$$h","t $$$ed","$$$wh $$$at","infl $$$u","ser $$$ved","$$$or $$$a","ex $$$ec","$$$r $$$ate","we $$$alth","sign $$$s","tow $$$er","$$$os $$$en","u $$$g","est $$$ab","e $$$t","not $$$es","conn $$$ect","$$$ul $$$f","rel $$$uct","proper $$$ty","pound $$$ing","$$$ain $$$e","boy $$$f","lung $$$s","s $$$in","elect $$$ric","clot $$$hing","adv $$$antage","se $$$ll","p $$$icking","unfort $$$unately","av $$$ail","tem $$$pt","be $$$ating","spot $$$ted","ol $$$iv","const $$$ant","spe $$$ech","c $$$rou","re $$$ass","$$$ak $$$er","sevent $$$een","expl $$$od","$$$en $$$ger","fl $$$ipped","fier $$$ce","sk $$$ull","$$$ic $$$y","f $$$ists","st $$$yle","back $$$ward","appear $$$ance","pl $$$us","fur $$$y","conn $$$ected","kn $$$ight","mount $$$ains","t $$$ing","sp $$$ine","br $$$ill","cam $$$er","m $$$aint","be $$$ck","offic $$$ial","ch $$$osen","sn $$$iff","tell $$$s","our $$$selves","rest $$$ing","$$$e $$$g","$$$ll $$$a","pl $$$ant","susp $$$ic","ho $$$ly","$$$c $$$ast","$$$ent $$$h","$$$amp $$$ed","$$$x $$$ic","con $$$ce","ha $$$mm","fro $$$zen","te $$$x","grate $$$ful","six $$$teen","$$$u $$$ght","$$$ang $$$s","ro $$$yal","v $$$all","rec $$$ently","susp $$$ected","ind $$$ust","cap $$$able","$$$ers $$$on","$$$la $$$imed","lot $$$s","was $$$te","d $$$ick","pre $$$vent","up $$$stairs","prev $$$ious","ap $$$olog","$$$r $$$is","$$$at $$$ory","$$$a $$$ult","sh $$$ore","requ $$$est","tra $$$ff","r $$$ot","right $$$s","ch $$$ose","une $$$x","comm $$$ission","land $$$ing","fro $$$ze","$$$o $$$x","e $$$ve","c $$$ro","unif $$$orm","e $$$dd","act $$$ing","$$$oint $$$ment","pl $$$ane","gu $$$il","sl $$$a","ca $$$using","pr $$$ice","$$$ri $$$f","firm $$$ly","expl $$$an","wh $$$ir","let $$$ters","pu $$$zz","u $$$lt","tremb $$$ling","bree $$$ze","exist $$$ence","t $$$ables","no $$$ah","str $$$anger","protect $$$ion","commun $$$ity","breat $$$hed","ret $$$reat","ble $$$ed","h $$$ast","chang $$$ing","coll $$$aps","ack $$$n","chr $$$is","l $$$ined","musc $$$le","bre $$$ad","bast $$$ard","j $$$ose","$$$v $$$ision","was $$$h","dam $$$ned","circum $$$st","orig $$$inal","ha $$$w","to $$$ny","pe $$$ered","$$$k $$$et","clim $$$b","esc $$$aped","cr $$$acked","she $$$et","aut $$$om","sold $$$ier","pr $$$inc","te $$$nd","ra $$$ise","ch $$$ill","cr $$$is","fart $$$her","fl $$$ut","ro $$$bert","stri $$$ke","je $$$alous","$$$al $$$es","ha $$$l","$$$is $$$a","rem $$$aining","$$$k $$$i","$$$ar $$$ies","f $$$asc","car $$$ol","love $$$ly","elb $$$ow","was $$$hed","gra $$$ve","d $$$er","act $$$ual","$$$it $$$er","cap $$$ital","an $$$ne","exper $$$ienced","gest $$$ure","dem $$$ons","d $$$iss","bl $$$az","foot $$$st","sp $$$ect","return $$$ing","jes $$$us","guil $$$ty","l $$$ur","med $$$ical","st $$$al","bag $$$s","enc $$$oun","sn $$$at","shoot $$$ing","se $$$b","li $$$es","part $$$ner","to $$$re","sex $$$ual","$$$t $$$op","$$$un $$$ched","kill $$$er","exp $$$ress","cover $$$ing","w $$$ing","c $$$el","pain $$$ful","che $$$er","mar $$$sh","p $$$ist","desper $$$ately","$$$oc $$$ol","sear $$$ched","imag $$$es","r $$$hy","oliv $$$ia","$$$dd $$$ing","clos $$$et","h $$$oney","luc $$$as","$$$k $$$a","$$$pp $$$y","v $$$ast","$$$ch $$$an","all $$$ey","requ $$$ired","sh $$$akes","int $$$ent","$$$ath $$$y","w $$$il","can $$$not","gaz $$$ed","v $$$ul","$$$f $$$ord","$$$olog $$$ical","aw $$$ful","bo $$$nd","ins $$$isted","$$$ag $$$on","n $$$ap","$$$us $$$hes","mut $$$tered","$$$ra $$$w","$$$be $$$y","g $$$orge","sc $$$ott","pal $$$ace","al $$$arm","r $$$iding","pur $$$ple","tu $$$gged","some $$$what","susp $$$ect","vide $$$o","gre $$$g","in $$$qu","sh $$$ame","no $$$ds","sh $$$own","$$$ot $$$ic","lo $$$ving","$$$ist $$$an","destroy $$$ed","g $$$ear","frust $$$ration","dro $$$pping","$$$ish $$$ment","respond $$$ed","occur $$$red","r $$$aw","poss $$$ibility","piss $$$ed","sur $$$re","hu $$$gged","til $$$ted","conf $$$ident","jo $$$ke","reg $$$ular","pill $$$ow","br $$$an","but $$$ter","neighb $$$or","so $$$ot","it $$$em","h $$$arsh","b $$$rian","wal $$$ks","$$$l $$$or","inter $$$view","$$$ition $$$al","challen $$$ge","atte $$$nd","cl $$$ay","po $$$pped","prod $$$uct","pal $$$ms","as $$$so","grand $$$mother","pain $$$ted","for $$$ces","cop $$$y","bull $$$et","bow $$$l","un $$$ion","aff $$$ord","$$$l $$$ished","mat $$$ters","che $$$w","ar $$$rest","ro $$$le","gro $$$an","t $$$att","$$$m $$$et","loud $$$ly","who $$$ever","a $$$x","drift $$$ed","exha $$$usted","sp $$$ort","$$$ad $$$s","br $$$ows","j $$$ared","$$$u $$$ous","terri $$$fied","ben $$$ch","r $$$ib","seb $$$ast","$$$c $$$ase","agree $$$ment","asso $$$ci","tow $$$el","d $$$w","$$$b $$$led","vir $$$g","v $$$el","d $$$ang","stun $$$ned","$$$ri $$$er","pul $$$se","sh $$$ows","forg $$$ot","fam $$$il","hold $$$s","** $$$*","surround $$$ing","d $$$or","al $$$co","$$$oo $$$p","gir $$$lf","mas $$$k","d $$$ull","boyf $$$riend","warri $$$or","close $$$ly","$$$v $$$is","$$$n $$$al","co $$$ast","enorm $$$ous","d $$$ata","n $$$ate","sh $$$ips","s $$$ke","gl $$$owing","repl $$$aced","univers $$$ity","$$$um $$$ents","k $$$ar","su $$$ck","ro $$$s","fab $$$ric","and $$$rew","b $$$ud","footst $$$eps","fill $$$ing","pay $$$ing","care $$$er","interrupt $$$ed","commun $$$ic","se $$$ction","$$$b $$$el","med $$$ic","grow $$$led","enj $$$oying","bl $$$ake","ha $$$m","dr $$$own","k $$$yl","tra $$$pped","conf $$$idence","van $$$ished","m $$$ile","coll $$$ar","$$$he $$$m","sp $$$an","o $$$il","r $$$ope","att $$$acked","cred $$$it","$$$at $$$ically","gra $$$bbing","char $$$les","cut $$$ting","cl $$$iff","tele $$$vision","col $$$our","$$$i $$$ents","mo $$$ves","princ $$$ip","or $$$g","$$$le $$$ction","rem $$$ark","coo $$$per","lear $$$ning","st $$$s","traff $$$ic","$$$ree $$$k","r $$$att","imp $$$act","prete $$$nd","$$$ver $$$ing","sy $$$mp","discus $$$s","state $$$ment","ne $$$at","$$$u $$$ine","$$$u $$$nd","$$$rou $$$s","s $$$way","s $$$isters","tr $$$ained","l $$$one","$$$om $$$es","sebast $$$ian","r $$$ig","hun $$$t","extreme $$$ly","de $$$mo","$$$het $$$ic","veh $$$icle","care $$$ss","respons $$$ible","g $$$ames","cit $$$iz","nur $$$se","pol $$$ite","adm $$$itted","dev $$$il","secret $$$s","see $$$ming","act $$$ions","dec $$$or","liqu $$$id","des $$$ert","p $$$acked","ru $$$bbing","$$$ative $$$ly","inv $$$is","ign $$$oring","grand $$$father","o $$$m","cl $$$oth","great $$$er","is $$$ab","ridic $$$ulous","sens $$$es","n $$$ut","$$$um $$$ble","pri $$$est","prin $$$cess","lift $$$ing","$$$ump $$$ing","cra $$$p","any $$$body","$$$ir $$$a","r $$$aced","sign $$$ific","fl $$$u","friend $$$ly","po $$$ison","tatt $$$oo","$$$w $$$or","the $$$ory","sn $$$ar","$$$_ $$$_","brit $$$ish","kyl $$$ie","down $$$stairs","mo $$$an","famil $$$ies","fr $$$ed",". $$$\"","$$$ie $$$ve","cent $$$ral","sto $$$ck","un $$$us","weeke $$$nd","gl $$$ancing","hun $$$ting","rest $$$r","yan $$$ked","vis $$$ible","sun $$$light","depart $$$ment","n $$$i","$$$it $$$a","n $$$athan","strugg $$$ling","tr $$$ay","four $$$th","echo $$$ed","l $$$ink","$$$ons $$$cious","avail $$$able","2 $$$0","sat $$$ur","sm $$$ith","gen $$$uine","se $$$m","$$$ul $$$ated","fl $$$ow","sac $$$rif","pro $$$ceed","sof $$$a","exp $$$osed","cle $$$aring","unex $$$pected","al $$$ice","y $$$ards","$$$re $$$te","exp $$$ert","cont $$$ain","gar $$$age","din $$$ing","g $$$y","vall $$$ey","dr $$$um","t $$$apped","liter $$$ally","bill $$$y","gr $$$ant","mur $$$d","aband $$$oned","ex $$$it","ad $$$ult","imp $$$ress","pro $$$s","adm $$$ir","abrupt $$$ly","blond $$$e","v $$$ague","$$$ore $$$s","exte $$$nded","f $$$el","sh $$$ade","sens $$$ed","fore $$$ign","dism $$$iss","bo $$$b","wh $$$ist","offic $$$ers","$$$ag $$$o","prov $$$ided","$$$ian $$$a","c $$$ad","chang $$$es","g $$$ap","ent $$$h","t $$$ap","pur $$$ch","fright $$$ened","e $$$tern","satis $$$fied","cent $$$uries","imp $$$at","arr $$$ange","ar $$$ched","cass $$$ie","che $$$cking","int $$$ens","$$$ac $$$he","back $$$ground","att $$$ached","ug $$$ly","with $$$d","$$$dd $$$y","$$$pl $$$ace","$$$ic $$$les","$$$are $$$st","poss $$$ess","rem $$$ains","z $$$e","sa $$$ke","$$$ash $$$a","$$$en $$$ess","disg $$$ust","$$$oun $$$ce","f $$$ile","soon $$$er","so $$$le","r $$$ange","cat $$$ching","st $$$ones","li $$$am","gabri $$$el","straight $$$ened","col $$$ored","v $$$ent","jul $$$ia","d $$$ot","rom $$$an","$$$bb $$$led","$$$c $$$a","you $$$th","a $$$ust","light $$$ning","l $$$es","br $$$ad","cont $$$ent","app $$$e","dr $$$ank","end $$$s","t $$$ank","$$$p $$$an","$$$r $$$ant","ch $$$amp","lab $$$or","cla $$$imed","opin $$$ion","gl $$$are","appreci $$$ate","me $$$chan","emer $$$ged","he $$$al","j $$$un","lead $$$ers","keep $$$s","cur $$$se","r $$$ip","id $$$iot","pot $$$ential","$$$i $$$ven","bir $$$ds","le $$$e","d $$$umb","$$$im $$$m","c $$$her",
[...]
